#version: 0.2 - Trained by `huggingface/tokenizers`
क े</w>
े ं</w>
् र
न े</w>
र ्
म ें</w>
ह ै</w>
क ी</w>
स े</w>
स ्
य ा</w>
ो ं</w>
ा र
क ्
क ा</w>
त ा</w>
प ्र
क ो</w>
व ा
औ र</w>
क र
व ि
म ा
t e
e n
d o
x t
f te
en do
< |
xt |
fte xt|
endo ftext|
<| endoftext|
<|endoftext| ></w>
ल ि
क ा
स ा
न ा</w>
क ि
् य
ज ा
र ा
ै ं</w>
त ्
न ्
ब ा
भ ी</w>
न ि
प र</w>
ह ैं</w>
ल ा
ह ा
द े
द ि
त े</w>
क र</w>
ह ो
स ं
प ा
ड ़
ह ी</w>
न ा
ह ी
ि य
क ि</w>
ह ु
ए क</w>
ही ं</w>
न ी</w>
ल े
त ा
त ी</w>
लि ए</w>
ल े</w>
म ु
म ि
न हीं</w>
ल ्
म े
च ा
र ह
र ि
ल ी</w>
क् ष
अ प
द ्
स म
ं ग
स ी</w>
ह ि
थ ा</w>
त ि</w>
ल ा</w>
भ ा
त ो</w>
ज ि
र ी</w>
स ि
त ि
य ा
ह ो</w>
क ु
य े</w>
स ु
त ्र
ष ्
इ स</w>
क ो
द ा
द ी</w>
्य ा
श ्
प ु
ि त</w>
श ा
ार ी</w>
ल ो
प ू
य ह</w>
य ो
2 0
म ्
ग ा
च ्
ग ा</w>
का र</w>
कि या</w>
र े</w>
ब ्
स् थ
प ्
कर ने</w>
र ो
र ू
ग या</w>
स क
स े
र ा</w>
ी य</w>
त् र</w>
इ स
व र्
ध ा
क ह
क े
क ्र
ं ग</w>
ज ़
फ ि
त र
श ि
आ प
ज ्
न े
ब ि
व े
उ स
अ ध
ज ा</w>
सा थ</w>
प ह
र े
न ु
ज ी</w>
ख ा
ज ी
स ा</w>
ढ ़
भ ार
20 1
अप ने</w>
ट ्र
त ु
ज ो</w>
ि क</w>
ग ी</w>
उ न
िय ों</w>
ओ ं</w>
िय ा
ट ी</w>
ार ा</w>
कर ें</w>
त क</w>
ग ्र
न ी
बा द</w>
स ी
न ों</w>
कु छ</w>
दे श</w>
ट ि
ार े</w>
ब े
ग ु
ड ि
प ी
म ं
क ै
ब ी
थ ी</w>
उ प
द ू
क ार
आ प</w>
द ु
त र</w>
स ू
ट ा
म ो
व ी
र ी
ह म
द ा</w>
दे ख
श ्र
व ्य
प रि
र ु
च ि
य ों</w>
श ु
ह र</w>
रह े</w>
अ ं
च ु
म ा</w>
ब र</w>
क् या</w>
म ी
अ नु
ड ़</w>
रह ा</w>
ब ं
इ न</w>
व ा</w>
को ई</w>
द र्
उ न्
श न</w>
दि या</w>
थ े</w>
ट े
ब हु
त ी
उ त्
स र
का र्
वा र</w>
च् च
ट र</w>
व ह</w>
पू र्
फ ़
म ी</w>
म ैं</w>
ग र</w>
दि न</w>
रा ज
स्थ ा
कि सी</w>
ै ं
स ो
इ ं
ब ु
द ो
प े
् य</w>
ड़ ी</w>
य ु
बहु त</w>
प्र ा
प ि
कह ा</w>
. .
जा न
हु ए</w>
क ृ
ड़ ा</w>
भार त</w>
ंग े</w>
ल ी
अ ब</w>
अप नी</w>
प ो
ल ग
ज ब</w>
कि न</w>
पह ले</w>
जा ता</w>
ट ्
रू प</w>
ज् ञ
ब ना
ह म</w>
ए ं</w>
चा र</w>
हा ँ</w>
मा न</w>
क र्
र ही</w>
ब ो
हो ता</w>
वा ले</w>
द् व
ज न
मा न
ज न</w>
ड़ े</w>
स ब
ले किन</w>
ड ा
क् त</w>
नि र्
ट ी
क ारी</w>
व े</w>
ल ों</w>
र ख
हु आ</w>
ज ु
ह ू
क्ष ा</w>
ज ो
त े
ज ै
बा र</w>
बा त</w>
ज्ञ ा
स भी</w>
द्व ारा</w>
क ों</w>
ग ों</w>
म ह
च् छ
हो ने</w>
व न</w>
कर ते</w>
ं द
हा ं</w>
त्र ी</w>
सम य</w>
ख ि
श े
ख ु
अ न्
फि र</w>
ग ई</w>
ह ें</w>
तर ह</w>
स मा
सम ्
प ढ़
आ ज</w>
यो ग</w>
व ी</w>
द ो</w>
ना म</w>
म ू
द ी
� �
ग ो
े ं
न ो
फ ा
ख े
प ै
क ॉ
ग ि
म ौ
्य ू
प र
सक ता</w>
स् व
जि स
स् त
ं ड
मु ख
स् ‍
य ू
छ ो
स र</w>
भ ू
द् र</w>
ग ए</w>
अध ि
प ी</w>
लो गों</w>
मु झ
व ो</w>
सि ं
प्र ति
प र्
भ ि
म न</w>
ब ै
डि या</w>
उ स</w>
0 0</w>
भा ष
घ र</w>
ं ड</w>
सक ते</w>
त ीय</w>
च ी
श ब्
क् ति</w>
ट े</w>
द ि</w>
जा ए
वि श्
कर ना</w>
ए व
म ै
र् थ
ज ू
स् ट</w>
र ों</w>
सब से</w>
ट ा</w>
जा ने</w>
ल ॉ
सा ल</w>
स् ता
लि या</w>
हो ं
्र े
मा र्
लि ख
च ा</w>
एव ं</w>
प्र े
का म</w>
ख ो
ब ता
अ च्छ
क्ष े
स र्
हु ई</w>
1 9
क ी
चा ह
द े</w>
ब च्च
अ व
क ई</w>
ल य</w>
लो ग</w>
क म</w>
ल गा
य ी</w>
ृ ष्
ज े
हों ने</w>
उन के</w>
क् ष</w>
सर कार</w>
प ं
ं ट</w>
हो ती</w>
ब द
वा द</w>
क् स</w>
मुझ े</w>
पु र</w>
ार ण</w>
अध िक</w>
उस के</w>
फ ्
ग ी
रा ष्
त ों</w>
इस के</w>
नि य
उ से</w>
मे रे</w>
व ै
कै से</w>
प ा</w>
हो गा</w>
ब ढ़
सिं ह</w>
फ ो
्र ा
हा र</w>
व र</w>
त ं
र ण</w>
नि या</w>
मि ल</w>
सा म
त था</w>
ड िय
स् ट
क ौ
वा ली</w>
द ौ
क भी</w>
श ी
बं ध
पा स</w>
छ ा
20 0
ज ़</w>
मि ल
ह े
म हि
प् त</w>
ब ी</w>
ण ी</w>
िया ँ</w>
क म
कार ण</w>
क ू
कर ता</w>
ख ्
ब ारे</w>
प हु
द र</w>
1 0</w>
हू ँ</w>
क ं
फि ल्
हि ए</w>
स् त</w>
शब् द</w>
स्था न</w>
उन् होंने</w>
जी वन</w>
ड े
वि धा
नि क</w>
ग त</w>
म हा
र् ट</w>
दा न</w>
क ल</w>
चा हिए</w>
स् वा
ार ों</w>
ल गा</w>
मं त्री</w>
म े</w>
भार तीय</w>
ण ्
त ्य
च ना</w>
द् ध</w>
ढ ़</w>
र ू</w>
अन् य</w>
ग्र ा
श ा</w>
ग े</w>
ल न</w>
भाष ा</w>
ले ख</w>
क्र ि
हि न्
वर् ष</w>
कर ण</w>
च े
दू स
त ु</w>
ल् ली</w>
इ न
राष् ट्र
उन् हें</w>
ं च</w>
ल ग</w>
ड ी</w>
दे श
य र</w>
कार् य
ंग ्रे
ल ड़
स ब</w>
उत् तर</w>
जै से</w>
ध ि</w>
ए ँ</w>
मा र</w>
पा र्
जा ती</w>
ज् य</w>
अप ना</w>
मे री</w>
अ गर</w>
ार ा
ग ्
कि स</w>
ं कि</w>
त न</w>
आप को</w>
हम ारे</w>
ख ़
श ो
च े</w>
ऐ सा</w>
व री</w>
ऐ से</w>
थ ा
र् म</w>
द न</w>
यो ग
सा र</w>
र त</w>
ड ी
भ ी
त ना</w>
फ े
ला इ
दा र</w>
िया ं</w>
हो ते</w>
ले कर</w>
गा ं
प त्
पु लि
ह ै
लि ये</w>
.. .</w>
भ ो
सा इ
ं त</w>
भा ग</w>
जान कारी</w>
उ च्च
दु निया</w>
े गा</w>
य हाँ</w>
च ल
कर ा
क्षे त्र</w>
आप के</w>
दि ल्ली</w>
उन की</w>
च ी</w>
वि द
प्र देश</w>
टि प्
पूर् ण</w>
व ल</w>
े ंगे</w>
पूर् व</w>
ं स</w>
श्र े
रा ज्य</w>
क ता</w>
ति क</w>
वि शे
ज वा
पुलि स</w>
क् ‍
रा त</w>
वा स</w>
व ्या
आ ं
क हा
स न</w>
आ ई
क्र म</w>
हि ं
उच्च ारण</w>
सं स्
ब र
क्ष ण</w>
ध ी</w>
ण ा
ध ा</w>
बी च</w>
त्र ों</w>
डिय ो</w>
क वि
व्य व
प ृष्
फ ै
ज ्या
अ ग
उस की</w>
ब न
स्थ ि
कौ न</w>
न् न</w>
उ ठ
�� ��
सम ी
ब ्र
ं द</w>
इ से</w>
शु रू</w>
ध न</w>
त् व</w>
च ित</w>
रा न</w>
म त</w>
दो नों</w>
भ े
द ्र
न ौ
म ैं
खे ल</w>
1 0
ब ू
ज े</w>
च ौ
प्र कार</w>
जा ते</w>
स ह
तु म</w>
आ ई</w>
ता ओं</w>
प ता</w>
बै ठ
ले ख
प न</w>
ज न्
ए स
वा ला</w>
ज ग
द ों</w>
ब न</w>
ज्ञा न</w>
य न</w>
्य ो
रा म</w>
घ ट
त ें</w>
जा र</w>
उ म्
मैं ने</w>
खि ला
ना व</w>
भ ा</w>
धा र</w>
त ै
1 2</w>
ट ू
प ति</w>
अ भी</w>
पा नी</w>
क् यों</w>
ज रू
सम झ
सं पा
ट ल</w>
भ र</w>
इ न्
ण ा</w>
मा म
ष् ट</w>
दू र</w>
ग र्
ओ र</w>
य हां</w>
अ भि
आ र
भा व
क्ष ा
त् य</w>
ह न</w>
स् वी
दे ने</w>
प ड़
पढ़ ें</w>
च र्
फ ी</w>
ती न</w>
3 0</w>
त्र ा</w>
1 1</w>
न ई</w>
म ध
ब् लॉ
सा न</w>
ज्या दा</w>
म क</w>
श र्
र् थ</w>
ब ना</w>
भा व</w>
वा ल</w>
च ल</w>
ल ं
स् तु
द र
घ ा
ला ई</w>
त् व
त ब</w>
य दि</w>
व ृ
ख ा</w>
य क</w>
फिल् म</w>
अ क्
र् ड</w>
अ लग</w>
ता र</w>
न व
रु प
ल ें</w>
ट्र े
टिप् प
प्र का
वि का
क ़
ग ै
ब ॉ
श ी</w>
मे रा</w>
भ ्र
ह त</w>
सक ती</w>
लि क</w>
दि खा
च ू
अ न
म ों</w>
ख् या</w>
आ गे</w>
इ सी</w>
अच्छ ा</w>
मे ंट</w>
ब ा</w>
दि त</w>
ब ड़े</w>
सा मा
तु म्
ध ि
ल ू</w>
2 0</w>
प्रा प्त</w>
विद ्या
कु मार</w>
जा ना</w>
ब स</w>
ब ड़ी</w>
प्र ो
त ियों</w>
नी ति</w>
कं प
वि कि
ं क</w>
व्य क्ति</w>
ड ा</w>
ल ने</w>
स द
श्र ी</w>
क् यो
बता या</w>
ज ना</w>
आप की</w>
ह र
का ल</w>
पु रा
उ न</w>
आ व
न ्या
ं द्र</w>
लो क
स् था</w>
विका स</w>
ब ल</w>
पि छ
पू री</w>
त म</w>
दर् शन</w>
स्थ ित</w>
गी त</w>
य ता</w>
ल ब्
ट ो
वि ष
ध ार
समा ज</w>
घ ो
ड ्
च ै
पा ल</w>
बे ह
हिन् दी</w>
ति हा
सु न
सु र
इ ल</w>
क ल्
ए म</w>
परि वार</w>
पहु ं
सं ख्या</w>
घ ं
त नी</w>
देख ें</w>
ह ों</w>
ध ्या
उप लब्
जाए गा</w>
राष्ट्र ीय</w>
मो दी</w>
हा ल</w>
पी डिया</w>
1 5</w>
शा मिल</w>
ए स</w>
हो गी</w>
दौ रान</w>
2 4</w>
बच्च ों</w>
श हर</w>
स ै
ड े</w>
पो स्ट</w>
के वल</w>
अ मे
त ो
अध ्य
ंग ी</w>
हि त</w>
बा हर</w>
ज र</w>
स्थि ति</w>
विकि पीडिया</w>
ौ र</w>
पृष् ठ</w>
न ही</w>
वी डियो</w>
र् स</w>
य ें</w>
म ण</w>
रा म
बना ने</w>
वा न</w>
अ प्र
दि ल</w>
क्यो ंकि</w>
प ्या
व ज
त ने</w>
ल ता</w>
तर ी
ब ैं
ल त</w>
मा ण</w>
स फ
म ार
ह े</w>
कु ल</w>
ध ी
ट र
आ दि</w>
हा थ</w>
कर ती</w>
चु नाव</w>
मु ख</w>
ह ्
िय े</w>
ल ो</w>
स् कू
ए क्
स्ता न</w>
वे श</w>
र् य</w>
ज य</w>
ंग ा</w>
अमे रि
ब ड़ा</w>
ग े
ल ै
1 2
कर् ता</w>
साम ने</w>
इ स्
उस ने</w>
म त
मा ल</w>
श ्य
ह ा</w>
ग यी</w>
त्र ि
वा ई</w>
कह ते</w>
का न
स भा</w>
ग ये</w>
ख ू
स हा
म ृ
न ि</w>
धा न</w>
ै ल</w>
दे ख</w>
च ो
201 6</w>
क्रि या</w>
ट ो</w>
ट् स</w>
न गर</w>
आ या</w>
नि क
स् प
देख ा</w>
ा ई</w>
कवि ता</w>
आ ने</w>
इस का</w>
ल ू
यु क्त</w>
ह में</w>
कर के</w>
सि र्
टि ंग</w>
महि ला</w>
उन का</w>
ध ्
इस लिए</w>
हिं दी</w>
कार् य</w>
आप का</w>
न् य</w>
ध र्म</w>
ग ठ
फ ़</w>
जा ए</w>
उप योग</w>
य ही</w>
संपा दित</w>
सं बंध
ष ण</w>
श री
स्था प
उस का</w>
न ्यू
आ द
पू छ
ग ं
स ही</w>
सा हि
फ ्र
ण ों</w>
विशे ष</w>
न ल</w>
अनु सार</w>
का ंग्रे
ज़ ा
ट न</w>
थ ो
क हीं</w>
बि ना</w>
ट ै
मार् च</w>
या र</w>
भ व</w>
दूस रे</w>
इस से</w>
ज ारी</w>
सा ं
प्र योग</w>
प सं
स् टे
खु द</w>
लग ता</w>
प्र ति</w>
खो ज</w>
अप्र ैल</w>
कर ो
जि स</w>
ह टा
हो ना</w>
जग ह</w>
पार् टी</w>
लि त</w>
कृ ति</w>
अ ति
ध ्य
न् द्र</w>
रा ज</w>
शि क्षा</w>
फ़ ि
म ना
व ो
म नो
द ें</w>
महि ला
म द
ल ौ
प्र स्तु
प री
ल ु
हू ं</w>
ऐ सी</w>
बं ध</w>
ला ल</w>
उ पा
मि त</w>
सम स्
ड र</w>
जन वरी</w>
स ौ
भा ई</w>
इ ला
ड ल</w>
वि चार</w>
कि ए</w>
य त</w>
वा ह</w>
र ह</w>
ए ं
त ्या
कांग्रे स</w>
1 4</w>
ए म
प्र श्
पू रा</w>
के ट</w>
भ ु
ी ं</w>
2 5</w>
सद स्
मि क</w>
ज ें</w>
आ रो
त र्
ब न्
स् तर</w>
इ तिहा
जि न
श्र ी
बं द</w>
घं टे</w>
विश् व</w>
फ ू
कि स
भ ग
ब्लॉ ग</w>
का फी</w>
न ीय</w>
ी क</w>
से वा</w>
निर् माण</w>
दे ते</w>
ला इन</w>
1 3</w>
जान ें</w>
या द</w>
जन् म</w>
स् टा
ष् य</w>
लग े</w>
शरी र</w>
स ल
ए न
ल गी</w>
201 2</w>
अ भ
/ 0
आव श्य
ध ु
य र
1 6</w>
ण ियाँ</w>
म ज
फ ी
सिर् फ</w>
म ही
ड ॉ
1 8</w>
त् ता</w>
ज ल</w>
च ार
पह ली</w>
मुख ्य</w>
पा ठ
जु लाई</w>
छ ु
201 1</w>
शा य
प त्र</w>
अ ंग्रे
खिला फ</w>
आ त्
श् य</w>
् ‍
ब े</w>
विद्या लय</w>
र ं
प्र ि
दि ए</w>
झ ा
ने ता</w>
सू चना</w>
विश् व
दि र</w>
इतिहा स</w>
मु ं
या त्रा</w>
जा य
जि त</w>
आ म</w>
प्या र</w>
जू न</w>
कहा नी</w>
र ु</w>
इस में</w>
से क्स</w>
कर े</w>
या ं</w>
पो र्ट</w>
गां व</w>
े गी</w>
हो टल</w>
ंग ा
थ ि</w>
5 0</w>
मि ला</w>
ध्या न</w>
ख ों</w>
उपलब् ध</w>
प्र मुख</w>
व ि</w>
मा ँ</w>
यो जना</w>
को शि
र ंग</w>
न ए</w>
मी डिया</w>
रह ने</w>
हम ारी</w>
प रे
अ स
स्कू ल</w>
प् ता
1 8
टा इ
ब ल्
तुम् ह
ज ल्
पा र</w>
घ ु
भि न्न</w>
ड ो
कर ी
ग ढ़</w>
पा कि
ब र्
ग्र ी</w>
द म</w>
माम ले</w>
मु क्त</w>
सु विधा
उ द्
मे ल</w>
आ धार</w>
क् टर</w>
टी म</w>
वि रो
आ ँ
क ट</w>
ब ह</w>
ह री</w>
बच्च े</w>
ट ि</w>
201 0</w>
िय ो
ब ार
ह ॉ
आ यो
जू द</w>
ग्र ह</w>
त्र ा
गि र
दि नों</w>
1 7</w>
स न्
साइ ट</w>
ठ ीक</w>
ची न</w>
मुख ्य
वर् ष
चाह ते</w>
पी छ
क ल
ज ब
तै यार</w>
.. ..
पि ता</w>
श ित</w>
उ द
क् ति
अच्छ ी</w>
कार्य क्रम</w>
न ्य
बढ़ ा
ग ण
मा ना</w>
वि भाग</w>
दे ता</w>
ला ख</w>
व रण</w>
म् बर</w>
क ड़
पु रु
जिस में</w>
श ं
ग ़
नौ कर
क्ष ित</w>
रि या</w>
शा दी</w>
मौ त</w>
ब ह
वा स्त
हा ला
प े</w>
अ ला
वा लों</w>
त ार
ती स
बु क</w>
क हाँ</w>
जन ता</w>
���� ����
पिछ ले</w>
वि त</w>
ग ल</w>
या द
ऊ पर</w>
1 1
ज हां</w>
जि न्
ले ने</w>
इस की</w>
जि ला</w>
शा सन</w>
क्ष ि
त् ‍
द ृष्
सा ध
म र</w>
व त</w>
न ै
त्व पूर्ण</w>
समा चार</w>
वि ज्ञान</w>
प द</w>
ता ल</w>
म स्
चर् चा</w>
नी चे</w>
पसं द</w>
परि वर्
ं बर</w>
ल ना</w>
2 1</w>
भ र
उम् मी
व्यव स्था</w>
प्रे म</w>
दि व
कि ंग</w>
ल क</w>
ल र</w>
स वाल</w>
म ंग
सु बह</w>
का न</w>
बैं क</w>
कम रे</w>
त ू
इ तना</w>
सि क</w>
बा ल</w>
ह रे</w>
पर् क</w>
अ र
फो न</w>
जा न</w>
ब च
ट ों</w>
रुप ये</w>
न या</w>
म ई</w>
करो ड़</w>
ज य
जि क</w>
मि न
सम ू
कार ों</w>
प श्
स्वा स्थ
हे तु</w>
ज ों</w>
कृ त</w>
प्र या
ध े</w>
मद द</w>
पीछ े</w>
ल ब</w>
स ों</w>
मा ध्य
1 9</w>
ति म</w>
अमेरि का</w>
उठ ा
नि का
शाय द</w>
201 4</w>
ण् ड</w>
ल क्ष
महिला ओं</w>
सू ची</w>
व हां</w>
म् प
ंद ्र
वज ह</w>
मं दिर</w>
उत् पा
भा ग
ठ ा
ल् य</w>
देख ने</w>
ला ने</w>
हि स्
घट ना</w>
जि से</w>
2 2</w>
श् वर</w>
नि म्
भ ग</w>
च ला</w>
फ ु
भा ज
अ र्
आ वा
जवा ब</w>
प्र धा
कर् म
क न</w>
र चना</w>
अ प</w>
र् म
ना ओं</w>
प ार
लग भग</w>
टिप्प णी</w>
सम झ</w>
ज़ ि
ब ्रा
मे ं
वा र्
द ू</w>
ष् ठ</w>
अला वा</w>
दर् द</w>
से ना</w>
ब ई</w>
दु र्
आद मी</w>
0 0
दे व
कह ना</w>
का ं
201 5</w>
त् मक</w>
ैं ड</w>
ब्र ि
कर ेंगे</w>
प्र दर्शन</w>
स्वास्थ ्य</w>
स् ट्र
उ सी</w>
स द</w>
स् टर</w>
आ य
रह ते</w>
गा ँ
ग्रा म</w>
ख री
म न
201 3</w>
म र
संबंध ित</w>
रख ा</w>
भ्र मण</w>
र वरी</w>
बा तें</w>
ल् ‍
प्र भा
मु स्
थ म</w>
श ै
खा ना</w>
प्र वेश</w>
जब कि</w>
दे ना</w>
ज्ञा न
गु ज
कान ू
ध र</w>
समी क्षा</w>
ब जे</w>
3 6
स मु
समी क्षा
ब चा
इं टर
फो टो</w>
भाज पा</w>
वा प
मह त्वपूर्ण</w>
तं त्र</w>
रह ता</w>
कोशि श</w>
ंग ्
जी त</w>
वि भिन्न</w>
ने ट</w>
श ल</w>
क ह</w>
प ट
त क
ड ॉ</w>
र च
आ ता</w>
सा ह
उम् र</w>
200 9</w>
ठ ी</w>
आ तं
2 3</w>
फा य
ए क
बि हार</w>
ख ंड</w>
वर् ग</w>
हो कर</w>
कै सा</w>
शा स्
च् च</w>
साहि त्य</w>
द ारी</w>
खा न</w>
व ों</w>
नि श्
न ो</w>
मिन ट</w>
पाकि स्तान</w>
र् ष</w>
पु र
अ र्थ
र िय
लेख क</w>
घो ष
ह रा
लिख ा</w>
न र</w>
धार ित</w>
ला भ</w>
2 6</w>
वा दी</w>
रि श्
प्रधा न
फ ल</w>
ना थ</w>
प ल</w>
ला ग
2 8</w>
र ो</w>
ज़ ा</w>
अग स्त</w>
आ ती</w>
सि त
भग वान</w>
न ें</w>
पू रे</w>
सा फ</w>
रख ने</w>
देश ों</w>
दे व</w>
ख बर</w>
कंप नी</w>
प्र थम</w>
हो ंगे</w>
आ ए</w>
त स्वी
दे र</w>
सामा जिक</w>
विष य</w>
कृ ष्
वे दन</w>
ि या</w>
त ौर</w>
तर फ</w>
त ू</w>
ब ने</w>
ह रा</w>
प ड़ा</w>
ना ग
छो ड़</w>
जिस से</w>
विशे ष
श क</w>
सुर क्षा</w>
चि त्र</w>
ं भ</w>
म ॉ
आ न
पा ंच</w>
बना या</w>
क्र ा
ंद र</w>
उप योग
सर कारी</w>
व क</w>
मो बा
क् लिक</w>
वी ं</w>
स ड़
त ृ
छो टे</w>
2 7</w>
चि कि
मू ल्य</w>
इं डिया</w>
आप ने</w>
करी ब</w>
मि ले
म ि</w>
सं गठ
खा ने</w>
स प
व र
द ल</w>
म् म
मा ता</w>
या ँ</w>
उ ल्
द् धा
शर् मा</w>
कै ं
मि ली</w>
म ारी</w>
पत् नी</w>
श क्ति</w>
जिस के</w>
सं बंध</w>
रि पोर्ट</w>
कि ये</w>
को श</w>
ते माल</w>
ट् र</w>
व ही</w>
प्र दान</w>
पै से</w>
च र</w>
जाए ँ</w>
थ ीं</w>
स ारे</w>
बि ज
त रा
ल ते</w>
म न्
य ल</w>
गां धी</w>
ह जार</w>
सं पर्क</w>
सम र्थ
रि क</w>
स्व य
को र्ट</w>
क ला
या लय</w>
स प्ता
ति थि</w>
माध्य म</w>
मही ने</w>
द् धि</w>
ख ी</w>
परि णा
ह मे
प क</w>
ता न</w>
क ब</w>
प्र त्य
दि सं
लो ड</w>
त हत</w>
अ ल्
पा या</w>
त् या</w>
दिसं बर</w>
भो जन</w>
प त्र
प्रधान मंत्री</w>
मुख्य मंत्री</w>
बल् कि</w>
त् त</w>
दूस री</w>
दे ं
जा ंच</w>
पह चा
श ो</w>
अधि कार</w>
सामा न्य</w>
त ः</w>
व ु
बा जार</w>
साम ग्री</w>
जो ड़
ख े</w>
हमे शा</w>
ग ौ
प्रया स</w>
द् ध
भ र्
ब ू</w>
प क
्य ों</w>
ल् ड</w>
प ॉ
ऑ न
अध्य क्ष</w>
२ ०
क ला</w>
छो ड़
म ता</w>
राज नीति</w>
सि तं
मी र</w>
दर् ज</w>
न ज़
बेह तर</w>
सितं बर</w>
्य ता</w>
ंद गी</w>
व हीं</w>
स ला
स्ट ो
निय म</w>
लड़ की</w>
त ला
श त</w>
लाग ू</w>
परे शा
द क्षि
ध ू
नि यों</w>
वा सी</w>
ं त्र
समस् या</w>
ट क</w>
न् ‍
जि ले</w>
2 9</w>
रा ब</w>
म गर</w>
च न</w>
अधि कारी</w>
लो क</w>
स च</w>
वे ब
मह ारा
आ खि
व ्य</w>
श ि</w>
सप्ता ह</w>
मज बू
मोबा इल</w>
के ंद्र</w>
डा य
भ ारी</w>
आ र्थ
ज हाँ</w>
आ ते</w>
ल ैंड</w>
न् तु</w>
कि ल</w>
ग म</w>
ग्र े
ठ ा</w>
अति रि
छ ू
े क</w>
श्रे णी</w>
ए ल</w>
ं ति</w>
मा ं</w>
आ र</w>
1 6
चि ं
वि क</w>
म नु
1 4
स् पे
सर् व
पह ला</w>
लिख ित</w>
2 .
प क्ष</w>
द ृ
क्ष क</w>
कॉ मेंट</w>
1 5
म र्
ज ें
व हाँ</w>
न जर</w>
दें हटा
गा र</w>
मा ने</w>
पहु ँ
ल ती</w>
अ र्थ</w>
स त</w>
शे यर</w>
विधा न</w>
र वि
विश् वास</w>
स चि
से ं
अं तिम</w>
फा ई</w>
समू ह</w>
जरू रत</w>
ल् क</w>
ज ्यो
बंध न</w>
भर् ती</w>
वि ध
मा ंग</w>
मा ं
ष ि</w>
अ ने
सहा यता</w>
रा य</w>
उस से</w>
मू ल</w>
स ारी</w>
बर ें</w>
उ दा
झ ा</w>
हम ारा</w>
प्रका शित</w>
रा जा</w>
ई ं</w>
ऑ फ</w>
ऑन लाइन</w>
हाला ंकि</w>
दर् भ</w>
3 1</w>
आर्थ िक</w>
न दी</w>
प न्न</w>
उ च्च</w>
दि यों</w>
धी रे</w>
व्य क्ति
मी न</w>
अप रा
उपा य</w>
्र ो
चिकि त्
इस् तेमाल</w>
1 7
ले ज</w>
फ़ ा
वाप स</w>
फै स
श्रे णियाँ</w>
विरो ध</w>
दिव स</w>
वै से</w>
हम ने</w>
प ड़े</w>
अं क</w>
त् म</w>
ल कर</w>
0 00</w>
सो च</w>
सं घ</w>
द य</w>
च ने</w>
स के</w>
मि ले</w>
ट ॉ
पं चा
परिवर् तन</w>
चल ते</w>
आ र्
201 7</w>
सा त</w>
ी न</w>
या न</w>
१ ९
स म</w>
क श्
मुं बई</w>
ट् टी</w>
ट ्यू
याद व</w>
यु वा</w>
ग र
राज नी
मु द्
2 3
प्र ी
ला या</w>
कल् प
1 3
बा ं
व ती</w>
मान व</w>
कार ियों</w>
टू बर</w>
परी क्षा</w>
जा ग
प्रश् न</w>
चु के</w>
आ वेदन</w>
रा शि</w>
ल् स</w>
छ ि
्य ु
पश् चि
प्र ार
वर् त
सि द्ध</w>
प्रि य</w>
शा म</w>
रू प
न् द्र
ध ो
सल मान</w>
बैठ क</w>
जै सा</w>
दे ती</w>
ध ित</w>
न रे
कृ तिक</w>
ब नी</w>
तरी के</w>
पु स्
बद ल</w>
ग ति</w>
यो गी</w>
ड़ ा
आ इ
क् र</w>
वु ड</w>
रा स्
कर ें
प्र भाव</w>
अं तर
अक् टूबर</w>
भू मि</w>
अतिरि क्त</w>
व ं
इन् हें</w>
स्थाप ित</w>
गु रु</w>
सु न्
सम् बन्
स्वय ं</w>
इ तनी</w>
पं जा
व्य ू
प्रका श</w>
च ारों</w>
स मान</w>
ट ने</w>
उपयोग कर्ता</w>
पा न</w>
अक् सर</w>
ज ल
मि का</w>
भा र</w>
स हित</w>
परिणा म</w>
लि ंग</w>
4 0</w>
द क</w>
चाह ता</w>
वर्त मान</w>
जाए गी</w>
सि त</w>
स क</w>
मिल ने</w>
टे ड</w>
जै सी</w>
रह ती</w>
छो टी</w>
मध ्य</w>
य म</w>
ल ख
स मि
से वा
क था</w>
क ठ
जी व</w>
शि का
स दी</w>
जो र</w>
गु रु
ग ू
भाव ना</w>
प्रति शत</w>
च ले</w>
अ थ
फ़ि ल्
म् स</w>
कि तना</w>
का म
आरो प</w>
कि ता
जा ति</w>
मनो रं
ज़ ी</w>
सी मा</w>
ह ल्
पर् या
मे ह
ख ब
ले ते</w>
क्रि केट</w>
जरू री</w>
नि ए</w>
पुर स्
क ने</w>
अनु भव</w>
न क</w>
सम् मान</w>
न् त</w>
रुप ए</w>
अ के
थ ु
ग री
फ ा</w>
कानू न</w>
य ू</w>
ली न</w>
0 1</w>
दो लन</w>
प्र क्रिया</w>
क त</w>
बा बा</w>
अने क</w>
पा ने</w>
च् ‍
अ स्प
कर ो</w>
गिर फ्
रा इ
देख ते</w>
जान ते</w>
आ ज
व ार
आ राम</w>
क ड़ी</w>
मा त्र</w>
सदस् य</w>
दे वी</w>
द स</w>
ए ल
ब ढ़</w>
देश ी</w>
रो ग</w>
पू जा</w>
रच ना
खा स</w>
पु न
अच्छ े</w>
ध न्य
र ल</w>
शु ल्क</w>
दिखा ई</w>
राष्ट्र पति</w>
वि ष्
मार् ग</w>
चु का</w>
संस् कृति</w>
कि तने</w>
स ो</w>
प ौ
निश् चित</w>
व्या पार</w>
पढ़ ें
र ख</w>
प्रे स</w>
म री
सा इन</w>
तक नी
द गी</w>
शि व
टी वी</w>
च य</w>
0 5</w>
लि ंक</w>
लि यों</w>
अंग्रे जी</w>
पड़ ता</w>
मी टर</w>
19 9
प्रस्तु त</w>
सं गीत</w>
बे टी</w>
यु द्ध</w>
प्र णा
क वि</w>
मौ जूद</w>
पुरु ष</w>
पै दा</w>
गं भी
सा द</w>
व क्त</w>
कृष् ण</w>
स फाई</w>
कल् प</w>
रे ं
मा ह</w>
व ॉ
र ें</w>
जु ड़े</w>
क मी</w>
स् थ</w>
अ फ
रि त</w>
कि यों</w>
स ॉ
ज़ा र</w>
प ड़</w>
ल म्
ध र
आ त</w>
झ ू
प् ला
जो ड़ा</w>
र् च</w>
मु श्
वि ज्ञा
कार् ड</w>
घ रे
चाह े</w>
कि शो
राज स्थान</w>
ध िक</w>
र ै
अं दर</w>
च क</w>
प या</w>
ह त्या</w>
पू र</w>
ह क</w>
भाष ा
मिल ता</w>
जा ये</w>
ब ता</w>
विश्व विद्यालय</w>
पो र्
त् तर</w>
चु की</w>
श ु</w>
सु ना</w>
अव सर</w>
प्र व
दक्षि ण</w>
ब धा
न् द</w>
्यू टर</w>
कैं सर</w>
भी तर</w>
निय ंत्र
ड़ ों</w>
ख ्या
घ ू
मू ल
ग ति
स् ट्रे
वि धा</w>
प ृ
ला व</w>
सा र्
तार ी
सड़ क</w>
की मत</w>
कृ पया</w>
लगा तार</w>
ता कि</w>
मुख पृष्ठ</w>
न ्</w>
दू ध</w>
बन ने</w>
र ंग
क्र ो
व ्
1 00</w>
े श</w>
द् वि
कि तनी</w>
ज्यो ति
सं देश</w>
200 8</w>
त् ति</w>
सं युक्त</w>
दौ र</w>
रख ें</w>
पे ट</w>
सि ल</w>
र् जी</w>
शु रु
ग ो</w>
आवश्य क</w>
ह रण</w>
दि क</w>
र ण
ण ि
आ धारित</w>
बो र्ड</w>
ट्र ा
पहचा न</w>
फ ॉ
दा य
बिज ली</w>
प त्रि
संगठ न</w>
आ उ
मनु ष्य</w>
गाँ व</w>
लगा या</w>
श नि
राजनी तिक</w>
क् शन</w>
ं सी</w>
प दा
रा नी</w>
आ ग</w>
डा उन
पूछ ा</w>
र ता</w>
मत लब</w>
वेब साइट</w>
का उ
अथ वा</w>
ले ट</w>
एक् स
वे द
ज ॉ
आ ये</w>
त भी</w>
जल् दी</w>
ार ो
छा त्रों</w>
धन्य वाद</w>
ग लत</w>
को ण</w>
ल वार</w>
ग ृ
अध्य यन</w>
थ ों</w>
नि कल</w>
सु ंदर</w>
उत् तरा
स्ता र</w>
व ारी</w>
पुरस् कार</w>
वै ज्ञा
सू स</w>
व्यू स</w>
आ देश</w>
सं घ
सफ ल</w>
न ारा
पुरा ने</w>
. 0
क् त
2 5
शब् दों</w>
जिस का</w>
श ू
सा य
शि क्षण</w>
दूस रा</w>
हा र्
पृ थ
छा त्र</w>
वि स्तार</w>
क् यू
अ क्ष
समर्थ न</w>
भ वि
पुस् तक</w>
झ ु
पत् ति</w>
निम् न
पृष् ठ
त य</w>
सो म
ग्रा मी
इ क</w>
मु ला
क ीय</w>
ब ज
दि ख
घरे लू</w>
तु म
आयो जित</w>
भवि ष्य</w>
लाइ व</w>
दा स</w>
चा ई</w>
नौकर ी</w>
सुर क्षित</w>
रे ल
आ सान</w>
प्रत्य ेक</w>
जन क</w>
सुन् दर</w>
वि वाह</w>
जि म्
ली वुड</w>
संस् करण</w>
दी प</w>
शि या</w>
स ब्
आवश्य कता</w>
प न्
क् ट</w>
कर ेगा</w>
समि ति</w>
द बा
लि म</w>
हो म</w>
ह ज
प रा
ले ना</w>
2 4
क न्
कश् मीर</w>
अ नि
स्थाप ना</w>
रा हु
अस्प ताल</w>
अनु वाद</w>
जा निए</w>
शु भ
मनोरं जन</w>
जि ंदगी</w>
डाउन लोड</w>
अभ िया
पर ं
ड ्र
न् स</w>
ण ु</w>
मध ु
प्र ती
क दम</w>
पु त्र</w>
सू रत</w>
ब हा
ि ए</w>
शु क्र
मू र्
वास्त व</w>
उस में</w>
वर् ण
निम्न लिखित</w>
क् स
र् क</w>
ने स</w>
से हत</w>
नि त</w>
त मा
व न
लॉ ग</w>
साह ब</w>
फ़ ्
जरू र</w>
भू मिका</w>
आ ए
समस् या
सं विधान</w>
मि ला
गु ण
देख कर</w>
उ र्
आन ंद</w>
त री</w>
अ सर</w>
या त्री</w>
अग ले</w>
बं दी</w>
श न
फ रवरी</w>
ष ों</w>
ष क</w>
श ह
राहु ल</w>
�������� ��������
इला ज</w>
बद लाव</w>
ब ित</w>
क्षे त्रों</w>
p m
बधा ई</w>
अ ंग
म ल</w>
न त</w>
बि क</w>
ढ ा
शी ल</w>
श िय
व जन</w>
च म
हिस् सा</w>
श नल</w>
सौ ं
ते ल</w>
टिप्प णियाँ</w>
रवि वार</w>
प्रभा वित</w>
ट्र ो
ब ों</w>
इंटर नेट</w>
तू बर</w>
मं च</w>
नज़ र</w>
पंजा ब</w>
म ै</w>
सं भव</w>
जि न</w>
ज र्
मं डल</w>
उन से</w>
बा व
सोम वार</w>
डि ंग</w>
दृष् टि
त्र ता</w>
क्र े
क्‍ या</w>
सि र</w>
ह ृ
ब रा
फ्र ें
बि ल्
सर ों</w>
या नी</w>
लख न
नव ंबर</w>
र क्षा</w>
लगा ने</w>
चू त</w>
प्र स्ता
घट ना
का मना
आ धु
: 5
र न</w>
दि सम्
0 6</w>
कर वा
स् ती</w>
स त्ता</w>
अं तर्
ए जें
ज्ञान कोश</w>
छ त्
नो ट</w>
सू र्य</w>
ते ज</w>
बा की</w>
इन के</w>
मृ त्य
रह ें</w>
मान क</w>
ण् ड
सु धार</w>
द् य</w>
मो हन</w>
आ योग</w>
36 5</w>
त्र ियों</w>
ध ारा</w>
ज मा</w>
पहु ंच</w>
ब ्रे
प क्ष
इ च्छ
मौ सम</w>
स ियों</w>
च यन</w>
0 3</w>
आ कर्
सो च
: 4
: 00</w>
0 4</w>
0 2</w>
वि धि</w>
वि वरण</w>
दिसम् बर</w>
स्था नीय</w>
ख बरें</w>
जा कर</w>
को र</w>
र स</w>
गंभी र</w>
स्वा मी</w>
पे श</w>
के ंद्र
मध ्य
आ हार</w>
दि शा</w>
हर िया
ष् टा
म ति</w>
सि टी</w>
माम ला</w>
जा य</w>
च रण</w>
अधि क
उप चार</w>
चै ट</w>
शनि वार</w>
स् त्री</w>
द ्यो
इं त
ड् स</w>
ज मीन</w>
न ू
इस् ला
त् कार</w>
श ौ
वी र</w>
का श</w>
ड ्रा
कार ्र
वा य
तुम्ह ारे</w>
तै य
मुश् किल</w>
सु ख</w>
सा गर</w>
अं त</w>
दो स्त</w>
प् ‍
्‍ य</w>
सफ लता</w>
बेह द</w>
0 5
ख ी
हिन् दू</w>
जे ल</w>
शु भ</w>
अव धि</w>
पर् य
ट ु
विज्ञा पन</w>
दा ई</w>
स्थ ल</w>
ब् ला
दू री</w>
तर ण</w>
टि व</w>
ं दा</w>
रेल वे</w>
न तम</w>
रू म</w>
सू र
अभिया न</w>
न ंबर</w>
ंड ा</w>
छत् तीस
मा नों</w>
सु ना
बा लों</w>
ि श</w>
रि ंग</w>
स्व रूप</w>
मो ह
ची नी</w>
लखन ऊ</w>
हा इ
शुक्र वार</w>
प ढ
करा ने</w>
बैठ े</w>
ब त</w>
सि द्धा
0 9
0 8
कि स्
मु ता
च ढ़
मि त्र</w>
दृ श्य</w>
सं ग</w>
ण य</w>
शिका यत</w>
कहा ...</w>
त ्</w>
च ारी</w>
विधा न
क्र िया
जे पी</w>
पा ठ</w>
वि जय</w>
नि ंग</w>
नि ष्
डा ल</w>
वि द्
जाए ंगे</w>
खो जें</w>
चे हरे</w>
पु री</w>
व्यक्ति गत</w>
श ्या
ख त्म</w>
च ली</w>
जि ए</w>
बु ध
खु श
वर्ष ों</w>
राष् ट्र</w>
ल ंड</w>
0 7
मह सूस</w>
आयो जन</w>
सा नों</w>
कार्र वाई</w>
स् य</w>
गिरफ् तार</w>
उम्मी द
त त्
त ियां</w>
द ै
सार् वज
उम्मी द</w>
प्र दर्
खू ब
पुरा नी</w>
बो ली</w>
2 6
अधि कारियों</w>
पृथ ्
गुज रात</w>
शा ह</w>
.. .
क् ता</w>
प ण</w>
अप ना
प्रति क्रिया</w>
प्र शासन</w>
ं स
घोष णा</w>
पा ई</w>
सहा यक</w>
स् क</w>
क्ष मता</w>
मुस् लिम</w>
0 6
सार्वज निक</w>
इ तने</w>
ए च
खू ब</w>
आ स
सु विधा</w>
देंहटा एं
मु फ्
पै सा</w>
0 3
ना म
सं चा
नि जी</w>
स व</w>
बना ए</w>
19 8
धा नी</w>
महा न</w>
ने ताओं</w>
उन को</w>
न ज
परि चय</w>
रह ेगा</w>
र् जा</w>
सं त</w>
0 8</w>
व ारों</w>
पर ियो
मंग लवार</w>
व ्‍
वो ट</w>
वि देशी</w>
स्त ों</w>
नि शा
ज़ रू
जिम् मे
व ें</w>
आतं क
उदा हरण</w>
बुध वार</w>
श्रे ष्ठ</w>
: 3
क हां</w>
आ दि
0 7</w>
बाव जूद</w>
कॉ लेज</w>
कर् ताओं</w>
मौ के</w>
1 .
स् ना
दृष् टि</w>
सं सद</w>
ह वा</w>
प ित</w>
स्वी कार</w>
कार् यालय</w>
अ श्
आय ु</w>
प्र साद</w>
सचि व</w>
प्र सिद्ध</w>
फैस ला</w>
र ॉ
स बुक</w>
अ ल
कह ने</w>
परि ष
दे ंगे</w>
सं तु
ंग ल</w>
आखि र</w>
थो ड़ी</w>
द ्य
वा णी</w>
थो ड़ा</w>
सा स</w>
ई मेल</w>
क ट
स ौ</w>
त रा</w>
बा तों</w>
गै र</w>
स मे
पार् ट
ले क्
सम् पा
वि क
पहुं चे</w>
क थ
भू ल</w>
मुता बिक</w>
मै च</w>
ज गत</w>
ए न</w>
निर् णय</w>
रा य
ंड र</w>
का लीन</w>
ब्र ह्
त कर्ता</w>
प्रणा ली</w>
अक् तूबर</w>
विधान सभा</w>
2 7
टि स</w>
ज ना
ढ़ ी</w>
सुन ो</w>
अध ्या
मृत्य ु</w>
अ ग्र
उद् दे
ण ियां</w>
ध र्म
दि ल
जा म</w>
बी जेपी</w>
रो ज</w>
चिकित् सा</w>
भ ौ
दृष्टि कोण</w>
6 0</w>
य ं
मा इ
दे कर</w>
खु श</w>
a m
बॉ लीवुड</w>
बो ले</w>
स्वा गत</w>
ार ी
मा त्रा</w>
हा सिल</w>
आं दोलन</w>
आधु निक</w>
त् मा</w>
सर् वा
ग्र ह
प्रा चीन</w>
शुभ कामना
सित म्बर</w>
भो पाल</w>
ना क</w>
अ दा
उद ्यो
रे ट</w>
रा व
मुफ् त</w>
गु ला
त ह
ग ंगा</w>
ष ित</w>
सं सार</w>
ज् ञ</w>
हो ली</w>
धा र्
समीक्षा ओं</w>
आ कार</w>
परेशा न</w>
अमेरि की</w>
य ो</w>
ि ता</w>
तु र
स ल</w>
शुरु आत</w>
देश क</w>
यू रो
म शी
चे क</w>
कृ षि</w>
उप करण</w>
सं वाद</w>
यु ग</w>
प् ति</w>
भ्र ष्टा
प ड़ी</w>
वैज्ञा निक</w>
0 4
निय र</w>
कर ा</w>
सा झा</w>
क म्प
श र
लि का</w>
प् ले
कर् म</w>
हि क</w>
ल म</w>
क् तियों</w>
ह ल</w>
ब ौ
पा लन</w>
पश्चि म</w>
अ ना
कु ं
स् लाइ
पृथ् वी</w>
स्प ष्ट</w>
या त</w>
अं त
प्रति नि
मि श्र
प्र बंधन</w>
वे द</w>
क मा
चल ता</w>
विक सित</w>
नु क
ट िक</w>
मिल ती</w>
0 9</w>
बी मारी</w>
2 8
ख ड़ा</w>
पत्रि का</w>
आत् म
ह थ
जै न</w>
ब यान</w>
ब ्यू
क ही</w>
शा ंति</w>
छो टा</w>
क ट्
म् भ</w>
ला स</w>
भु ग
न ता</w>
ख ड़े</w>
ग न</w>
प हा
प्रा कृतिक</w>
ह ौ
ए फ</w>
ड ू
ी ल</w>
व्यव सा
अनु मति</w>
नि वासी</w>
ऊ ँ
कि सानों</w>
आ कर</w>
ज िये</w>
बो ला</w>
स त्य</w>
लक्ष ्
कै म
चा र्य</w>
े द</w>
क् कर</w>
उठ ा</w>
करा या</w>
टे स्ट</w>
व ली</w>
ब ंगा
प ्य
कवि ता
जा एं</w>
पे ज</w>
बे टे</w>
राज ्य
फ़ रवरी</w>
सा धन</w>
न ॉ
क प</w>
श् ‍
रख ते</w>
छ ह</w>
रे ल</w>
बी र</w>
धार् मिक</w>
निर् वा
ना इ
लोक प्रिय</w>
मं द</w>
शी र्ष</w>
चाह ती</w>
ज नों</w>
कि सान</w>
त ल</w>
किशो र</w>
आ ग
सी धे</w>
ते रे</w>
हि मा
छत्तीस गढ़</w>
ह ैं
य ण</w>
व रि
टै ग</w>
रख ना</w>
वि शा
प्रस्तु तकर्ता</w>
ऊ र्जा</w>
व स्तु
चै नल</w>
बा त
ख़ ा
शि व</w>
पढ़ े</w>
फू ल</w>
पी ड़
खा ता</w>
जल् द</w>
शास् त्र</w>
कंप ्यूटर</w>
ना टक</w>
ला ना</w>
ज़ ल</w>
न वी
जन् म
ब हन</w>
भ वन</w>
ख र</w>
फे सबुक</w>
19 7
प्र त
से क
ख़ ु
जाय ेगा</w>
वि देश</w>
त न
श े</w>
हा थों</w>
वे ब</w>
ट्रे न</w>
पु स्त
अस ल</w>
नि रा
यू नि
स्टे शन</w>
दो स्तों</w>
शा न
तमा म</w>
शा ह
ट्र ै
सा नी</w>
शै ली</w>
आउ ट</w>
ट्र ीय</w>
ए फ
निर् देश</w>
2 9
फ़ ो
शो क</w>
अं तर</w>
अ स्
ृ त</w>
0 1
3 5</w>
भ्रष्टा चार</w>
ड़ ने</w>
रह ना</w>
ह ार
दे ह</w>
योग दान</w>
वि वाद</w>
वृ द्धि</w>
हृ दय</w>
अ त्य
तस्वी रें</w>
स ्रो
, 000</w>
चा र्
कठ ि
ई श्वर</w>
ँ च</w>
नव म्बर</w>
इन में</w>
कर ू
पाठ ्य
आ ठ</w>
उस को</w>
शि क्षक</w>
तुम् हें</w>
ख र्च</w>
समा प्त</w>
यु वक</w>
गुण व
किता ब</w>
ते जी</w>
सम ारो
प्र िय
हरिया णा</w>
प ि</w>
म ला</w>
तु लना</w>
ख ें</w>
घा यल</w>
ब म</w>
न्या स</w>
मजबू त</w>
जिस की</w>
कि न्तु</w>
सुविधा एं</w>
वा ओं</w>
ची त</w>
लग ती</w>
आवा ज</w>
त नाव</w>
आ श्
च र
प्र कृति</w>
सक ्र
ए ंड</w>
रो ज
थ ि
ऑ फि
बि ल</w>
ंद न</w>
ए ंगे</w>
व ्र
नि या
सं ग्रह</w>
दि मा
ना मक</w>
या म</w>
प्रत ियो
ठ े</w>
बा हरी</w>
फ र
तृ त्व</w>
ध े
आ जा
मिले गा</w>
200 7</w>
लिख ी</w>
ब् ‍
फ़िल् म</w>
ध् व
तुम्ह ारी</w>
संघ र्ष</w>
ग्रह ण</w>
चु नें</w>
योग ्य</w>
त थ
ढ ू
मं त्रा
उद्दे श्य</w>
4 5</w>
स ार
ह वाई</w>
पंचा यत</w>
किस ने</w>
स फ़
ले श</w>
म ती</w>
श राब</w>
२० १
लक्ष ्य</w>
प थ</w>
हिन् दु
नी ंद</w>
रो क</w>
कर नी</w>
के न्द्र</w>
ं टी</w>
सा ब</w>
पत् थ
शा ला</w>
प्रस्ता व</w>
नि वेश</w>
त ियाँ</w>
पर न्तु</w>
मु द्र
फी सदी</w>
आ लो
बात चीत</w>
उत्पा दन</w>
चि त्र
बच पन</w>
अर्थ ा
ते री</w>
यू पी</w>
शान दार</w>
बढ़ा ने</w>
अके ले</w>
सह योग</w>
सं के
शा ंत</w>
छू ट</w>
ग्रामी ण</w>
दा ता</w>
पा ल
व्यव हार</w>
कि न
र् न</w>
स हम
कार ो
नी यता</w>
दर् शा
अ खि
लि ख</w>
अ ह
नौकर ियों</w>
अ म्
श्र म</w>
हा ई</w>
मुझ से</w>
चु ना
समारो ह</w>
बो ल</w>
सला ह</w>
हम ला</w>
आ भार</w>
दा य</w>
ह् न</w>
नुक सान</w>
य े
आ वास</w>
जिन् हें</w>
5 .
राज धानी</w>
खिला ड़ी</w>
श िया
ख ला</w>
च स्
भुग तान</w>
अ ल</w>
ज्ञा त</w>
दि ना
के श</w>
ल री</w>
गि ता</w>
र जि
सु न</w>
के न्द्र
ज् ‍
च ों</w>
सन् दर्भ</w>
सा थी</w>
ल क्षण</w>
गा य
सू त्र</w>
ब ल
लेख न</w>
सा बित</w>
8 0</w>
जो डे</w>
य ौ
हि ंद
अं दा
चा य</w>
ह ट</w>
अ चा
रख े</w>
ध ारण</w>
तरी न</w>
पी एम</w>
हॉ ट</w>
प्र शिक्षण</w>
भा ल</w>
पर मा
खू न</w>
आँ खों</w>
का ओं</w>
पा ए</w>
पु ष्
सो ने</w>
ले ता</w>
भे जें</w>
राज ्यों</w>
वि वे
महारा ष्
तैय ारी</w>
िय ो</w>
अ हम
श ॉ
वि कल्प</w>
बा प</w>
गुणव त्ता</w>
क था
सं स्थान</w>
ए का
ब द्ध</w>
सं जय</w>
अचा नक</w>
बा जी</w>
क पूर</w>
वार् ता</w>
प्रे र
0 2
न ये</w>
पुरु षों</w>
नरे ंद्र</w>
न्यू ज़</w>
लोक सभा</w>
ने शनल</w>
शा ली</w>
चाह िये</w>
ो र</w>
श ों</w>
मंत्रा लय</w>
ले ंगे</w>
व य
डे ट</w>
पा ं
वे यर</w>
न्या यालय</w>
सि ंग</w>
मुं ह</w>
स जा</w>
गै स</w>
लड़ कियों</w>
स ारा</w>
प ल
मा ंग
ज री
बज ट</w>
बा ँ
क क्ष</w>
इं सान</w>
नि यां</w>
टे क्
मौ का</w>
ि य</w>
इन की</w>
स्टा फ</w>
ज रु
कर ी</w>
भ री</w>
स पा</w>
त्व चा</w>
ख ो</w>
स्ट म</w>
धि कार</w>
न वा
3 2</w>
आ ना</w>
लि श</w>
कह ता</w>
नि गम</w>
न ार
उन में</w>
चल ने</w>
स त
साध ारण</w>
प्र चार</w>
२० ०
रा ह</w>
अंग्रे ज़ी</w>
.... ....
ज रा</w>
ब् ल
प्र धान</w>
सप ने</w>
ही न</w>
बा न</w>
न यी</w>
घोष ित</w>
ची जें</w>
सं दर्भ</w>
व्यवसा य</w>
तुर ंत</w>
व नी</w>
हा ई
ड़ ियों</w>
क्र मण</w>
फ ल
स्त न</w>
न ृ
ने तृत्व</w>
डॉ क्टर</w>
नियंत्र ण</w>
द् वी
फ ्रा
देख ना</w>
भ रा</w>
पा त</w>
0 .
स्लाइ ड
स्टा र</w>
टे ल</w>
हम ले</w>
्रा ष्
सा मान</w>
प ों</w>
से वन</w>
फा इ
स् कोर</w>
5 00</w>
बेह तरीन</w>
ें ट</w>
विधा यक</w>
तस्वी र</w>
बार िश</w>
आत् मा</w>
स्‍ थ
इ ंग्
क्षे त्र
दो ष</w>
दा म</w>
गो प
का व्य</w>
नै तिक</w>
म य</w>
मिल ते</w>
सा व
फ् ट</w>
चिं ता</w>
गुरु वार</w>
भ ले</w>
लिख ने</w>
बु रा</w>
झ ार
द् वार</w>
रास् ते</w>
तला श</w>
मह त्व</w>
मत दान</w>
हा न</w>
फ्र ी
प्रा थ
प ढ़</w>
हा लत</w>
जा ओ</w>
न र
कि त</w>
वि भा
बा ई</w>
मा नी</w>
ऊ ं
खूब सूरत</w>
मं त्र
कल्प ना</w>
इं जी
कल ्या
खब रें
सेक ंड</w>
नो ट
मू वी</w>
स्‍ वा
वा ही</w>
िय र</w>
प्र कट</w>
पा क</w>
आं खों</w>
ख ्य
परियो जना</w>
पाठ्य क्रम</w>
गू गल</w>
क ब्
दर वा
दि क्
शं कर</w>
का ले</w>
पत्र कार</w>
ती श</w>
श नी</w>
सि ने
शि कार</w>
खा ते</w>
ह ल
जिन में</w>
ट ू</w>
7 0</w>
द्वि तीय</w>
क ़</w>
ख राब</w>
च ला
वा यर
नि काल</w>
ध र्
के जरी
रो ड</w>
गरी ब</w>
अ रे</w>
गौ र
भी ड़</w>
ब ारी</w>
आ सानी</w>
क ड़े</w>
खु शी</w>
बा द
वि स्त
आ लेख</w>
धर ती</w>
अर ब</w>
उत्पा द</w>
चार ियों</w>
उ ल
महाराष् ट्र</w>
न ू</w>
बंगा ल</w>
सम् मे
ए गा</w>
पे ड़</w>
शी र्
पढ़ ने</w>
हिं सा</w>
— —
ट वर्
ए ँ
डि ग्री</w>
ब ने
ट्यू ब</w>
दिमा ग</w>
आ यु
आ शा</w>
स्लाइड शो</w>
पुन र्
अ ख
पा ते</w>
उत् पन्न</w>
स्था नों</w>
ं खला</w>
व्य ू</w>
फिल् मों</w>
र् थी</w>
स् टी
देख ो</w>
सु झा
स च्च
कर्म चारी</w>
रे खा</w>
कॉ म</w>
ँ गा</w>
म श
चु नौ
वे तन</w>
से ंस</w>
प्रा इ
कार िता</w>
ह रि
न क
दू र
क् का</w>
रा हत</w>
साम ना</w>
साहि त्य
डिय न</w>
आवा ज़</w>
निय मित</w>
सं र
पर्या वरण</w>
सदस् यों</w>
ड न</w>
केजरी वाल</w>
परिष द</w>
बढ़ ा</w>
सु प्री
पट ना</w>
क ें</w>
सम े</w>
ए ड
अपरा ध</w>
थु न</w>
रास् ता</w>
चि ट्
ले गा</w>
रा शि
लं बे</w>
विशा ल</w>
हिंद ू</w>
खरी द
्राष् ट्रीय</w>
सी मित</w>
इच्छ ा</w>
लड़ ाई</w>
का ब
बच्च ा</w>
ऑ स्ट्रे
जिस ने</w>
इन का</w>
संबंध ी</w>
201 4
गर् भ
खा ली</w>
सो चा</w>
बना ई</w>
वि चारों</w>
3 .
प त
आस पास</w>
उद्यो ग</w>
पै र</w>
वा नी</w>
से ट</w>
के शन</w>
जो श</w>
क़ ा
टॉ प</w>
म ो</w>
स् मार्
दी न</w>
ंड ी</w>
तं त्रता</w>
समस्या ओं</w>
ट्र ी</w>
भार त
समु द्र</w>
आरो पी</w>
गर् भाव
म्म ू</w>
गु ण</w>
अंतर् गत</w>
दै निक</w>
ए यर
विरो धी</w>
व्य क्त</w>
प दों</w>
वि शि
3 4
मै न</w>
कर े
ज्योति ष</w>
दा बाद</w>
औ सत</w>
वि रा
पी ठ</w>
भ क्ति</w>
उत्तरा खंड</w>
ग्र ं
पार् क</w>
च ंद</w>
सफ र</w>
ग ल
अ क
दि ये</w>
प ू</w>
उ धर</w>
फ र</w>
स्व स्थ</w>
ं का</w>
दू सरों</w>
क पड़े</w>
श कों</w>
मिल कर</w>
ड् ड
ड र
वि त्
ग्रा हक</w>
गा या</w>
सम्पा दन</w>
पूर् ति</w>
भा भी</w>
अ मरी
अधि कां
लं बी</w>
मा नित</w>
स्ता नी</w>
मा लिक</w>
कर्म चारियों</w>
मान व
अधिक तम</w>
ऑफि स</w>
थ ियों</w>
ट्र ी
डि जा
ट ें</w>
ज म्मू</w>
चो री</w>
ती ं</w>
पं च
मान ते</w>
ज़ े</w>
त् न</w>
जि तना</w>
उ चित</w>
रा ग</w>
ध न
प्रश् नो
सम्बन् ध</w>
बना ना</w>
पहुं चा</w>
दा वा</w>
मा ल
चु दाई</w>
हा द
बै ठ</w>
रख ी</w>
लग ते</w>
समा धान</w>
सर्वा धिक</w>
ध क</w>
अनु क्रम</w>
प ारी</w>
ऑ फ़</w>
फ ें
श् र</w>
विश् ले
ट्रो ल</w>
पह र</w>
च ि</w>
वि वा
पी ने</w>
म ्र
मान सिक</w>
ह ारी</w>
कंप नियों</w>
सम्मे लन</w>
डे टा</w>
निर् धारित</w>
वा ता
छ ा</w>
मै दान</w>
ह स्त
कि लो
मं त्र</w>
बता ते</w>
ल यों</w>
सू त्रों</w>
रि कॉ
पक ड़</w>
म् ‍
प्र ौ
जिन के</w>
सा ँ
स् मृ
ण ीय</w>
बिल् कुल</w>
वि चार
भे जा</w>
श्र ृ
स्व तंत्रता</w>
अदा लत</w>
मा स्टर</w>
मु काब
बॉ क्स</w>
मॉ डल</w>
क द
पुरा ना</w>
ध ों</w>
नि धन</w>
ध म
जिन् होंने</w>
बी मार
रि ए</w>
पि ंग</w>
मौ जू
कृ ष्ट</w>
गति विध
वरि ष्ठ</w>
ला न</w>
कड़ ों</w>
जवा न</w>
गी ता</w>
आ दर्
न म</w>
० ०</w>
ज ने</w>
पत्थ र</w>
बना कर</w>
म कर</w>
म ना</w>
ह ँ
ब ढ
समे त</w>
ग र्म</w>
कि ं
ज़ ्या
हु ये</w>
रोज गार</w>
म सा
लो गो</w>
स भ
य र्स</w>
अग ली</w>
ली ज</w>
सदस् यता</w>
देख ी</w>
दी पक</w>
श ही
इस ी
रु प</w>
19 6
गु प्
ग ड़
स ना</w>
टे न</w>
ट क
पे श
ल का
दि ग्
हज ारों</w>
ष ी</w>
मै ने</w>
का त</w>
गा ने</w>
संके त</w>
अ जी
अप े
हा बाद</w>
शह रों</w>
नि र
ल ह
डा ला</w>
ग िक</w>
जाग रण</w>
3 3</w>
उप योगी</w>
क़ ्
ं कन</w>
िय न</w>
च रि
घ ि
मे न</w>
ने टवर्
दु कान</w>
सु ख
अ शोक</w>
गु स्
समीक्षा एँ</w>
न ारी</w>
तु र्
तर् क</w>
9 0</w>
पा एं</w>
स्रो त</w>
त न्
सो शल</w>
टा ने</w>
देख े</w>
कठि न</w>
3 6</w>
वृ त्ति</w>
पे ं
ग ईं</w>
मि न</w>
ह ड़
वा द
अ रु
1 ,
सि स्टम</w>
ला ह</w>
शा स
टि कट</w>
क ू</w>
माम लों</w>
ंड े</w>
घ े
भू त</w>
ट ली</w>
प वि
सं चार</w>
पु ण
टे ली
धि कारी</w>
नि याँ</w>
सर् च</w>
4 .
दिना ंक</w>
केंद्र ीय</w>
अधिकां श</w>
गो ल</w>
वर्ण न</w>
खा द्य</w>
बे टा</w>
पाठ क</w>
सं पत्ति</w>
जान ता</w>
तो ड़</w>
उ ड़ा
कू ल</w>
मु ँ
तु झ
अंतर राष्ट्रीय</w>
गर् मी</w>
सर् वो
प्र ता
ध्य क्ष</w>
टि श</w>
रु ख</w>
अन् ना</w>
गोप नीयता</w>
विद ्यु
शे ष</w>
सं भा
जान ने</w>
ज़ि न्
हो नी</w>
सं वेद
बा दी</w>
प्र स
हि र</w>
अ मृ
ष् ट
प्रदर् शित</w>
रिय र</w>
शि प</w>
3 4</w>
ढ े
अन् दर</w>
ग़ ज़ल</w>
नोट बंदी</w>
अ ड्
वा इ
ग्रा ह
निम् न</w>
द शक</w>
लिख े</w>
सा ई</w>
रा व</w>
सुप्री म</w>
इस्ला म</w>
दे गा</w>
ड्रा इ
ह द</w>
कि रा
त रे</w>
हार् दिक</w>
नृ त्य</w>
मशी न</w>
5 6
ध ियों</w>
ठ े
फ़ ी</w>
अव श्य</w>
चि न्
श व</w>
जय पुर</w>
न ौ</w>
पं जी
पा य
गा ड़ी</w>
सं भावना</w>
स्त ु</w>
था ना</w>
प्रतियो गिता</w>
लि न</w>
शि क</w>
बचा ने</w>
अति थि</w>
पर् व</w>
सां सद</w>
दो पहर</w>
ढ ंग</w>
शो ध</w>
को ड</w>
वि न
म ियों</w>
विस्त ृत</w>
नाग रिक</w>
फ र्
भाग ्य</w>
मंग ल</w>
र सो
वा ं</w>
ज्ञ ा</w>
लाइ सेंस</w>
जा त</w>
कु र्
अनु सं
म्म द</w>
इ धर</w>
आज कल</w>
शे र</w>
सम र्
के स</w>
स ू</w>
द्वी प</w>
गृ ह</w>
स दा</w>
टिप् ‍
जु ड़ी</w>
भ रो
क् सी</w>
द्यो गि
रो कने</w>
किस के</w>
टै क्स</w>
आ न्
वा हन</w>
र ौ
हि साब</w>
ट रों</w>
गर म</w>
ट् वि
का ली</w>
किन ारे</w>
ख तरा</w>
कर ेगी</w>
ख ण्ड</w>
ट कर</w>
न न</w>
परी क्षण</w>
तकनी की</w>
समझ ा
मुद् दे</w>
पा पा</w>
ंड ी
सर ल</w>
5 5</w>
रे प</w>
फ़ा इल</w>
अ ली</w>
मु ह
लि यन</w>
सक्र िय</w>
च न्द्र</w>
सु निश्चित</w>
वर् मा</w>
सा लों</w>
समझ ा</w>
भे ज</w>
व्य ंग
मिले गी</w>
करा र</w>
ण िक</w>
प्र भ
भ रे</w>
तिहा सिक</w>
न व</w>
वा ना</w>
7 .
ट ियों</w>
औ रत</w>
ली ल</w>
ए शिया</w>
ग ले</w>
20 0</w>
रह ेंगे</w>
उत् कृष्ट</w>
रो ध</w>
सिने मा</w>
संस् था</w>
आ स</w>
भु त</w>
त्र ि</w>
तुम्ह ारा</w>
वे दी</w>
न्या य</w>
जु र्
बु री</w>
नि कों</w>
योग ्यता</w>
छ े
क्र ी</w>
तु ल
पूछ े</w>
दिल चस्
क्‍ त</w>
रह ेगी</w>
समु दाय</w>
सं शो
लग ने</w>
उ ड़
पहुँ च</w>
4 7</w>
नि भा
थ े
मिला कर</w>
ब्रा ह्
इ लेक्
च ंद्र
वि स्
फ़ि र</w>
न्यू नतम</w>
न ग
द ार
स् क्र
प्र माण</w>
ब च्‍
वा सियों</w>
गण ना</w>
बच ने</w>
हिं दु
क्ष म</w>
बि स्तर</w>
ट री</w>
मना या</w>
ध् द</w>
4 8</w>
शि क्ष
नि देशक</w>
वि त्त</w>
द वा</w>
ति त</w>
सब को</w>
तरी का</w>
इं डियन</w>
फाय दे
ं भ
र क्त</w>
दि खा</w>
स् पर्
ब्रि टिश</w>
पा ता</w>
कार् टू
लू म</w>
नारा यण</w>
पूर् वा
अ मर</w>
बि ल
स न्</w>
ंड े
वर् ण</w>
पश् चा
रा ह
स्‍थ ्‍य</w>
डॉ लर</w>
बंध ित</w>
5 7</w>
7 5</w>
टाइ प</w>
प्रस्तु ति</w>
बे ड
न ने</w>
ख ड़ी</w>
श ारी
औ र
सं पन्न</w>
यो ज
श नि</w>
वाय ु</w>
इला हाबाद</w>
स् कर</w>
ट वेयर</w>
शु क्
चा लन</w>
बी आई</w>
ता जी</w>
ट के</w>
10 /
प्रश्नो त्तर</w>
ँ ग</w>
मान ना</w>
अ फे
पत्र कारिता</w>
भ ै
3 9</w>
अनुसं धान</w>
मूल ्या
ज र्म
स का</w>
रे टिंग</w>
गै लरी</w>
सप ना</w>
वि स</w>
प्रका शन</w>
प्रौ द्योगि
वि जे
अ फ्री
जि द</w>
द रा
रो टी</w>
हम से</w>
मि ट्टी</w>
अ द्य
सूर ज</w>
आप त्ति</w>
ह नु
ब जाय</w>
स क्षम</w>
गो ली</w>
देख भाल</w>
शर् तें</w>
वा ने</w>
लौ ट</w>
���������������� ����������������
चे हरा</w>
अभि व्यक्ति</w>
ख् त</w>
ष ा
वं श</w>
सं कट</w>
हे ल्
तकनी क</w>
ज़्या दा</w>
मान ्यता</w>
मा या</w>
ए शिया
रिश् ते</w>
लड़ के</w>
छोड़ ने</w>
सां स्
वित् तीय</w>
दर असल</w>
व्र त</w>
ठ ो
कम रा</w>
ट का</w>
रो चक</w>
ह टा</w>
दा तर</w>
3 8</w>
कार् यों</w>
अस ली</w>
यू ँ</w>
कल्या ण</w>
ल् ला</w>
म हो
ते रा</w>
परेशा नी</w>
निर् भर</w>
सा क्षा
मे डि
ले बल</w>
र्थ ियों</w>
देंहटा एं</w>
ह र्
व स्तु</w>
दबा व</w>
मुद्र ा</w>
द ु</w>
उप न्यास</w>
अ जय</w>
कार णों</w>
त् ति
यू ं</w>
फाय दे</w>
संस् कृत</w>
टी न</w>
चा ँ
कारो बार</w>
स्था यी</w>
ला ल
मि त्रों</w>
मुख पृष्ठ
प्रति ष्
खरी द</w>
गु प्त</w>
ंग ों</w>
पूर् वक</w>
अधि नियम</w>
का ई</w>
पु रा</w>
मह त्
ब चा</w>
कु र</w>
ति वारी</w>
मुँ ह</w>
अ द्
ज र
म रण</w>
चल ो</w>
टू ट</w>
टी ज</w>
ज ंगल</w>
गुप् ता</w>
5 2</w>
दर् य</w>
ग ार
देख िए</w>
सुझा व</w>
प रह
सुविधा एँ</w>
फायदे मंद</w>
द या
आयु र्
ब् बत</w>
म स
कि र
टि न</w>
स त्र</w>
समझ ौ
मै थुन</w>
यु व
श्र द्धा
आप से</w>
ग्राह कों</w>
द लित</w>
् म</w>
सुविधा ओं</w>
उप भो
शारी रिक</w>
3 7</w>
ै र</w>
भाषा ओं</w>
कम जोर</w>
अ ग्
पर्य टन</w>
फो टो
बंध क</w>
आई पी
समझ ने</w>
अखि लेश</w>
का ग
डिय ो
घ रों</w>
म ारे</w>
वर् ड</w>
उ जा
म कान</w>
आर क्षण</w>
ब ला
रा त्रि</w>
विशि ष्ट</w>
ज़िन् दगी</w>
मु क्ति</w>
लक्ष् मी</w>
सम्बन् धित</w>
वि दा</w>
प्रभ ु</w>
सांस् कृतिक</w>
क्ष ता</w>
तथ ्य</w>
हा उस</w>
गठ न</w>
4 2</w>
द ारों</w>
यं त्र</w>
ट्र ॉ
लगा ई</w>
जर्म नी</w>
ऐ तिहासिक</w>
रख ता</w>
टि या</w>
ना यक</w>
व्या पक</w>
का ला</w>
कड़ ियाँ</w>
फा इन
बा ज</w>
इंत जार</w>
ले स</w>
200 6</w>
लि मि
व्‍ य
गाँ धी</w>
स् तर
प्रा र्थ
मा ंस</w>
टाइ म्स</w>
ता जा</w>
ने वाले</w>
आखि री</w>
िया र</w>
बह स</w>
उप स्थित</w>
बु द्
टे क</w>
भे द</w>
किलो मीटर</w>
वर्ष ीय</w>
ई सा</w>
शु रु</w>
ग्र ी
आ य</w>
कि यां</w>
घ ्
इ यों</w>
बढ़ िया</w>
लि यां</w>
मा लूम</w>
ब् स</w>
आदर् श</w>
ऑस्ट्रे लिया</w>
प रा</w>
कु ल
िय े
शास् त्री</w>
न ही
प्र शं
फाय दा</w>
त त्व</w>
कि मी</w>
निय मों</w>
फ ार
र ज
च्छ िक</w>
र हीं</w>
एक्स प्रेस</w>
मि शन</w>
ज ता
2 2
ट म</w>
एस पी</w>
मु र्
ब ारा</w>
घो टा
स ने</w>
बरा बर</w>
पश्चि मी</w>
पा स
तुम ने</w>
र द्
बढ़ ती</w>
कार क</w>
सी ख
स्व तंत्र</w>
तह सी
ल व</w>
धू प</w>
4 4</w>
पे पर</w>
5 1</w>
क्ष ी</w>
प ने</w>
ण न</w>
महा त्मा</w>
ख तर
स्टो री</w>
म ल्
वे ज</w>
ग ली</w>
बि क्री</w>
ती नों</w>
स फे
सु ल
ी म</w>
ति त्व</w>
भ ला</w>
च क्र</w>
म् मत</w>
बैठ ा</w>
पदा र्थ</w>
क लन</w>
व्यंग ्य</w>
क्‍ ता</w>
ढ़ े</w>
स् त्र</w>
सब के</w>
उ तर
मा य
श ता
रिय ल</w>
महारा ज</w>
प्र गति</w>
ट्र ि
मे श</w>
में टे
ि का</w>
स्ट ॉ
निर् मित</w>
ें द्र</w>
खे लों</w>
जो शी</w>
फैस ले</w>
ता ज़ा</w>
विश्ले षण</w>
म रा
सि स</w>
प्रा प्ति</w>
पड़ ेगा</w>
को लका
न क्
ख़ बरें</w>
सर्व श्रेष्ठ</w>
िय त</w>
स्‍ था
सित ारों</w>
ं दी</w>
प्र च
कह ती</w>
स् व</w>
उल् लेख</w>
बा नी</w>
दी दा</w>
प्रौद्योगि की</w>
भो ज
मस् ती</w>
शु द्ध</w>
तो ष</w>
प्र विष्
ए ह
4 6</w>
स् ता</w>
6 .
वि ध</w>
दौ ड़</w>
विद्यु त</w>
स्‍वा स्‍थ्‍य</w>
ला ता</w>
पहुं चा
5 6</w>
यु क्ति</w>
सु रे
ध री</w>
छोड़ कर</w>
प द
सह ारा</w>
क क्षा</w>
ची ज</w>
सक ें</w>
आलो चना</w>
वा र्ड</w>
क ले
व ट</w>
सी एम</w>
कु त्
ला ई
मुला कात</w>
पाठ कों</w>
परं तु</w>
कैम रा</w>
जो ड़े</w>
कान पुर</w>
इला के</w>
सू चित</w>
ले ती</w>
बि ग</w>
मूर् ति</w>
रु द्ध</w>
अर वि
सि न्
अभि नेता</w>
ज रिए</w>
उत् तर
दा यक</w>
अद् भुत</w>
बन ता</w>
महिला एं</w>
झ ो
प्रार ंभ</w>
र िया
न ती
फ्र ी</w>
अ ज्ञात</w>
क मे
लोक तंत्र</w>
श क्ति
का ने</w>
सम् मानित</w>
पिछ ली</w>
ड ु
व क़्
न्यू ज</w>
स्कू लों</w>
मान ता</w>
टाइ म</w>
आजा दी</w>
शि क्षा
मु सल
ंड ित</w>
कम रों</w>
ऑ परे
म ने</w>
ना श</w>
ल् ट</w>
इ रा
म ्</w>
स्मृ ति</w>
नि श</w>
अफे यर्स</w>
लाइ क</w>
अख बार</w>
गा ह</w>
घ न</w>
रा जीव</w>
एक दम</w>
नि री
हिमा चल</w>
पू ं
गु ना</w>
बद ले</w>
चल ती</w>
स कर</w>
पसं दीदा</w>
ला य
नेटवर् क</w>
सम स्त</w>
स्व र</w>
बॉ ल</w>
बि न</w>
विद् या</w>
डाय बि
पहुं ची</w>
अग ला</w>
श य</w>
ध् या</w>
तीस रे</w>
अन् तिम</w>
न न्
मौजू दा</w>
ए च</w>
कोलका ता</w>
ंद े</w>
विश्व स
बि ल्ली</w>
अव ै
अंतर ्राष्ट्रीय</w>
लाइ फ</w>
दु ः
आ काश</w>
आश् चर्
अद्य तन</w>
संपा दक</w>
रिकॉ र्ड</w>
उम्मीद वार</w>
त ट</w>
भ क्त</w>
सा ई
जा पान</w>
कार ा
मि र</w>
किं तु</w>
कौ न
प क्
बा इक</w>
बद लने</w>
अर्था त</w>
वि टा
बढ़ ने</w>
क मी
द् धा</w>
अ ंग</w>
वर् ल्ड</w>
ष् ‍
जा पानी</w>
मु सलमान</w>
द स्ता
मि श्र</w>
क श</w>
झ े
पवि त्र</w>
प चा
ड ्यू
प कड़
जी ने</w>
न् ट</w>
जाय ेंगे</w>
स हे
ज ू</w>
हौ ल</w>
मनो ज</w>
वक़् त</w>
च ंद्र</w>
प्रार्थ ना</w>
व सू
यूनि वर्
घट नाओं</w>
गं ज</w>
अप डेट</w>
त् सा
फै शन</w>
नी ल</w>
स् टि
अ ति</w>
त्र ु
अंत रि
प्रव क्‍ता</w>
ं ज</w>
मे र</w>
ज ं
स ह</w>
जल ि</w>
ष ा</w>
जवा नी</w>
उर् दू</w>
अ ब्
मुला यम</w>
न्या य
बना ये</w>
डिजा इन</w>
दिखा या</w>
बी ज</w>
ब ्या
वाता वरण</w>
ब्रि टेन</w>
क् य</w>
5 4</w>
करें ट</w>
यो जन</w>
सो निया</w>
ऋ ण</w>
नु सार</w>
प ब्
ट ना</w>
मं जू
लगा कर</w>
प्र मा
ं श</w>
बी मा</w>
सह ज</w>
की न</w>
रे शन</w>
ने पाल</w>
न् ना</w>
ब ृ
इसी लिए</w>
व्या व
वि विध</w>
अ स्वी
वा दियों</w>
कार्टू न</w>
आप त्ति
सफे द</w>
प्रती क</w>
या दा</w>
कट् टर</w>
ल पुर</w>
सुन ने</w>
य था
खे ती</w>
ता एं</w>
या नि</w>
शि वि
दा न
ग् र</w>
अ तः</w>
एशिया ई</w>
उठा या</w>
म मता</w>
स त्या
जा ल</w>
शु रू
संर क्षण</w>
दा ल</w>
व हन</w>
4 3</w>
स्थि तियों</w>
क ने
क् लब</w>
आपत्ति जनक</w>
१ ०</w>
निय रिंग</w>
डो र</w>
क्रा ंति</w>
सचि न</w>
बचा व</w>
ज री</w>
अस् तित्व</w>
a r
सी ट</w>
सिद्धा ंत</w>
कि से</w>
स ृ
रि ले
पूर् वी</w>
गी त
शता ब्
नि रं
तारी ख</w>
दु श्
ह फ्
जी ता</w>
मूल्या ंकन</w>
श्र ा
ला खों</w>
मा हौल</w>
आतं की</w>
पर्या प्त</w>
वास्त विक</w>
कॉ मेंटे
ला कर</w>
च क्कर</w>
मह ल</w>
सिर् फ़</w>
उत् सा
वि डियो</w>
अ मि
ज हा
विटा मिन</w>
रसो ई</w>
लिमि टेड</w>
ए ल्
जु न</w>
रे डियो</w>
4 1</w>
अ मित</w>
8 .
पड़ ो
जोड़ ें</w>
न क्स
कै सी</w>
से ज</w>
पढ़ ाई</w>
प िक</w>
11 /
उम्मीद वारों</w>
इंग् लैंड</w>
शै क्ष
ज़ र</w>
बिल कुल</w>
चा ल</w>
5 9
को ष</w>
का ट</w>
मे श्वर</w>
मेह नत</w>
ह स्ता
चरि त्र</w>
ला ते</w>
क ना
दा ं
प त</w>
ना ं
खु ला
म ज़ा</w>
डी एम</w>
शही द</w>
म ण
संपा दन</w>
सू च
कौ शल</w>
फाइन ल</w>
क् वि
चुनौ ती</w>
1 /
फ्रें ड</w>
सि ल
याद ृ
सा र्थ
क ते</w>
अव स्था</w>
ज़ न</w>
लाइ ट</w>
सं स्था
बी सी</w>
ब ली</w>
यूरो प</w>
हो ट
्य ू</w>
यादृ च्छिक</w>
परि भ्रमण</w>
श्रृ ंखला</w>
भाव ना
प्रे म
आर ंभ</w>
छ वि</w>
ने ह
ज्या दातर</w>
प्र योग
नि शा</w>
प्र वास</w>
सुन कर</w>
सी न</w>
की जिए</w>
म म्
कह े</w>
भू ख</w>
फ ं
बा ल
अ च्‍
आतंक वाद</w>
स प्
कानू नी</w>
कु ंड
अजी ब</w>
ग लती</w>
आ धा</w>
हिस् से</w>
दाय ि
देव ता</w>
गि र</w>
द त्त</w>
ल हाल</w>
5 8</w>
ं ति
म छ
विशेष ा
मेडि कल</w>
खो ल</w>
अवै ध</w>
का नों</w>
पा त्र</w>
राय पुर</w>
आ मिर</w>
पार ि
साम ्रा
सु र</w>
स ीय</w>
च् छ</w>
ग्र ु
संस् कार</w>
ट र्स</w>
कथ ित</w>
12 /
गृ ह
आद त</w>
उ प</w>
4 9</w>
स्व प्
लि याँ</w>
मुसल मानों</w>
आ बादी</w>
हाला त</w>
विष यों</w>
मु कद
व रों</w>
ता प
ढू ं
प ट</w>
5 9</w>
न पुर</w>
वा ई
3 9
स्टा इल</w>
सें टर</w>
झू ठ</w>
पो षण</w>
न मक</w>
दु ख</w>
की ल</w>
पीड़ ित</w>
उन् ‍
त् सव</w>
स् वि
फ् टवेयर</w>
बो ध</w>
नि वास</w>
ला श</w>
घा ट</w>
भार ती</w>
अनि ल</w>
मान ्य
व्यक्ति त्व</w>
गि ंग</w>
अ हम</w>
जो ड़</w>
ध् ‍
मन् दिर</w>
प् स</w>
यौ न</w>
मुख ्या
ंग् स</w>
े ली</w>
दि ख</w>
पढ़ ा</w>
छा त्रा
स्टे ट</w>
ब् लै
स वार</w>
खे त</w>
शा सक</w>
टा ई</w>
टिप् स</w>
व्य क्तियों</w>
लग ्
स त्य
प्र त्या
स् वाद</w>
्या स</w>
कॉ ल</w>
प्रो त्सा
इ श
ष् क</w>
जर् मन</w>
जन रल</w>
सि र
मा ला</w>
पूर् ण
पु रू
केन्द्र ीय</w>
भ ं
बन कर</w>
लॉ जी</w>
बि ज़
धार णा</w>
बना ते</w>
क्‍ स</w>
जु ड़
चु प</w>
बिज नेस</w>
एस सी</w>
चे ता
ण ियों</w>
य हीं</w>
न्य ू</w>
साक्षा त्कार</w>
फु ट
च ंडी
ठ ों</w>
बु द्ध</w>
भू ति</w>
की म
वास्त ु</w>
पक्ष ी</w>
लि ं
जिम्मे दारी</w>
डिय म</w>
अश् लील</w>
घटना एँ</w>
प्राथ मिक</w>
मजबू र</w>
प्रे मी</w>
रू स</w>
अन ्य
लै ंग
जी वन
3 7
बु द्धि</w>
ट्र ो</w>
क्र मों</w>
ड ्रे
लगा ए</w>
अक्ष य</w>
भ विष
अन् तर्
अ ँ
अल् लाह</w>
खी ं
अभि ने
ल स</w>
पु ल</w>
भ य</w>
स्थाप क</w>
रजि स्टर</w>
झार खंड</w>
सम ृ
ना मां
ष िक</w>
चौ धरी</w>
वि मान</w>
स् त्र
स् ते</w>
बो लने</w>
साइ ड</w>
वि नो
त व्य</w>
प द्ध
मन मोहन</w>
स्‍ ट</w>
सभ ्यता</w>
भर पूर</w>
उ तना</w>
लू ट</w>
र् ण</w>
त ौ
जा नी</w>
ग्रु प</w>
घा टन</w>
पा ँच</w>
कल म</w>
न ष्ट</w>
च लाने</w>
भविष ्य
जाय ेगी</w>
मं ड
मा या
फा र्म</w>
हरा या</w>
घा टी</w>
सौं दर्य</w>
लिख ते</w>
दि न
वि केट</w>
वा ह
म ारा</w>
बन ना</w>
ए कल</w>
प्रेर णा</w>
राशि फल</w>
201 5
सं साधन</w>
जा इ
भरो सा</w>
स त्
l e
स टी
द ं
ब री</w>
त्या ग</w>
जन संख्या</w>
ू प</w>
परि सर</w>
देख िये</w>
बा दल</w>
खतर नाक</w>
न मस्
ारा म</w>
वि तरण</w>
ड् डी</w>
भोज पुरी</w>
रि लीज</w>
स िया
क् ला
इ श्
या त्रियों</w>
सि ए
ल ंदन</w>
जिन का</w>
क ड़ा</w>
जी वित</w>
व धान</w>
मन् स</w>
भ ट्
ए ंड
बा ंग्
घ ु</w>
पन् ने</w>
गे ट</w>
प्र भाव
प शु</w>
िय म</w>
का लेज</w>
दी पा
अस्वी करण</w>
चा लक</w>
शताब् दी</w>
स्ट ू
म ज़
गा ना</w>
परं परा</w>
आए गा</w>
गा र्
5 3</w>
इस लिये</w>
देख ता</w>
निक ट</w>
सं कल्प</w>
सू क्ष
पा ण्
ठ ि
अ फ़
प शु
द ्रा
जन्म दिन</w>
साध ना</w>
जि ला
आ ओ</w>
इं ड
बा बू</w>
द शा</w>
स्त ंभ</w>
म ण्
ट ते</w>
वि रुद्ध</w>
इं ट</w>
भो ग</w>
ख् वा
मै ने
यु गल</w>
सिं ह
ज बर
सी धा</w>
ड म</w>
चा वल</w>
पह ल</w>
चो ट</w>
सं वाद
व श</w>
प्र सि
स्ट िक</w>
जा या</w>
क बीर</w>
आ दर
रूप ये</w>
ू ँ</w>
आग रा</w>
मुद् दा</w>
आ यी</w>
अप ील</w>
प् र</w>
वे ट</w>
वि ल</w>
से ल</w>
भा गी
कला कार</w>
क प्ता
स् पी
शिक्ष कों</w>
200 5</w>
ता कत</w>
रा ई</w>
क्षेत्र ीय</w>
ना श्
पाकि स्तानी</w>
क्ष र</w>
निका ला</w>
तुझ े</w>
ट र्
कन् या</w>
उ तार</w>
हो ंगी</w>
र म</w>
वै श्
भाष ण</w>
जि तनी</w>
फिल् मी</w>
यूनिवर् सिटी</w>
स च्
डा इ
हू र</w>
नी र
तै ना
प ंडित</w>
भ ड़
परमा णु</w>
उ म
कॉ मन्स</w>
प्रति दिन</w>
वि परी
नि स</w>
री ज</w>
पा ती</w>
डो मेन</w>
अर्थ व्यवस्था</w>
दे गी</w>
संतु लित</w>
एजें सी</w>
आ ज़ा
बद ला</w>
एस एस</w>
लि स्ट</w>
भ व
लि या
ट्वि टर</w>
े न्द्र</w>
शा ही</w>
ला गत</w>
अंदा ज</w>
ज ्य
निक ला</w>
पा ना</w>
रद् द</w>
म जे
साय िक</w>
निक ले</w>
बीमार ियों</w>
नियंत्र ित</w>
कम र</w>
खु ले</w>
व ारा
अ र</w>
ह ू</w>
अंतरि क्ष</w>
म नी
आ समान</w>
यूरो प
टि ल</w>
नाम स्थान</w>
औ ष
ठा कुर</w>
वाप सी</w>
नि युक्ति</w>
फिल् में</w>
से न</w>
ता भ</w>
खे लने</w>
जिन की</w>
पड़ ती</w>
अ ज
दुः ख</w>
किस का</w>
मुख्या लय</w>
चाँ द</w>
यु वाओं</w>
है दरा
निर्वा चित</w>
ध ता</w>
ग्र स्त</w>
निर् दे
गा य</w>
सा फ़</w>
अभ ्यास</w>
टिप्‍ प
पी ट</w>
फि लहाल</w>
मे र
पै रों</w>
भाव नाओं</w>
सहम त</w>
ट्र क</w>
ती त</w>
अग्र वाल</w>
रि क्ति</w>
दू ता
सि क्
खा र</w>
अफ्री का</w>
प्रव क्ता</w>
बु ल
काउ ं
को ह
त रित</w>
इस को</w>
राज ेश</w>
वा या</w>
परह ि
म क
जे क्ट</w>
दीपा वली</w>
3 8
बा मा</w>
नी तीश</w>
नि वे
जी तने</w>
पा प</w>
ंभ िक</w>
बा ज
च ं
कर वा</w>
विपरी त</w>
स्पे शल</w>
त ारा</w>
बैं कों</w>
सु परहि
बे च
खा एं</w>
6 ,
स्ना न</w>
कॉ न्
उत् तरी</w>
स्क्र ीन</w>
अनु मान</w>
मजे दार</w>
पर म्प
से स</w>
पा लिका</w>
गर्भाव स्था</w>
मे डल</w>
पा उ
सै निक</w>
क अप</w>
दु ष्
नु स्
संचा लन</w>
मार् क</w>
हनु मान</w>
क्यू ँ</w>
ैं ड
आ लू</w>
फ सल</w>
बुद् धि
ना य
नाग रि
मिश्र ा</w>
ऊ ँ</w>
न्या या
ट नेस</w>
डि ट</w>
प टेल</w>
मुस् कु
ल ड
अं धे
म जा</w>
वृ क्ष</w>
मो ड</w>
अ का
गु म
दर्शा व</w>
ल घु</w>
टि कल</w>
मे ह</w>
पु र्
वि प
दी दी</w>
नही ं
प्रो ग्राम</w>
ह ु</w>
ग्रा फ</w>
ज़ ोर</w>
से ंट</w>
आन् दोलन</w>
ंग े
म ले
मध्य प्रदेश</w>
0 .0
ता ल
सो ना</w>
ज ड़</w>
सेवा ओं</w>
सक ारा
दि रा</w>
तला क</w>
दूता वास</w>
ना नी</w>
ट ियां</w>
स ल्
6 5</w>
वार् षिक</w>
ट ता</w>
ख ार
प्रभा वी</w>
वा र्य</w>
घ् र</w>
चंडी गढ़</w>
व्य स्त</w>
जो खि
सटी क</w>
श र</w>
राज नैतिक</w>
सुन वाई</w>
ब च</w>
बना ता</w>
ख़ ि
सा दर</w>
शिवि र</w>
प्रे रित</w>
ठ ित</w>
अनि वार्य</w>
काम या
चि का</w>
श्री वास्तव</w>
गण ेश</w>
चे तना</w>
सं बो
सार्थ क</w>
ई मान
प्र ॉ
बी स</w>
गु ल
ब राम
मश हूर</w>
प्रिय ंका</w>
से क्सी</w>
स्ट्र ी</w>
ची जों</w>
t i
फ् लै
20 00</w>
अमि ताभ</w>
समझ ते</w>
लड़ का</w>
तहसी ल</w>
पर् स</w>
खु ला</w>
कम ल</w>
ग ढ़
दा खि
आ चार्य</w>
क ना</w>
नि ग
प्रो फे
फा ंसी</w>
स रो
मही नों</w>
चौ हान</w>
जा हिर</w>
उ तर</w>
क स</w>
रू सी</w>
न् ति</w>
ओ बामा</w>
र वि</w>
सं ग्र
मो र्
ख ंड
साइ किल</w>
पर मेश्वर</w>
गाय ब</w>
दे न</w>
ची ज़
उ ठ</w>
ब ंग
लॉ न्
उपयोग कर्ताओं</w>
सॉ फ्टवेयर</w>
व ल
प्ला न</w>
7 8
शि ल्
सड़ कों</w>
ग हरी</w>
सां ख्य
अत्य ंत</w>
गा ली</w>
फ़ े
अमरी का</w>
ब ो</w>
रै ली</w>
ग् स</w>
मो टा
ज मकर</w>
मार ने</w>
बहा दु
शी घ्र</w>
ना ड
ह ंगा
जा तियों</w>
चे न्
वय स्क</w>
ण ु
गा न</w>
करा ई</w>
दो स्ती</w>
पी ढ़ी</w>
मस् ति
वर्ष ा</w>
रो ज़</w>
दिक् चालन</w>
नाग री</w>
था ने</w>
हैदरा बाद</w>
उत् सव</w>
9 5</w>
वारा ण
म क्
मा स</w>
खरीद ने</w>
शा न</w>
अनु प
ले गी</w>
रचना कार</w>
प्र दू
क माल</w>
गो री</w>
मुकाब ले</w>
स न
फ़ ै
ड ब्ल
मधु मेह</w>
किस की</w>
समर् पित</w>
दि ष्ट</w>
दिखा ने</w>
प् शन</w>
मान ो</w>
सिल सि
श्या म</w>
शाह रुख</w>
स् ने
ए सो
र ने</w>
जि लों</w>
वा ं
जिन् दगी</w>
बी मार</w>
क च्च
ट् वी
शर् ते</w>
ड बल</w>
शा खा</w>
भा ष</w>
गे ंद
ए गी</w>
रो हित</w>
टिप्प णियां</w>
अधिक तर</w>
बा ज़ार</w>
बी एस
‍ ध</w>
विष् णु</w>
इंजी नियरिंग</w>
छु ट्टी</w>
ज ंग</w>
हथ ियार</w>
ला ती</w>
वाराण सी</w>
ड ै
नेह रू</w>
आ यात</w>
पर् वत</w>
आ गा
फू ड</w>
सुना ई</w>
व्य ं
जोखि म</w>
द लों</w>
के रल</w>
शं का</w>
भू षण</w>
फ़ ॉ
क्षे प</w>
ख ैर</w>
ल ीय</w>
सा मू
बता ने</w>
ति का</w>
पा इ
प्रमा ण
खुला सा</w>
हफ् ते</w>
प्रतिनि धि</w>
लं का</w>
लम् बी</w>
क स्
भार ती
इ त्या
जू नियर</w>
सांख्य ि
कम्प ्यूटर</w>
सम् बंधित</w>
ज ंग
कार िक</w>
मम् मी</w>
वर् धन</w>
बच्च न</w>
ग ें
शीर् षक</w>
चेता वनी</w>
कर णों</w>
ज़ रा</w>
कहा नियाँ</w>
विनो द</w>
शि शु</w>
इ ड</w>
का य
नामां कन</w>
जि ंग</w>
च्छ ेद</w>
मस् जिद</w>
आँ खें</w>
4 8
समा जवा
आकर् षण</w>
माइ क्रो
दाय िक</w>
म नी</w>
पहुं च
ध नु
पो स्ट
निक लने</w>
विरा ट</w>
फि ट</w>
ढे र</w>
टे ं
निर् माता</w>
र त्न</w>
औ द्यो
स्मार् ट
ब ड़
का ंड</w>
मि र्च</w>
गां वों</w>
अ त</w>
ब् लो
ि ज</w>
आरो प
प्र शास
सं तोष</w>
् या</w>
दी वार</w>
अध ू
हिन्दु स्तान</w>
प्र मो
लिख ें</w>
ताप मान</w>
च म्म
फा इल</w>
ख ़</w>
१ ८
समीक्षा एं</w>
बला त्कार</w>
मा उस</w>
तीस री</w>
आत् मह
द स्त</w>
उद् घाटन</w>
जिम्मे दार</w>
मा सू
को ट</w>
छ ी
स् म</w>
कमा ई</w>
कार्य कर्ता</w>
भ गत</w>
पद्ध ति</w>
सम् पर्क</w>
ं ती</w>
बच्च ी</w>
सम लैंग
संचा लित</w>
आ मंत्र
म ल
फ़ ी
परि क</w>
मर ने</w>
चढ़ ा
कुंड ली</w>
इ मार
श ख्
सी ख</w>
कर्म ियों</w>
उठा ने</w>
अर् जुन</w>
जाग रू
अधि सूचना</w>
रि पोर्
ग्रामी णों</w>
ता ला
विजे ता</w>
हटा ने</w>
इं स</w>
बु किंग</w>
सं वत</w>
छ ी</w>
कै ले
आ पूर्ति</w>
धो नी</w>
म य
कार्य कर्ताओं</w>
लि य
गा ंड</w>
रि सर्च</w>
मुद् दों</w>
सै न</w>
म्र पान</w>
वे ल
रख कर</w>
संशो धन</w>
त ड़
मी ल</w>
काम ना</w>
पि का</w>
मण् डल</w>
अभि न
ए कता</w>
सा ंस</w>
कह ें</w>
फ ौ
सी सी</w>
सामू हिक</w>
बना एं</w>
लड़ कियां</w>
सु पर</w>
रिश् ता</w>
इत्या दि</w>
कु मारी</w>
खे ला</w>
नि युक्त</w>
चम्म च</w>
चुना वों</w>
बढ़ ता</w>
डि जि
ति ज</w>
ज त</w>
बे ल</w>
हा स्य</w>
कर् नाटक</w>
घं टा</w>
चुना वी</w>
ु क</w>
डाय रे
प्रशास निक</w>
प्रति भा</w>
तो ड़
पू जन</w>
चै न</w>
स च
स्‍ व
प्रता प</w>
रो शनी</w>
पुन ः</w>
क्र म
प्र बंधक</w>
ग ियों</w>
निका लने</w>
क्र िये
ला भ
स्ट्र ी
अभिने त्री</w>
धा म</w>
ध मा
दिख ने</w>
अ भाव</w>
सी ने</w>
वा लि
वि मर्
टिप्‍प णियां</w>
मु झ</w>
स्‍ था</w>
किस् मत</w>
9 9</w>
स वालों</w>
लिख ना</w>
विस् फो
ए प्
मेर ठ</w>
पेश कश</w>
क् की</w>
चो र</w>
संगठ नों</w>
ग्र हों</w>
01 /
प टा
बढ़ा वा</w>
फ े</w>
s t
सू र्
घ ी</w>
ल ु</w>
वैश् विक</w>
03 /
च न्द्र
कर ियर</w>
समाजवा दी</w>
सम स्‍
म ्यू
स भा
एह सास</w>
प थ
मार् ग
ल् ड
दो नो</w>
भा स्कर</w>
योज नाओं</w>
ब्यू शन</w>
शो र</w>
ऑ टो</w>
को च</w>
रा तों</w>
गु दा</w>
ब्ला ग</w>
पू ल</w>
भर ने</w>
स नी</w>
ली ला</w>
आ मत
पाण् डे
सर् विस</w>
है या</w>
नू न</w>
दु ल्
आमत ौर</w>
आर म्भ</w>
त्य ौ
प्रश् न
सकारा त्मक</w>
जोड़ कर</w>
गतिविध ियों</w>
पे ट्रोल</w>
स ज्
क्र ू
5 8
रह ित</w>
ज ग</w>
शब् द
डा क</w>
आप स</w>
इं च</w>
धू म्रपान</w>
गरी बी</w>
ला देश</w>
सी मा
परि वहन</w>
छा या</w>
आ स्था</w>
तरी कों</w>
मा सिक</w>
डि स्
उन् हीं</w>
का या</w>
श्या मला</w>
ब्राह् मण</w>
मो ल</w>
त लब</w>
जि समे</w>
छ त</w>
उद् ध
रो ल</w>
प् पी</w>
विद्या लयों</w>
बना एँ
नी तियों</w>
ं की</w>
श्री मती</w>
लं घन</w>
औद्यो गिक</w>
त्व ों</w>
सच् चाई</w>
ला यक</w>
यूरोप ीय</w>
नो टिस</w>
ख्या ल</w>
सक ेंगे</w>
स् पि
मुझ को</w>
थ न</w>
विश्वस नीय</w>
अरु ण</w>
मस्ति ष्क</w>
प्रा य
ग मन</w>
फ ्यू
विप णन</w>
है रान</w>
र वी
राइ ट</w>
ज्योति ष
नाड ु</w>
शु क्रिया</w>
ग धा</w>
राव ण</w>
क्रिये टिव</w>
मान चित्र</w>
ड़ िया</w>
आ ध्या
सं रचना</w>
खा या</w>
घ टा
मोह म्मद</w>
ज़ ी
ट कों</w>
कं प</w>
चिं तन</w>
स्वप् न</w>
डायबि टीज</w>
द श
कार्य वाही</w>
प्रतिनि धि
ता ऊ</w>
फा र्
त ब
देव नागरी</w>
शुक् ल</w>
आँ ख</w>
न स</w>
सो चने</w>
ध माल</w>
दो षी</w>
चार् ज</w>
भै या</w>
रा ं
शाय री</w>
ड ें
टे बल</w>
कू द</w>
वर् ती</w>
बल् ले
ली ं</w>
ं प</w>
लि पि</w>
दु कान
ड नी</w>
अह सास</w>
प्रि ंट</w>
ष ेक</w>
9 1</w>
शुरू आत</w>
आई टी</w>
ब क
द ्</w>
ह ि</w>
आकर् षक</w>
व कील</w>
प् ट</w>
दू न</w>
को र्स</w>
ज क</w>
सक ों</w>
गुस् सा</w>
बा ग</w>
ति ल</w>
पश्चा त</w>
ध रा</w>
मे ला</w>
न् व
चु ना</w>
हि म्मत</w>
व चन</w>
ंत्र िक</w>
गि राव
ख़ ्
प्र भारी</w>
मे ले</w>
गो रख
रा मा
मे ट्रो</w>
फ ्रे
सम् पूर्ण</w>
सु नील</w>
मिल ना</w>
मि नी</w>
महा भारत</w>
पंजी करण</w>
दर ें</w>
प्रा ण</w>
संवेद न
विमर् श</w>
सुख द</w>
ग हरा
अ लाइक</w>
ग् लो
10 00</w>
सफ़ ेद</w>
उन् होने</w>
िय ल</w>
रा र</w>
मं डी</w>
उत् तम</w>
च ट
वि पक्ष</w>
वि जन</w>
क ती</w>
से ल्
न री</w>
बो लते</w>
बन ती</w>
फ़ो न</w>
व ंत</w>
फ ंड</w>
का ँ
र ैं
ग्र न्
a n
जा ँच</w>
ू ं</w>
एसो सिए
उ ंग
दिलचस् प</w>
गठ बंधन</w>
ख तरे</w>
मि ंग</w>
कविता एँ</w>
अध्य क्षता</w>
निरं तर</w>
काउ ंटी</w>
पब् लिक</w>
क त
बनाएँ लॉग</w>
थ ी
ब टन</w>
हस्ता क्षर</w>
ट मा
ज़ि ंदगी</w>
श्र द्धा</w>
े ंगी</w>
उपलब् ‍ध</w>
लि हा
ह री
१ २</w>
शुभकामना एं</w>
ख र
ब्लॉ क</w>
ध ्य</w>
गण ित</w>
फ र्क</w>
ढ ो
अनु च्छेद</w>
गिराव ट</w>
हो श</w>
क पि
बहा ने</w>
इं जन</w>
9 .
पुष् टि</w>
परि जनों</w>
नवी नतम</w>
रि व्यू</w>
सब का</w>
अ वि
शिय न</w>
श नों</w>
आईपी एल</w>
बा इ
ता ब</w>
त मिल
तीस रा</w>
ज ौ
बॉ स</w>
यु वती</w>
भौ तिक</w>
आत्मह त्या</w>
बी ते</w>
राज्य पाल</w>
ँ कि</w>
रह ो</w>
खु ली</w>
व्‍ या
पहुं चने</w>
मा ँ
ड ेंट</w>
२ ०</w>
बढ़ ते</w>
सि या</w>
दुर् घटना</w>
अ त्या
अनु कूल</w>
वर् ग
न र्
लगा ना</w>
विद ्रो
ज़रू री</w>
भ जन</w>
नरे न्द्र</w>
सब् ज
अपे क्षा</w>
पिछ ला</w>
2 ,
डिजि टल</w>
बि हारी</w>
उल् लंघन</w>
टे ज</w>
स ते</w>
रो गी</w>
कॉ र्
हाद से</w>
इं दौर</w>
बौ द्ध</w>
कि लो</w>
संवाद दाता</w>
ंड ो
प री</w>
ृष् टि</w>
गु रू</w>
ं ज
दा ंत</w>
अहम द</w>
दौ रा</w>
ण ी
कमे टी</w>
आतंक वादी</w>
जु ड़ा</w>
ना मा</w>
ची ज़</w>
ति या</w>
नी ं
सी रीज</w>
धम की</w>
ला लू</w>
डा लकर</w>
लगा ते</w>
प द्
अ नो
प्र युक्त</w>
i n
ना ई</w>
घा त</w>
कृ पा</w>
स रे</w>
का ंत</w>
फ्रा ंस</w>
अं श</w>
्र ु
प्रच लित</w>
सम् ‍
१ १</w>
ना र</w>
स् टिंग</w>
चार िक</w>
उत्पा दों</w>
निय न</w>
लग ेगा</w>
उप स्थिति</w>
अरवि ंद</w>
इस् ती
प्र वी
स्व भाव</w>
ड ों</w>
गो पाल</w>
चर् चित</w>
बा ढ़</w>
माया वती</w>
08 /
फ् लू</w>
रिश् तों</w>
शो षण</w>
त ारी</w>
व्या पार
ज मा
कवि ताओं</w>
का ल
पा गल</w>
बु ले
3 00</w>
खिला ड़ियों</w>
संबंध ों</w>
स ला</w>
ग वर्
कुत् ते</w>
रा केश</w>
सम ग्र</w>
अड् डा</w>
कथ न</w>
कना डा</w>
पा वर</w>
आ धि
स ं</w>
बे व
मु ना
आउ ट
कप्ता न</w>
ई द</w>
त था
5 7
ध्व नि</w>
प्र ो</w>
ग्रे ड</w>
जा दू</w>
टमा टर</w>
अका द
झ ील</w>
इ काई</w>
07 /
सर स्व
ट क्कर</w>
सर्वो च्च</w>
नि पट
क म्
पॉ लि
ह ंस
सुन ते</w>
बा ग
बद मा
तैना त</w>
जे ब</w>
बि ग
अन् ‍
ओ गे</w>
कै द</w>
निर् देशक</w>
र्थ ों</w>
गो वि
सफ़ र</w>
ला ए</w>
प ते</w>
चेन् नई</w>
खु ल</w>
रि स</w>
सि विल</w>
स क्
4 6
02 /
फ्रें च</w>
नि दान</w>
करा ना</w>
सु पर
ज़रू र</w>
ली ग</w>
न क्ष
बृ ह
च तु
च क्र
नमस् कार</w>
खे ल
ध ु</w>
हि ता</w>
सोच ते</w>
बा लक</w>
न ती</w>
बि या</w>
आकर् षित</w>
धी श</w>
ल लि
रो गों</w>
अपरा ह्न</w>
डा लने</w>
निर्वा चन</w>
ट्री ब्यूशन</w>
गौ तम</w>
रु चि</w>
जान ना</w>
कर् मी</w>
क्त ियाँ</w>
विवे क</w>
वे स्ट
ब्लॉ गर</w>
एक मात्र</w>
साम्रा ज्य</w>
प्य ारी</w>
र क्त
उत् ‍
विशेष ज्ञ</w>
मु र
व्या याम</w>
सी बीआई</w>
य ी
दो बारा</w>
करवा या</w>
जि म</w>
टा टा</w>
ऍ ट्रीब्यूशन</w>
अके ला</w>
2014 व्यूस</w>
ज़ ्
उ क्त</w>
अभ िय
तुम् हे</w>
ध ारी</w>
स्टो री
मौ न</w>
ख्या त</w>
हटा या</w>
से वक</w>
लगा एं</w>
जय ंती</w>
ब ारा
09 /
उत्सा ह</w>
सु हा
बन ते</w>
प न
ओ वर</w>
सूक्ष ्म</w>
कह कर</w>
नवी न</w>
भा विक</w>
ज्‍ यादा</w>
बढ़ ी</w>
त्य ो
रण नीति</w>
पह ेली</w>
प्रार ंभिक</w>
ज ता</w>
ख़ बर</w>
विष य
ग्र ीन</w>
जो ड़ी</w>
गौर व</w>
आश्चर् य</w>
गी तों</w>
या चिका</w>
वि कता</w>
दि वाली</w>
स्टे डियम</w>
म स्त</w>
द्ध ता</w>
ब्लै क</w>
ध ारा
म् बई</w>
वि कला
बेड कर</w>
म जा
रो मां
स्ना तक</w>
पत्र कारों</w>
च ैं
4 7
्यु नि
अनु रोध</w>
सा उ
सर दार</w>
त् मिक</w>
डा ली</w>
ठ ंड</w>
मछ ली</w>
मान स</w>
लि ए
सरस्व ती</w>
ग न्
ग हरा</w>
पुण े</w>
अस म</w>
शु क्र</w>
प ट्
द ंड</w>
यो जना
्या न</w>
इ जा
ता छ</w>
फू लों</w>
मॉ ड
कार् या
तुम से</w>
स की</w>
ंद ु</w>
पा ली</w>
वि ंग</w>
10 :
दे हरा
हम े</w>
ऊ ं</w>
पुस्त का
ं जलि</w>
आन न्द</w>
ल लित</w>
स् वर्ग</w>
ऋ षि</w>
१ ५</w>
का यम</w>
ह की
संबो धित</w>
आव ं
आयुर् वेद</w>
त रिक</w>
सी जन</w>
बता ई</w>
वे ं
अभिन य</w>
किर दार</w>
रु क</w>
निरी क्षण</w>
झ ग
अध ी
इ ण्
स श
लु क</w>
परि पक्
जी ते</w>
उप युक्त</w>
काउ ंट</w>
की जिये</w>
बु लाया</w>
न ति</w>
आजा द</w>
स् वर्ण</w>
फि या</w>
अन् तर
निशा न</w>
स्मार्ट फोन</w>
05 /
प िय
बन् द</w>
दी पिका</w>
वर ना</w>
स ता</w>
बे स्ट</w>
परि स्थितियों</w>
कल्प िक</w>
खि ड़
ले न</w>
प त्रों</w>
मज दूर</w>
इ टली</w>
चा लू</w>
ते ं
फि क</w>
सुरे श</w>
मार् केट</w>
वै सा</w>
स्तर ीय</w>
झ ि
आदि वासी</w>
वै कल्पिक</w>
गर्भ वती</w>
तमिल नाडु</w>
गो द</w>
तत् काल</w>
ब रे
बु निया
हंगा मा</w>
जि तने</w>
कोह ली</w>
सं क्रमण</w>
ब ड़</w>
हड़ ताल</w>
अव तार</w>
न सी
स्था नां
निक ली</w>
पड़ ने</w>
स्ट ल</w>
बराम द</w>
मिश्र ण</w>
पढ़ ा
ह ज़
कठ ोर</w>
जॉ न</w>
पी ड़ा</w>
शू टिंग</w>
से क्टर</w>
क् लास</w>
को य
सुपरहि ट
देहरा दून</w>
बे चने</w>
छा त्रा</w>
अक्ष र</w>
शर् त</w>
द ह
रह स्य</w>
तर फ़</w>
पर म</w>
उ तार
वा नों</w>
मेह मान</w>
प्र सार</w>
पढ़ ते</w>
श पथ</w>
सं तान</w>
200 4</w>
ए टी
मा लिश</w>
न ते</w>
राम देव</w>
वस्तु ओं</w>
को ने</w>
विध े
कार्य क्रमों</w>
सृ जन</w>
04 /
बुनिया दी</w>
पहा ड़</w>
ह ं
अ म
मंजू री</w>
सहा य
का बू</w>
इंत ज़ार</w>
पा ँ
पूछ ताछ</w>
उ ज्
३ ०</w>
लॉन् च</w>
मुख ी</w>
चा ह</w>
प्र वाह</w>
ग़ ा
साहित्य िक</w>
रि जर्
भ या
लो न</w>
सि पा
ट ियाँ</w>
क्‍ यों</w>
एल् बम</w>
ग ौर</w>
आर एसएस</w>
दुर् गा</w>
गु णों</w>
किस् म</w>
ंग ाई</w>
सर्व प्रथम</w>
वि न</w>
जा तीय</w>
सेवा एं</w>
सर् दियों</w>
का फ़ी</w>
दा द</w>
12 :
ज ली</w>
व्या पारी</w>
साध नों</w>
पू र
न गर
स् य
पै माने</w>
डॉ क्
द ही</w>
व न्
रच नाओं</w>
7 ,
मा न्य</w>
ब ें</w>
इला कों</w>
का शी</w>
ब्रा उ
दर् शकों</w>
ड ो</w>
सै निकों</w>
पन् ना</w>
वा सन</w>
न ंद</w>
कर ु
हि ष्
शि खर</w>
ती स</w>
पू छ</w>
सं देह</w>
सु नी</w>
क् लि
स दन</w>
पुस्त कें</w>
हो म
ल घु
स्मार् ट</w>
उद ्य
निशा ना</w>
बे ड</w>
लेख कों</w>
ल्‍ क</w>
र ते</w>
सप नों</w>
6 4</w>
3 0
ल भ</w>
स्‍था न</w>
—— ——
त्‍ व
य कीन</w>
ज मी
ए यर</w>
मु च</w>
वै दिक</w>
5. 0</w>
दु आ</w>
आ न</w>
य ीं</w>
परि वारों</w>
उल् लेख
बु जुर्
खु दा</w>
मुकद मा</w>
ग्रं थ</w>
गि री</w>
नि स्तान</w>
धो खा</w>
प्रदू षण</w>
वा ड़ा</w>
त्यौ हार</w>
ख री</w>
नीर ज</w>
मि या</w>
रचना एँ</w>
ध ड़
आ शंका</w>
आ धी</w>
बैठ ी</w>
अब् दु
ट्र िक</w>
त ता</w>
श हरी</w>
अ मीर</w>
शी लता</w>
कल् ‍
दौ रे</w>
सु धार
श् त</w>
अन्तर् गत</w>
टेक् नो
उत् ते
स् क्रि
अं ध
बहादु र</w>
लड़ ने</w>
मह ज</w>
ज़रू रत</w>
भे जने</w>
घ ड़ी</w>
नि ष
प्रति क्रिया
च मक</w>
क्रे डिट</w>
द री</w>
प्रस न्न</w>
आ श्रम</w>
कुर् सी</w>
सह योगी</w>
द वाओं</w>
ब चे</w>
हि ट</w>
जवा नों</w>
खबरें सुपरहिट
दरवा जे</w>
पत् ते</w>
सिन् हा</w>
का ला
ने वाला</w>
र ्र
्‍ य
बी न</w>
ट्वी ट</w>
हा नि</w>
इ स्‍
फिल् ‍
क ण</w>
पार्ट मेंट</w>
क्रि के
डाय री</w>
इन से</w>
पक ड़ा</w>
अत्य धिक</w>
नागरि कों</w>
सच मुच</w>
शू न्य</w>
सहम ति</w>
प्रा वधान</w>
लो नी</w>
समु द्र
अनु सूचित</w>
क् ताओं</w>
बा ला</w>
दर् शक</w>
ढू ँ
विभा जन</w>
डि ़
न कर</w>
खो लने</w>
नि ज</w>
ले ं
मासू म</w>
गे म</w>
हि या</w>
हाई कोर्ट</w>
पा ये</w>
कॉ फी</w>
नाइ टेड</w>
शास् त्र
पो रेट</w>
जि ल</w>
भा गों</w>
र त
सला ह
दर् जा</w>
समझ ना</w>
गें द</w>
त् ती</w>
सै न्य</w>
आई ॰
सु ल्
प ृ</w>
7 2</w>
द रों</w>
फा न</w>
इ म
सू न</w>
ल कड़ी</w>
सर् वे
रख ती</w>
ति र
समर्थ क</w>
ली जिये</w>
पाठ ी</w>
फ़ ा</w>
ट्रे स</w>
सी सी
च तुर्
बी वी</w>
ग ण</w>
मान ने</w>
छे ड़
06 /
8 5</w>
7 6</w>
प रो
टक ारा</w>
कि क</w>
बै क</w>
गु ना
ई रान</w>
प्रस ारण</w>
दुश् मन</w>
वा दा</w>
ए डा</w>
म री</w>
या त्रा
उप हार</w>
या ल</w>
विद्या र्थी</w>
सब ू
ड्र ि
ट्रा ं
फॉ र्म</w>
दिखा एं</w>
इ ए</w>
सब् जी</w>
ट्यू ट</w>
पा लक</w>
ही रो</w>
म सी
ठ ु
सी ना</w>
मह ंगाई</w>
मा ंगी</w>
प वन</w>
कम ्युनि
क्ष ै
बि ता
रा ने</w>
नज दी
र् त</w>
आ धे</w>
सु ंद
जोड़ ने</w>
चु ने</w>
सु ध
अधि कारों</w>
दी र्
जर िये</w>
. .</w>
स्थि र</w>
सि फार
क न्या
न दान</w>
ंग ें</w>
उल झ
कै ल
डे ढ़</w>
करो ड़ों</w>
वा णि
स ें</w>
ख़ा स</w>
मि कता</w>
धा तु</w>
राइ ड</w>
पुरा ण</w>
र मेश</w>
भ्र म</w>
ट स</w>
विश् ‍
हा य</w>
चल ना</w>
बे कार</w>
योग दान
स्वा भाविक</w>
व्याव सायिक</w>
का ने
सि ले
समा ज
जि या</w>
आदर णीय</w>
ज ला
्यो र</w>
मरा ठी</w>
ज ला</w>
इन् हीं</w>
बच ें</w>
आमंत्र ित</w>
वा यु
ट र्न</w>
पे शे
शु ल्‍क</w>
सम क्ष</w>
गं ध</w>
क च
थो ड़े</w>
नुस् खे</w>
एल र्जी</w>
प्रो टीन</w>
बा लि
प्रो जेक्ट</w>
ने श</w>
पो ल</w>
कम्प नी</w>
मुख्य पृष्ठ</w>
ब्रह् मा
टे निस</w>
दिव सीय</w>
सांख्यि कीय</w>
समझौ ता</w>
�������������������������������� ��������������������������������
मानव ीय</w>
स् कॉ
मा ई</w>
सं पूर्ण</w>
चु ट
भ ेंट</w>
क ु</w>
खि लौ
वा कई</w>
स्पे निश</w>
प्रोफे सर</w>
सी डी</w>
11 :
हम को</w>
ता ज</w>
स द्
सर् वर</w>
लोक पाल</w>
पं क
सुविधा यें</w>
जी ना</w>
डी ल
बने गा</w>
सु भाष</w>
पूर् व
खा ई</w>
परि चित</w>
पुस्तका लय</w>
ब्या ज</w>
स ौर</w>
सं गीत
ना त्मक</w>
उपलब् धता</w>
प्र जा
साइ ज</w>
विधे यक</w>
पाण्डे य</w>
वि यों</w>
चा प</w>
बी बीसी</w>
दा ताओं</w>
क्षा ओं</w>
आगा मी</w>
शैक्ष िक</w>
त कों</w>
व स्त्र</w>
लग् न</w>
बा यो
हॉ की</w>
दा दा</w>
सं सद
कै रियर</w>
तुल सी</w>
अक बर</w>
नि ः
उड़ा न</w>
प्र यो
शि क्षित</w>
रूप ए</w>
वर् क
य ॉ
कि रण</w>
अर्था त्</w>
दस्ता वे
गो वा</w>
शर द</w>
6 1</w>
शे खर</w>
अन ू
ए क्स</w>
स ृष्टि</w>
ग ें</w>
प्रसि ध्द</w>
च न
पंचा य
विद्या र्थियों</w>
है ...</w>
ऑ र्
परमा त्मा</w>
श र्म</w>
6 8</w>
को त
6 6</w>
गुला ब</w>
उन् हे</w>
की र्
ढ़ ा</w>
लाइ फ
चिकि त्‍
छु टकारा</w>
विशेष ज्ञ
क्षै तिज</w>
फि टनेस</w>
बां ध</w>
ख़ु शी</w>
जि श</w>
करवा ने</w>
ठा न</w>
वा ला
अ क्ष</w>
ट्रै क</w>
सा थियों</w>
4 9
स ख्त</w>
6 7</w>
पं च</w>
जन पद</w>
मा ई
अ ब
ता ज़े</w>
लि टी</w>
भारती यों</w>
प्रवी ण</w>
आ ड
सं ग
अ यो
ज़ ु
दू रों</w>
अभि षेक</w>
अड् डे</w>
सम ्रा
शख् स</w>
मो टर</w>
गर् व</w>
6 3</w>
स्व च्छ</w>
झ टका</w>
ज स्
ओ म</w>
थ क</w>
ख़ ब
श्री लंका</w>
च य
समस्या एं</w>
आधि कारिक</w>
ऋ ष
स रा
दा दी</w>
ध् र</w>
चिकित् सक</w>
का ना</w>
ब्यू रो</w>
लिख कर</w>
3 ,
प्रति बंध</w>
सै कड़ों</w>
मानव ता</w>
बु खार</w>
से टिंग</w>
नो एडा</w>
नै नी
ग ॉ
उ तनी</w>
स् या
द कीय</w>
प्रतिनिधि त्व</w>
रा तें</w>
स्टॉ क</w>
प्र त्‍
ना मी</w>
अप मान</w>
रंग ों</w>
कि ट</w>
रे ज</w>
ए सि
क् तों</w>
स री</w>
निर् धारण</w>
आरोप ियों</w>
खु द
ई साई</w>
डा ंस</w>
नारा ज</w>
आद तें</w>
1 :
बैठ कर</w>
मो ड़</w>
वृ श्
क्रा इ
बु ल</w>
क्रो ध</w>
राज कुमार</w>
ली ज़</w>
बक वास</w>
य ज्ञ</w>
प्रार म्भ</w>
ली प</w>
खा मो
बढ़ कर</w>
पदा र्थों</w>
नि वेदन</w>
गोरख पुर</w>
भट् ट</w>
सी टों</w>
मं त्रियों</w>
काग ज</w>
अभ ्य
क वर</w>
हा र्ट</w>
उल्लेख नीय</w>
सी धी</w>
ट् स
स् पति</w>
पी ए</w>
विशेषा धिकार</w>
गु ं
अ दा</w>
सा मान्य
सु रा
श रा
गर् मियों</w>
डि प्
नैनी ताल</w>
ब ढा
.... ..</w>
शौ किया</w>
हु ईं</w>
परिवर् तन
ट्रा ंस
एन बी
अ द
मान त</w>
बद लिये</w>
भग वा
अग् नि</w>
सोच ता</w>
मिले ंगे</w>
स्ने ह</w>
सा क्ष
पंक ज</w>
कैम रे</w>
संसद ीय</w>
फ र्जी</w>
कर् ज</w>
या दों</w>
8 1</w>
संग्र हा
प्रा ंत</w>
निय त</w>
मरी ज</w>
ज्यो ति</w>
बांग् लादेश</w>
थ र्ड</w>
आए गी</w>
ज़ े
ग् ‍
फ़् त</w>
व्या ख्या</w>
जा तक</w>
य द्य
पै के
त त्वों</w>
चर णों</w>
५ ०</w>
ली जिए</w>
बे च</w>
आवश्य क
6 2</w>
बना ती</w>
आ क्रमण</w>
ल हर</w>
इं दिरा</w>
बै ग</w>
साह स</w>
सर् वे</w>
पंजा बी</w>
दि शा
या दें</w>
यद्य पि</w>
रे ड</w>
ं ता</w>
कि डनी</w>
जु ट</w>
00 00
चू ंकि</w>
स ु</w>
न्यू ज़
बॉ डी</w>
परिपक् व</w>
लु ओं</w>
नि धि</w>
गिर ने</w>
बैं ड</w>
सू र</w>
रो मांस</w>
को रिया</w>
न हा
हल चल</w>
द फ्
रिजर् व</w>
इलेक् ट्रॉ
शी ष</w>
आ शीर्
प्रती क्षा</w>
आइ ए</w>
ढूं ढ
अनु ष्
शि वा
ता ंत्रिक</w>
बैं किंग</w>
पु न</w>
शुरु आती</w>
ौ ती</w>
च लेगा</w>
सु र्
अं जाम</w>
सेवा एँ</w>
महत् त्वपूर्ण</w>
बरे ली</w>
तुर् की</w>
पास वर्ड</w>
मु ना</w>
जि क्र</w>
फुट बॉल</w>
ई मे
क ड़</w>
र् द</w>
ग हरे</w>
गो ष्
ओ पन</w>
के दार</w>
पें शन</w>
्र ी
पां च
वायर ल</w>
मधु र</w>
क् ली
फै क्
त्रि पाठी</w>
ग ड
संस्था ओं</w>
सीख ने</w>
r e
टि का</w>
प्रोत्सा हन</w>
एम एस</w>
प्री म
अकाद मी</w>
पे न</w>
जरु रत</w>
गै ंग
अव साद</w>
ब सपा</w>
शिय ल</w>
7 8</w>
नी ता</w>
देव ताओं</w>
हु सैन</w>
आत् म</w>
ंग ु
मना ने</w>
दर बार</w>
श रण</w>
अंग ू
जान कर</w>
सक ेगा</w>
संस् मरण</w>
ह वाले</w>
मजा क</w>
दायि त्व</w>
डी ज</w>
खब रों</w>
लि यो
मो ह</w>
मार पीट</w>
प दक</w>
किता बें</w>
सं कलन</w>
नि ंदा</w>
प्रत्य क्ष</w>
स राह
मिल न</w>
बा हु
ला पर
वैज्ञा निकों</w>
अंग्रे जों</w>
ब्रा ंड</w>
मि नि
समलैंग िक</w>
चि ल्
बि ंदु</w>
मु केश</w>
दू त</w>
जि ंदा</w>
सा ढ़े</w>
दा र्
जो र
परि भाषा</w>
यो जित</w>
वाह नों</w>
अ मर
आर ती</w>
कब् जा</w>
पा कर</w>
म् भ
म् ब
ह ्र
क् सि
स् के
श्‍ य</w>
एयर पोर्ट</w>
प रे</w>
बद न</w>
ति न</w>
फे फ
200 3</w>
नु स्‍
भा ई
ँ गी</w>
सा प्ता
ठो स</w>
घोटा ले</w>
औ प
गा ई</w>
ए क्‍
प्रशं सा</w>
दिख ता</w>
जग हों</w>
4 00</w>
बर् फ</w>
न मा
सि ग
मं जिल</w>
/ 5.0</w>
6 9</w>
आग मन</w>
आज़ा दी</w>
पह नने</w>
म णि
बे स</w>
न मू
क ष्ट</w>
क्रा ंति
अ ली
200 1</w>
7 3</w>
मसा ला</w>
परिवर् तित</w>
शु दा</w>
जान कार
ख़ु द</w>
ग ंगा
क प
चौ क</w>
कपि ल</w>
भू कंप</w>
परम्प रा</w>
वा ड़</w>
पार ित</w>
श ियों</w>
राज स्व</w>
द् दीन</w>
बो झ</w>
आं तरिक</w>
दे शा
प्रि ं
ग्रे ट</w>
नाश् ता</w>
सू ल</w>
अध ीन</w>
भाव ों</w>
र् ना
आं टी</w>
पै दल</w>
राज्य सभा</w>
गुम नाम</w>
ल ॅ
डा क्टर</w>
आध्या त्मिक</w>
रो धक</w>
छ ू</w>
द्र ो
1 50</w>
कौन सी</w>
वार् ता
गि रा</w>
रो म</w>
वार िक</w>
पै क</w>
तत् कालीन</w>
मृ त</w>
मि ट</w>
र सा
लोक न</w>
तारी फ</w>
7 7</w>
जा ं
य िक</w>
रिश् ते
मोटा पा</w>
रह कर</w>
टेली विजन</w>
न्याया धीश</w>
सें सेक्स</w>
घ ट</w>
त ले</w>
द या</w>
गरी बों</w>
ट्र ंप</w>
कु शल</w>
करे ंगी</w>
मो हल्
7 1</w>
प्रत्या शी</w>
मु म्बई</w>
फै ला</w>
शन री</w>
फ़ ाई</w>
सला म</w>
स ियत</w>
दक्षि णी</w>
स पुर</w>
चै न
शक्ति शाली</w>
पौ धे</w>
क्र ी
अल् पसं
जिन से</w>
बह ू</w>
बु रे</w>
बच्‍ चों</w>
बन ार
म् प</w>
र स
प्रा य</w>
अहम दाबाद</w>
ज़ मीन</w>
लेख ों</w>
विचार धारा</w>
मह ेश</w>
अमृ त</w>
स्वय ं
कं ट्रोल</w>
नक्ष त्र</w>
गे हूं</w>
क ारा</w>
म थु
म च</w>
200 2</w>
प ैं
मु हैया</w>
विस्फो ट</w>
खार िज</w>
रा ती</w>
आ ग्रह</w>
फु ट</w>
चा ंदी</w>
प्य ारा</w>
न कारा
सब की</w>
सर् दी</w>
प्र संग</w>
आं सू</w>
रि टी</w>
जॉ ब</w>
फी स</w>
मु फ़्त</w>
201 3
या ता
बि ं
गु रू
छात्रा ओं</w>
गो ल्
डा टा</w>
सबू त</w>
जरु र</w>
ए प</w>
१९ ९
मि ल्
था य
लेख ा</w>
दुल् हन</w>
आशीर् वाद</w>
ं कार</w>
पार्ट नर</w>
मं दि
गहरा ई</w>
टु कड़े</w>
अनु रूप</w>
रिले टेड</w>
घ ा</w>
ता प</w>
ै व</w>
पुस् तिका</w>
ध ं
गां धी
राष् ‍
संग्रहा लय</w>
पार् किंग</w>
मुह म्मद</w>
उपभो क्ता</w>
ख रे</w>
‍ न</w>
का श
ऑ टो
पि ताजी</w>
जान ती</w>
बार ह</w>
ल ण्ड</w>
क ॅ
हि रा
टा ई
स तीश</w>
स्टो र</w>
वा हिक</w>
मुख र्जी</w>
उद य</w>
उपा ध्यक्ष</w>
मोह ब्बत</w>
ऑ न</w>
लं बा</w>
आ रा
माध्य मिक</w>
भ ट
ॉ प</w>
अफ सर</w>
मि लित</w>
न शे</w>
घ टाने</w>
ख् ‍
उत् पत्ति</w>
सा त
म स</w>
अं पा
दि लाने</w>
अल्पसं ख्य
सी ता</w>
लं बाई</w>
मही ना</w>
पाउ डर</w>
आं ख</w>
साव धान</w>
रि वा
गौर तलब</w>
में ट्स</w>
दिलचस् पी</w>
चा चा</w>
बर सात</w>
आ लोक</w>
मा लि
इन् होंने</w>
प्र बंध</w>
ऊ ंगा</w>
चा इ
मा ओ
जो ध
मरी जों</w>
पढ़ ना</w>
क न
चौ पाल</w>
श्रद्धा ंजलि</w>
एसोसिए शन</w>
स्क्रि प्ट</w>
शर् तों</w>
वृ त्
महो त्सव</w>
मू ली</w>
सं गत</w>
पा एंगे</w>
क्ष मा</w>
चौ पाल
र वाना</w>
रो शन</w>
भे जी</w>
छु पी</w>
ब स्ती</w>
कहा नियों</w>
स ती</w>
टे ंट</w>
रो गियों</w>
चौ रा
बच्‍ चे</w>
वै य
ति थ
इन कार</w>
अयो ध्या</w>
रां ची</w>
7 4</w>
र थ</w>
याता यात</w>
हा थी</w>
ऊं चाई</w>
आर् टिकल</w>
म चा
उठ े</w>
फ् तार</w>
मुकाब ला</w>
अमरी की</w>
6 8
दे सी</w>
लाय ंस</w>
जान वर</w>
ण्ड ली</w>
जा यें</w>
उद य
पहा ड़ी</w>
राज कीय</w>
का एं</w>
गि न</w>
लं बित</w>
ख़ त्म</w>
आ र्य</w>
घ न
गु जर</w>
े य</w>
प् पा</w>
पढ़ कर</w>
घू म</w>
अ तीत</w>
ंड ों</w>
बा पू</w>
मु क्
मि ता</w>
सलाह कार</w>
ली ट</w>
ने वाली</w>
स् त्रियों</w>
सम् मिलित</w>
उठ ी</w>
जी न</w>
मु ज
सत ह</w>
गा यक</w>
पारि वारिक</w>
कट ौती</w>
वी र
म रे</w>
नि व
य श
रा धा</w>
3 19
तक ली
डी जल</w>
स वारी</w>
टें शन</w>
च लाया</w>
प्र ण
दी जिये</w>
च ढ़</w>
वृ ष
का टने</w>
को टा</w>
्य ार
गर् ल
बि र
विशेष ता</w>
खो ला</w>
च ें
क मा</w>
मु क</w>
पुर् त
फ्लै ट</w>
ऐ प</w>
जे ट</w>
5 ,
मान नीय</w>
दा यर</w>
संवेदन शील</w>
पढ़ ी</w>
अर बी</w>
अमृ त
खा सकर</w>
लि प
लड़ कों</w>
वा क्य</w>
ल्‍ ली</w>
मे ट</w>
नक ली</w>
हकी कत</w>
वॉ ल
2 50</w>
जू ते</w>
हि द</w>
वृ त्त</w>
री ना</w>
त् तम</w>
सं हिता</w>
उदा स</w>
मि स</w>
ति र</w>
उठ ता</w>
ैं स</w>
इस्‍ तेमाल</w>
सि ंगा
्र ी</w>
साय निक</w>
पीछ ा</w>
इंटर व्यू</w>
मु बार
दु खी</w>
प राम
सि कता</w>
ग ह
साप्ता हिक</w>
ब लि
बी त</w>
ढ ाई</w>
ऑ क्
संतु लन</w>
कला कारों</w>
बता ता</w>
अना ज</w>
च श्
मथु रा</w>
ज़ ो
र घु
रामा यण</w>
लि यम</w>
लो र</w>
ब द्धता</w>
बढ़ा कर</w>
जोध पुर</w>
पह लू</w>
प्र दायिक</w>
ब्रह् म
ब गी
मु रा
क्षि प्त</w>
शुभकामना यें</w>
भे जे</w>
ं टल</w>
टू र्ना
डा र</w>
विन य</w>
पशु ओं</w>
आ विष्
द ब
पो स्टर</w>
ंग र</w>
र श्
मु हू
रे स्टो
शिका य
नि ये</w>
4 ,
शह द</w>
बद लते</w>
का ज</w>
फ रार</w>
लि स</w>
ई ं
प ट्टी</w>
टी चर</w>
२ ५</w>
कने क्शन</w>
कश् मी
तुम को</w>
० ०
ई ओ</w>
दर गाह</w>
कर् ष</w>
अनु भ
प ना</w>
वे ल</w>
प्रती त</w>
ध्‍ यान</w>
नी त</w>
बना म</w>
सच्च ी</w>
7 9</w>
सहाय ता
कार ें</w>
बि नेट</w>
त ला</w>
ता त्
आर ॰
भाग ्य
गो ल्ड</w>
माय ने</w>
2 36
त ारे</w>
ए ट</w>
डो ने
9 8
म् य</w>
अफ सरों</w>
स वीं</w>
रो ध
इंजी नियर</w>
धु ं
ग जब</w>
लोक प्रिय
बा धा</w>
बर स</w>
सु मन</w>
मय ंक</w>
भ्र ष्ट</w>
फु ल</w>
१ ४</w>
पूर्वा ह्न</w>
कार्य काल</w>
जिस को</w>
बता ओ</w>
णि मा</w>
प्या स</w>
स्पे न</w>
हल् दी</w>
ग ला</w>
निर पे
कॉ पी
स् को</w>
ले खा
्र ा</w>
ब रा</w>
वि कार</w>
घ र
केंद्र ित</w>
त प
मध्य म</w>
पराम र्
पुरू ष</w>
ब् बे</w>
प्राइ वेट</w>
स ैं
क्र मा
बि ला
क् के</w>
झ लक</w>
ई ल</w>
उ ड़</w>
क कर</w>
म् र</w>
पार ं
जन जाति</w>
टेक्नो लॉजी</w>
छो ड़ा</w>
चर् च</w>
उत्तरा खण्ड</w>
सि ख</w>
गर् भ</w>
दरवा जा</w>
खि या</w>
इ ताल
क्षा एं</w>
उ पर</w>
स्वी कृति</w>
सं भ
सद ैव</w>
ज िया
अखि ल</w>
फि क्
आ शीष</w>
रे खा
कैल ंडर</w>
चि प
ज् म</w>
छा ड़</w>
ज माने</w>
ब लों</w>
पढ ने</w>
सिं चाई</w>
ले वल</w>
स्पर् श</w>
इस्ती फा</w>
ग्रे गोरी</w>
भ ू</w>
बता ना</w>
ला ं
राज स्था
प ो</w>
दा यी</w>
गार ंटी</w>
गुला म</w>
ऑपरे शन</w>
स ली
ज्ञान कोष</w>
नि हित</w>
पड़ ते</w>
आ यर
ह ज़ार</w>
द्वि वेदी</w>
निग रानी</w>
कहा नियां</w>
छु ट्
आप सी</w>
प्र करण</w>
योगदान खाता</w>
सम् पन्न</w>
हार िक</w>
थो डा</w>
श् वे
ल्‍ थ</w>
जरु री</w>
अच्‍ छा</w>
प्रति मा</w>
हिरा सत</w>
रा ना</w>
पे यी</w>
उप करणों</w>
टि फि
सह ारे</w>
पर् व
स ना
सं दिग्
समस्‍ या</w>
वालि यर</w>
प्ला स्टिक</w>
महा सचिव</w>
विरा सत</w>
रो का</w>
गठ ित</w>
यथा र्थ</w>
वार्ता योगदानखाता</w>
खिड़ की</w>
बि न्
ऑ फर</w>
बता ए</w>
201 0
चो पड़ा</w>
इश् क</w>
ष् ण
मह ंगा</w>
क् तिक</w>
पा ंडे
टी आई</w>
चा दर</w>
आ काश
पारं परिक</w>
ता एँ</w>
त मिल</w>
बैठ ने</w>
मु ठ
खी ंच</w>
को मल</w>
दर् जन</w>
है वार्तायोगदानखाता</w>
सिपा ही</w>
मुखपृष्ठ चौपाल
जहा ज</w>
मे च
बे ब</w>
सूर ती</w>
अन मोल</w>
मज दूरों</w>
........ ........
वि विध
पि या</w>
प्रे शन</w>
द लि
डा ले</w>
अध्या य</w>
कविता एं</w>
प्रतिष् ठित</w>
मां स
खो जने</w>
लि वुड</w>
मि स्
धू ल</w>
प्र य
सम य
सा जिश</w>
आतं क</w>
ना ते</w>
रि त
प्राय ः</w>
क़ ी</w>
विषय वस्तु
मुखपृष्ठचौपाल हाल</w>
अन ंत</w>
निव ारण</w>
घ ृ
मो टी</w>
सर् जरी</w>
भे द
रि टा
हिंदु स्तान</w>
रे टर</w>
जो री</w>
कार्य रत</w>
सक ीय</w>
मुखपृष्ठ निर्वाचित</w>
ब हार</w>
पृष्ठ भूमि</w>
विषयवस्तु यादृच्छिक</w>
घ बरा
निश् चय</w>
शु भार
सं जीव</w>
ड ू</w>
गु र्
ग द्
तस्वी रों</w>
ती र्थ</w>
सं ज्ञा</w>
सच्च ा</w>
वे शन</w>
रो जाना</w>
अ वार्ड</w>
डी ए</w>
ह त्या
सिलसि ला</w>
कले क्टर</w>
ज ियो</w>
सम र्थ</w>
दिक् कत</w>
ए ड</w>
वर् गी
य मुना</w>
उप े
पू त</w>
ब डी</w>
विद् वान</w>
आ ह्
छि पा</w>
पु त्री</w>
ए न्
उ ंड</w>
चाह ा</w>
ललि ता</w>
वा इस</w>
जी वनी</w>
319 भाषा</w>
सम्रा ट</w>
निर् मल</w>
आ युक्त</w>
फॉ र</w>
इ कट्
रा सायनिक</w>
शि मला</w>
वायर स</w>
व्यव स्थापक</w>
रा क</w>
रा जा
प् ले</w>
यॉ र्क</w>
प्र था</w>
इन को</w>
स् पोर्
सी नियर</w>
बु ध</w>
स्‍ क</w>
सर्वे क्षण</w>
मण ि</w>
हिमा लय</w>
यू नियन</w>
गु ज़
डे वेल
प्रति भा
अनु भूति</w>
गण तंत्र</w>
सि न</w>
ग्रन् थ</w>
श्र ो
चौ थे</w>
समी र</w>
घा तक</w>
महा विद्यालय</w>
द बा</w>
तन् त्र</w>
वैय क्तिक</w>
पं थी</w>
कह लाता</w>
रण बीर</w>
एटी एम</w>
व ण</w>
मनु ष
जन गणना</w>
प्रा णी</w>
त्व रित
डे स्क</w>
इताल वी</w>
9 6</w>
ज्ञा पन</w>
साहित्य कार</w>
अफ गा
त्वरित वार्ता</w>
र कम</w>
कामया ब</w>
वे स्ट</w>
निर् यात</w>
अन्य था</w>
क ्</w>
दाखि ल</w>
य ड</w>
लम् बे</w>
राष्ट्र ी
गंभी रता</w>
ऑ प्शन</w>
पड़ो सी</w>
अपना एं</w>
दा नी</w>
ज मानत</w>
आए ंगे</w>
मान सिकता</w>
र् ज</w>
मा फी</w>
ला ये</w>
व्या स</w>
कीम तें</w>
आई॰ आर॰
कैले ंडर</w>
आई॰आर॰ सी</w>
कोशि काओं</w>
परं परा
शौ क</w>
हु यी</w>
हरि द्वार</w>
समझौ ते</w>
चा हें</w>
कर् तव्य</w>
चि ंग</w>
क पड़
न् तर</w>
क्र ीम</w>
भू त
9 7</w>
शा यर</w>
रे गा</w>
सिग रेट</w>
थु न
ह ंस</w>
ले टर</w>
हस्त मैथुन</w>
बता एं</w>
र फ्तार</w>
धि करण</w>
रा वत</w>
ंग न</w>
प्रणा म</w>
पं क्ति</w>
इमार त</w>
क़ा नून</w>
नुस्‍ खे</w>
टि क्स</w>
रा णा</w>
क नी</w>
डी ल</w>
मे ज</w>
धा निक</w>
श्री कृष्ण</w>
पी सी</w>
बा थ
राज नाथ</w>
ब्ल ड</w>
गर्भाव स्‍था</w>
हा ं
ड्राइ वर</w>
र पुर</w>
नी र</w>
ओ लं
दि ल्‍ली</w>
हल् का</w>
प्या ज</w>
भ क्तों</w>
ंग ू</w>
टाइ पिंग</w>
१ ८</w>
प्य ारे</w>
गा इड</w>
निपट ने</w>
ध्या य</w>
मेह मानों</w>
भे ड़</w>
समझ े</w>
चू क</w>
पचा स</w>
गु न
गोष् ठी</w>
आई एस
एन सी
बो लें</w>
युव कों</w>
कि न्
फ री
सच्च े</w>
च न्
ह ारों</w>
शरी फ</w>
ग् वालियर</w>
उन् नत</w>
8 4</w>
चीज़ ें</w>
ह ंसी</w>
चर् स</w>
संतु ष्ट</w>
सन् देश</w>
प ल्
दौ ड़
मूल ्यों</w>
त िया
परिष द्</w>
स्ट ैंड
ली टर</w>
का इ
क्वि ंटल</w>
हि म</w>
इस ने</w>
सुन हरे</w>
ताला ब</w>
रू चि</w>
नि वेद
होट लों</w>
नार ियल</w>
क मि
रा ज्‍
हि ल</w>
कै बिनेट</w>
ख़ ू
गिरफ् तारी</w>
ध ौ
आ चरण</w>
तैय ार
क् लो
मुहू र्त</w>
अं कों</w>
से ना
म चा</w>
धर ना</w>
घा स</w>
कोत वाली</w>
बा र्
वा स्तु
स्ट्र ा
करू ँ</w>
अँ धे
संभा वित</w>
र ना</w>
9 2</w>
श त्र
प्‍ त</w>
अनु रोध
इंटर नेशनल</w>
एम पी</w>
ला नी</w>
गो ल
ति की</w>
य ि
मौ लिक</w>
प्रो ड
कु ंभ</w>
भा ंति</w>
स सुरा
दे हा
गर् ल</w>
अंपा यर
डेवेल पर्स</w>
रि कार्ड</w>
ग हन</w>
कॉपी राइट</w>
आं खें</w>
कॉमेंटे टर
वै सी</w>
सर् जन</w>
जे टली</w>
ल ड़</w>
मंदि रों</w>
पूं जी</w>
ग्रा फी</w>
ने ं
वा दक</w>
सा वन</w>
ढ ा</w>
भागी दारी</w>
जन म</w>
मो टे</w>
लॉ ग
विकला ंग</w>
विद्रो ह</w>
प्रयोग पृष्ठ
9 8</w>
बे ंग
रे ंस</w>
शिव सेना</w>
सु ष
वर् धक</w>
चा ली
आड वाणी</w>
फो र्
करी ना</w>
क त्
पुस्त कों</w>
स्‍ त</w>
श ृ
डि क्
विद् वानों</w>
निवेद नदान</w>
सब्ज ियों</w>
प्रभाव शाली</w>
अनुरोध विशेषाधिकार</w>
ऑ डियो</w>
सु शील</w>
लेख आयात</w>
प्रयोगपृष्ठ अनुवाद</w>
स्व शिक्षा
पढ़ें अप्रैल</w>
उठा कर</w>
ईमान दारी</w>
प्रश्न देवनागरी</w>
सहायता स्वशिक्षा
सहायतास्वशिक्षा अक्सर</w>
करें त्वरितवार्ता</w>
न स्
वं चित</w>
का लिक</w>
प स</w>
श ें</w>
तृ तीय</w>
ल ैं
नो टों</w>
विवे कान
ं तर</w>
आं ध्र</w>
१ ३</w>
शत्र ु</w>
ब गैर</w>
अं कित</w>
किता बों</w>
ण् डर</w>
प्रे मिका</w>
जि ज्ञा
कै श</w>
वो ल्
मा ही</w>
ट ती</w>
गुस् से</w>
सं ध्या</w>
टै रो</w>
बनार स</w>
शा न्ति</w>
बा ड़
3 5
इ ज्
पा ंडे</w>
रू ख</w>
आतं कियों</w>
9 :
भ ंग</w>
० ००</w>
2 :
पूर् णिमा</w>
सो नी</w>
मु सी
6 00</w>
निर् मा
चु न</w>
पांडे य</w>
न शिप</w>
ब् लू</w>
लापर वाही</w>
अ खब
ग ु</w>
सि म
चर म</w>
इ ट</w>
बु ला</w>
गति शील</w>
स्थ लों</w>
बहु मत</w>
ढा ं
नक्स ली</w>
ल् हा</w>
महि मा</w>
रसा यन</w>
उप रो
बना यें</w>
दे री</w>
भू मि
मि लियन</w>
कल्‍ प</w>
दु सरे</w>
पा नी
रे पी</w>
सौ र
त बा
साई ट</w>
प् टर</w>
फ् टी</w>
कर ों</w>
महा वीर</w>
पूछ ने</w>
किस से</w>
चा लित</w>
श तक</w>
मि र्
हा नि
रो जग
राज भाषा</w>
ध ना</w>
मुर् गा</w>
थ कान</w>
ठ ंडा</w>
ए सी</w>
अनु राग</w>
स्ट्र ो
9 4</w>
ना ट
गर्ल फ्रेंड</w>
नग री</w>
मा उ
स्‍ वी
रे त</w>
दर् शी</w>
बढ़ ो
सक् सेना</w>
फें क</w>
स्व रुप</w>
मं त्रि
नी तियाँ</w>
गतिविध ियाँ</w>
ट्र ल</w>
नकारा त्मक</w>
क व
ति कता</w>
त स्
ख ौ
वै धानिक</w>
चाह त</w>
ल ि</w>
रे स</w>
स्‍ थ</w>
अ काउंट</w>
रो मा
ख ियों</w>
8 2</w>
घं टों</w>
स् को
द हे
जी वी</w>
१ ६</w>
ी करण</w>
ग यीं</w>
भी षण</w>
समर् पण</w>
रो ह
छ ल</w>
त्रु टि</w>
मुख मैथुन</w>
ग ्यार
सं स्थानों</w>
उ समे</w>
ध ्रु
सित ारा</w>
अव धारणा</w>
हेल् थ</w>
गर् दन</w>
समुद्र ी</w>
हा ल
दफ् तर</w>
पेशे वर</w>
स राय</w>
कु श
गु र
वसू ल</w>
चु ं
त लवार</w>
पाल तू</w>
दी जिए</w>
ध ो</w>
कवि यों</w>
दुर् लभ</w>
अग ला
छा त्र
चि ह्न</w>
आश् वासन</w>
ख र्
राज ेंद्र</w>
वी डियो
आई सी
आ ठ
त पुर</w>
ढ़ ा
संदिग् ध</w>
इ क
कै प्
द ना</w>
गुला बी</w>
प ड
सो ते</w>
उठा ए</w>
फे ल</w>
फै ल</w>
बर् तन</w>
अपरा धी</w>
त्‍व चा</w>
जवा नी
डे वि
4 5
सर् व</w>
ए म्
द ने</w>
जान वरों</w>
भ ंड
एजें सियों</w>
सं गीता</w>
उजा गर</w>
ठा करे</w>
स्‍ त
ई स</w>
न् वित</w>
ब हर
चौ ं
सब क</w>
सं क्षिप्त</w>
जिला धिकारी</w>
सं गम</w>
सं स्थापक</w>
व्या ख्या
प्रव चन
इच्छ ा
/0 6</w>
चु पचा
व्‍या याम</w>
प्रत्‍ यु
मक सद</w>
ए डि
मोर् चा</w>
भ व्य</w>
इस्ला मी</w>
आ ल
प् लस</w>
दाय रे</w>
चैन लों</w>
न मन</w>
प्रतिष् ठा</w>
कीम तों</w>
अनु र
खूब सूरती</w>
मद द
ठ हर
समझ ता</w>
कार्य कारी</w>
ड ्रो
ज टिल</w>
औ ज़ार</w>
क् ल
अं डर
तो ड़ने</w>
मी ठा</w>
प्र वृत्ति</w>
आयुर् वे
श् न</w>
म द्
स दियों</w>
दलि तों</w>
ष् ठ
आइ ये</w>
सौ दा</w>
म कता</w>
ू ंगा</w>
स्टैंड र्ड</w>
अनु कू
जता ई</w>
8 00</w>
ना मों</w>
रज नी
बा ब</w>
चुपचा प</w>
पह ने</w>
श् वर
्रा इ
अ जब</w>
पहुँ चा
डब्ल ्यू</w>
गो रा</w>
आं कड़े</w>
प्रत्‍यु त्तर</w>
अ टै
जल वायु</w>
विधा य
अ मी
डू ब</w>
ब्लॉ ग
वर्क आउट</w>
प्रेम चंद</w>
र ती</w>
खो ज
थाय राइड</w>
मो ती</w>
ख नन</w>
9 /
ऐ लान</w>
पूं जी
मनो हर</w>
स दा
र स्
ज ज</w>
मु आव
स् या</w>
मर् द</w>
दु कानों</w>
इ म्
भाग ीय</w>
शो ध
2 1
रा खी</w>
जी वा
वास्त विकता</w>
मे ँ</w>
स्‍ टा
त्यो हार</w>
\ \
मसी ह</w>
देख ती</w>
फ स
ब्रि ज</w>
ट ैं
वि क्रम</w>
र मन</w>
रि क्
चे तन</w>
चा ची</w>
d e
पह न</w>
इं कार</w>
खे लते</w>
दि नेश</w>
वि ज
आई ए
त ारों</w>
न हर</w>
प्रार ूप</w>
अध्या पक</w>
अन् त</w>
शर् मा
मि साल</w>
डा लें</w>
ंड ो</w>
मुख ्‍य</w>
एं टी
आ पा
युव राज</w>
सू खे</w>
ग ज</w>
य ु</w>
को ं
ऊ परी</w>
भू गोल</w>
पक ड़े</w>
रूप चन्द्र</w>
बर करार</w>
अ ट
न दियों</w>
c le
रि लायंस</w>
मुस्कु रा
पर वाह</w>
र ियों</w>
अ पार्टमेंट</w>
दि खे</w>
समू हों</w>
त ली</w>
बो ल
वा ज
घू मने</w>
/0 8</w>
ब ला</w>
डील क्स</w>
दू ँ</w>
ज हर</w>
सर त</w>
व् हा
ं तों</w>
ग़ ज़
स्वा र्थ</w>
च ॉ
मुस् कान</w>
हाला ँकि</w>
8 6</w>
इश ारा</w>
चल कर</w>
उपरो क्त</w>
कि म</w>
फा यर</w>
कू ट</w>
पत्रि काओं</w>
शे य
9 3</w>
प्ले ट
मार क</w>
अन शन</w>
बाहु बली</w>
टूर्ना मेंट</w>
दी क्षित</w>
ख न्ना</w>
बौ द्ध
परामर् श</w>
समा पन</w>
रो ने</w>
अखब ारों</w>
बुले टिन</w>
थ ल</w>
इ ये</w>
कै लाश</w>
शी ला</w>
लोकप्रिय ता</w>
मे कअप</w>
श्री राम</w>
रूप ों</w>
8 :
झ ी</w>
फ़ ु
ड्रे स</w>
आय कर</w>
आ भा
नती जा</w>
मा मूली</w>
स ँ
पी ना</w>
डे ंगू</w>
ग्लो बल</w>
क ली</w>
व्य य</w>
c o
समृ द्धि</w>
ढ ी</w>
फ ते
प्राथ मिकता</w>
निका ली</w>
टा न</w>
हस्त क्षेप</w>
द वा
पा वन</w>
ट्रे निंग</w>
से क्‍स</w>
नाग पुर</w>
उन्‍ हें</w>
दा ग</w>
म द</w>
आं शिक</w>
भगवा न्</w>
सिफार िश</w>
4 /
च ट्
टे शन</w>
थ ै
पर त</w>
अध्या त्म</w>
म ते</w>
बर् बाद</w>
अगला में</w>
201 6,
ना क्षी</w>
बना एँ</w>
सा या</w>
ध्व ज</w>
वि हार</w>
नि बंध</w>
कु श</w>
फ् फर
हल् के</w>
जागरू कता</w>
वि ं
टिप्प ण
पि एं</w>
महा सागर</w>
ओलं पिक</w>
व रा</w>
पार्ट ियों</w>
द्र ा</w>
वार दा
डायरे क्टर</w>
बच त</w>
8 8</w>
3 /
आ श्र
सि तार
अधि ग्रहण</w>
बन् ध</w>
पे रिस</w>
ब डे</w>
के क</w>
ह्र दय</w>
वी र्य</w>
रे ंट</w>
निर् दिष्ट</w>
सम कालीन</w>
सर कारों</w>
प्रा सं
हि तों</w>
ब गल</w>
7 :
मू ड</w>
२ १</w>
न ं</w>
ल् या</w>
दर् पण</w>
सं योग</w>
कि ले</w>
खे तों</w>
बा ह
सित ारे</w>
नव भारत</w>
स्व च्छ
कला म</w>
विश् वा
मि क्स</w>
ज र्स</w>
् स</w>
चे यर
निरा श</w>
एक् शन</w>
धी र</w>
बढ़ा या</w>
पा दन</w>
गु ल</w>
श्रे य</w>
वि कल्‍प</w>
छ े</w>
नि का</w>
वा ँ</w>
5 /
द म
व गै
जि कल</w>
पौ धों</w>
सो चना</w>
न म्बर</w>
12 34
२ २</w>
ची फ</w>
ए लि
चा ट</w>
क हो</w>
जी व
टिप्‍ स</w>
फिल्‍ म</w>
कृ तियों</w>
सं साधनों</w>
जा सू
शिय म</w>
अ सफल</w>
अब्दु ल</w>
ल ता
अफगा निस्तान</w>
समी प</w>
प्र दाय</w>
ड्राइ व</w>
पो रेशन</w>
राजनी ति
झा ं
सा भार</w>
श क्तियों</w>
यं कर</w>
गु ड़
प सन्
दे नी</w>
लै ण्ड</w>
चि त्रों</w>
परि वेश</w>
रा क्ष
उजा ला</w>
करा ते</w>
मान वा
आई डी</w>
चु अल</w>
से ले
ब्रह् म</w>
पि टाई</w>
ह रे
पा ट</w>
क्रिया ओं</w>
फ्यू चर</w>
मु म
घु स</w>
‍ दी</w>
ग द्य</w>
/0 1</w>
किशो री</w>
अन्तर ्राष्ट्रीय</w>
वि च
ज़ ों</w>
कु मार
फ लों</w>
8 9</w>
हिन्दु ओं</w>
दुष् कर्म</w>
सम स</w>
निः शुल्क</w>
त ंग</w>
जबर दस्त</w>
विभा गों</w>
मांस पेश
ससुरा ल</w>
ि णी</w>
कुं भ
श्रे णियां</w>
रह स्य
धि कारियों</w>
सा इंस</w>
१९ ८
दी वाली</w>
प ला
सि द्ध
आ क्रो
मैने जर</w>
अप लोड</w>
सिंगा पुर</w>
र त्
व्य र्थ</w>
ब से</w>
बुजुर् ग</w>
ट्र ें
न र्म
कंप नियां</w>
सा ड़ी</w>
ब र्ट</w>
शि ला
शि ष्य</w>
प्रया सों</w>
प्रभा त</w>
मंग ल
पहुँ चा</w>
भया नक</w>
ंग टन</w>
ग् न</w>
धू म</w>
२ ४</w>
श्री नगर</w>
चिकित्‍ सक</w>
ब त्ती</w>
व ला</w>
दू ंगा</w>
दा ल
कै ट
क पड़ा</w>
गड़ बड़</w>
ल ट</w>
बहर हाल</w>
व ारे</w>
कु र
इ ंग
यी शु</w>
संपा दकीय</w>
महो दय</w>
गु ड</w>
स वा</w>
सं ग्राम</w>
कह ेंगे</w>
पर्य टक</w>
मदद गार</w>
सो स</w>
मा तृ
नजदी क</w>
हिस् सों</w>
पॉ र्न</w>
मि थ</w>
विन म्र</w>
टी सी</w>
अन ्या
गा ड़</w>
बे टियों</w>
भ यंकर</w>
नी ला
वर् गों</w>
स स्ते</w>
साध क</w>
झ टके</w>
बाद शाह</w>
लो री</w>
फेफ ड़ों</w>
नरे श</w>
पहुँ चने</w>
उद ्यान</w>
श् वर्
सा हे
ज ख्
व ही
हॉ ल</w>
य हू
पुण ्य</w>
क बू
१९ ७
म कर
शा क</w>
जय ललिता</w>
ए की
प्र दीप</w>
राजस्था नी</w>
िया ना</w>
समृ द्ध</w>
वायर लेस</w>
उपा यों</w>
प्रेर क</w>
क मान</w>
स् मरण</w>
त या</w>
शैक्ष णिक</w>
अन्‍ य</w>
निर् देश
ढ ी
2 /
क मेंट</w>
जु ड़</w>
एसि ड</w>
सर साइज</w>
पंचा ंग
प्र देश
व क्ता</w>
कमी शन</w>
पढ़ िए</w>
चिन् ह</w>
ज नाओं</w>
रि क्त</w>
चतुर् वेदी</w>
बाथ रूम</w>
साध ु</w>
उदय पुर</w>
अव गत</w>
ख ल</w>
व ारा</w>
खि ल
फ्रा ं
अपना या</w>
को र्
१ ७</w>
भा इयों</w>
घो र</w>
बाँ ध</w>
स स्ता</w>
अम् मा</w>
मा व
भाष ित</w>
ना बालि
क्रि समस</w>
वि कल्प
अतिरि क्‍त</w>
क्र य</w>
चिट् ठी</w>
डॉ ट</w>
उ मर</w>
सम् भव</w>
फी ट</w>
रुप या</w>
पहुंचा ने</w>
खि ताब</w>
नौकर ियां</w>
लि यो</w>
स ले</w>
अ द्वितीय</w>
स्पी ड</w>
बिला सपुर</w>
अव काश</w>
ंगा र</w>
ं च
द शी</w>
रचना त्मक</w>
व संत</w>
ग्रं थों</w>
निर्दे शन</w>
/0 7</w>
कौ र</w>
स्थानां तरण</w>
किस को</w>
श ार
स्‍व स्‍थ</w>
प्र भु
कपड़ ों</w>
कु त्ता</w>
मत दाता</w>
दर् श
अत्या चार</w>
पू ँ
पहुँ च
र कार</w>
शौ चा
सुष मा</w>
ज ब्
पे य</w>
क लेट</w>
त्र ित</w>
रे स्ट</w>
/0 9</w>
आयुर्वे दिक</w>
घोटा ला</w>
ज़ माने</w>
4 4
ब्लॉ गिंग</w>
चय नित</w>
प्र सार
लौ ंग</w>
फ़ा इ
ठ ाई</w>
का न्
जोर दार</w>
मा द</w>
अप हरण</w>
आवं टन</w>
पर् दे</w>
कि ंग
के ं
3 :
चा ंद</w>
शा हिद</w>
कर ि
हर ि</w>
पे शा
दां तों</w>
बह ु</w>
डि प्रेशन</w>
१ ७
दू क</w>
रे सि
प्रवचन फोटो</w>
जब लपुर</w>
मु हा
क्रे ट</w>
वृ द्ध</w>
पक्ष ों</w>
बो तल</w>
बढ़ े</w>
a p
अं कल</w>
द् वा
व्यं जन</w>
अर्थ शास्त्र</w>
राशि फल
बीमार ियां</w>
स्प द</w>
चित्र ण</w>
भाग वत</w>
ब ँ
संशो धित</w>
अन जान</w>
उप ग्रह</w>
ती र्थ
मार कर</w>
दो हे</w>
रि जल्
हानि कारक</w>
स्पर् धा</w>
लाइफ स्टाइल</w>
प्र शांत</w>
8 3</w>
विशेषज्ञ ों</w>
किरा या</w>
योज क</w>
गा र्ड</w>
प तन</w>
झा ने</w>
ति लक</w>
प के</w>
आ फ</w>
पर् टी</w>
बु राई</w>
हज ारे</w>
ध माल
नि जात</w>
पंचांग प्रवचनफोटो</w>
डिक् शनरी</w>
कोय ला</w>
मान कर</w>
रश् मि</w>
प्रोत्सा हित</w>
व ्</w>
वन डे</w>
से क्
प्रे शर</w>
शुभकामना एँ</w>
मांग ने</w>
ती र</w>
य ेंगे</w>
कम ब
शास्त्र ीय</w>
राज ू</w>
पट ॉप</w>
न ना</w>
फि लि
की ं</w>
जवा ं</w>
मेच ्योर</w>
मनी ष</w>
पकड़ ने</w>
ज गी</w>
मिस् र</w>
इ ज
ते ज़</w>
फी चर</w>
रह े
ग ढ</w>
चल ें</w>
क् चर</w>
ढ े</w>
शि का</w>
ही ंग</w>
वर्ग ीय</w>
ष् टि</w>
अ सं
हे यर</w>
जासू सी</w>
वा म
कि याँ</w>
हा ली</w>
अंधे रे</w>
लग ीं</w>
स िय
चें ज</w>
भविष्य फल
क्रांति कारी</w>
गि नती</w>
भा वी</w>
ज मेंट</w>
श् ती</w>
ब ियन</w>
यो नि</w>
ar ti
ना ना</w>
स दों</w>
दु ख
दि लीप</w>
अमृत सर</w>
शा सित</w>
था न</w>
सेवा नि
जै व</w>
त ल
न फ
ब तौर</w>
वि श्रा
ब डा</w>
स्पोर् ट्स</w>
ब्ला क</w>
उंग ली</w>
मा त</w>
मु खिया</w>
जुर् माना</w>
पसन् द</w>
भर ता</w>
मन ु</w>
वर्ण ित</w>
दा श्त</w>
क़ ु
दि खे
व् र</w>
मो न</w>
ही र</w>
फॉ र्
ल्‍ ड</w>
पैके ज</w>
लाई न</w>
/0 5</w>
स मानता</w>
आ कलन</w>
ना न</w>
अ स्थ
ञ ्
अधी क्षक</w>
तु ल</w>
6 /
मे ष</w>
ू द</w>
पा यी</w>
न शा</w>
थे रेपी</w>
आं कड़ों</w>
सं दीप</w>
राज ़</w>
छ ेद</w>
मा मा</w>
ग ज़ल</w>
वसू ली</w>
त ना
नक् शे</w>
सा मं
ग रि
कार गर</w>
मा म</w>
ता ला</w>
सो साय
ब स्तर</w>
इं टर</w>
ए मेच्योर</w>
ँ गे</w>
मनोरं जन
दृ श्य
नक्स लियों</w>
शा सकीय</w>
उप रा
स् की
बी यर</w>
अनु पात</w>
सुल् तान</w>
ड् स
छेड़ छाड़</w>
फा उ
था ई</w>
मे दारी</w>
मा ंगा</w>
गवर् नर</w>
चढ़ ा</w>
चा हू
रें ज</w>
गुज राती</w>
छा ती</w>
अं डे</w>
दो ल
कं धे</w>
शुक् ला</w>
फो र्स</w>
बे शक</w>
प्रा न्त</w>
दस्ता वेज</w>
क्त ियां</w>
मान सून</w>
ू ँगा</w>
सी टें</w>
कार् बन</w>
एस डीएम</w>
बर् ग</w>
मह ेंद्र</w>
पौ रा
लक्ष् मण</w>
सी खा</w>
मु नि</w>
0 ,
सश क्त</w>
उन्‍ होंने</w>
स रा</w>
5 :
पॉ इंट</w>
गण राज्य</w>
टा इन</w>
बह नों</w>
अप नों</w>
सो नू</w>
बॉ य
प्रा धिकरण</w>
विका स
ले ंस</w>
सा क्षी</w>
कब् जे</w>
गति विधि</w>
10 .
म् ब</w>
जी भ</w>
राज ेन्द्र</w>
बार एल्बम</w>
है ल्‍थ</w>
साइ टों</w>
भविष्यफल आज</w>
जि स्म</w>
बढ़ त</w>
ती व्र</w>
घटना एं</w>
दिख ती</w>
साव धानी</w>
स्वा दिष्ट</w>
ता लि
प्रस्ता वित</w>
बने ंगे</w>
6 :
करा ए</w>
आ धार
क ंग
मजबू री</w>
लॉग इन</w>
मी टिंग</w>
ऐ श्वर्
१ ९</w>
ना ल</w>
वी रे
म िया
ओ न्‍
प्र चार
डॉक् टरों</w>
ँ सी</w>
क्ष ों</w>
आइ टम</w>
धी मी</w>
स ता
ली माई
ओन्‍ लीमाई
ओन्‍लीमाई हैल्‍थ</w>
ली क</w>
मी रा</w>
कर् षण</w>
विविध ता</w>
रि लीज़</w>
घृ णा</w>
ना च</w>
उच्च तम</w>
आश्चर् य
आ इ</w>
न्यू यॉर्क</w>
सम न्व
ब ची</w>
8 7</w>
क्र मा</w>
जा सूस</w>
नव रा
ख्वा ब</w>
तू फान</w>
मुबार क</w>
हथ िय
को ले
दाल चीनी</w>
घो ड़े</w>
साहे ब</w>
पी डी
— —</w>
पीड़ न</w>
ं के</w>
शिव राज</w>
ख निज</w>
बु आ</w>
क़ ी
क्‍ यो
मार्ग दर्शन</w>
पि स</w>
पुर्त गाली</w>
मह र्
बेड रूम</w>
क माने</w>
अंग े
ह ारा</w>
खा कर</w>
कॉ पी</w>
स्प ॉ
श र्ट</w>
शब् दा
दिखा यें</w>
वा त</w>
श ्यो
कृष् णा</w>
arti cle
हिन् द</w>
प्रविष् टि</w>
सू जन</w>
ज श्न</w>
च पेट</w>
किरा ए</w>
सि द्
नू र</w>
परियो जनाओं</w>
दे वे
क् वा
हिं द</w>
न्याय िक</w>
ता ज़ा
वी न</w>
ट्रे लर</w>
एस टी</w>
मुज फ्फर
मो टा</w>
दिव ्य</w>
इण् डिया</w>
बू ब्स</w>
तिथ ियाँ</w>
ल ्यू
जो न</w>
या स</w>
क्रा मक</w>
प्रश् नों</w>
पंजी कृत</w>
वर दान</w>
अनु दान</w>
तो ह
परि क्रमा</w>
क्रिके टर</w>
t h
इं स्टी
निरा शा</w>
खा द</w>
वा न
भ य
मा ध
ं दे
पक्ष ियों</w>
अभिय ंता</w>
पौरा णिक</w>
बो स</w>
अ टल</w>
छा प</w>
छु पा</w>
बद ली</w>
सोसाय टी</w>
ला भा
मि टाने</w>
स री
गैंग रेप</w>
शा ंति
सितार े
खीं च
कम जोरी</w>
तु ला
पल ट</w>
/0 3</w>
नी ं</w>
अति थियों</w>
जू स</w>
आ या
लौ टा</w>
पी ते</w>
छ ीन</w>
व रु
सी रिया</w>
/0 4</w>
दुर् ग</w>
त कालीन</w>
ह त
दया ल</w>
श ंस</w>
सा ने</w>
मि ठाई</w>
मे नू</w>
मि साइ
तथा कथित</w>
अन् तर</w>
चिट् ठा
ड्यू टी</w>
डी सी</w>
द ल
कि या
मर म्मत</w>
नती जे</w>
रं जन</w>
गा ते</w>
लै पटॉप</w>
ग ंदे</w>
न् ड</w>
ब्र ा</w>
उन् नति</w>
बो ट</w>
जा ज</w>
आ र्ट</w>
गा ल</w>
साउ थ</w>
का ले
दृ ढ़</w>
सै र</w>
आ ख़ि
यु द्ध
अंदा ज़</w>
मी ठी</w>
हॉ लीवुड</w>
o o
1234 56
अ प्रे
२ ३</w>
री ति</w>
जा पुर</w>
ए शियन</w>
कच्च े</w>
ख न</w>
न म
वा ल्
नाबालि ग</w>
सा ईं</w>
आप दा</w>
व स्था</w>
अज मेर</w>
वॉल पेपर</w>
पो शाक</w>
पी एफ</w>
च लन</w>
िया ँ
धी न</w>
आतंक वादियों</w>
बता ती</w>
वि भागीय</w>
२ ६</w>
स ारा
खुश बू</w>
वाज पेयी</w>
ज़ र
गि रि
पी ले</w>
रिय न</w>
कमब ख्त</w>
पत् य</w>
ष ि
चु नी</w>
ग ने</w>
दो हरा
बन ें</w>
हम लों</w>
चेयर मैन</w>
उपा धि</w>
फ्र ंट</w>
वि डियो
नफ रत</w>
ग री</w>
बो र्
वि का</w>
भावना एं</w>
नीं बू</w>
, 2011</w>
पश्चा त्</w>
अस हम
क्राइ म</w>
देख ेंगे</w>
त ट
उपलब् धि</w>
ला ह
मं थन</w>
दु निया
न ारा</w>
ऋ तु</w>
ना द</w>
एनबी टी</w>
एन र्जी</w>
फे स</w>
कर् क
आविष् कार</w>
ब संत</w>
बि स्
क्ष ु
था ई
ज्योतिष आर्थिक</w>
म ण्डली</w>
इं द्र
गाय त्री</w>
भारत दीप</w>
आ सन</w>
ईमान दार</w>
झार खण्ड</w>
समर्थ कों</w>
अग् नि
तारी ख़</w>
उपा सना</w>
राम पुर</w>
ख़ब रों</w>
अल्पसंख्य क</w>
निष् कर्ष</w>
अध ्‍य
ता ई</w>
चर् चा
चू सने</w>
मिल ो</w>
बी ए</w>
प्रय त्न</w>
प ं</w>
टू टी</w>
खा तिर</w>
नर्म दा</w>
मो र</w>
बां ध
ब वाल</w>
ब्राउ ज़र</w>
सा ली</w>
आ लम</w>
एक् ट</w>
लगा ये</w>
ला ंच</w>
ला द</w>
सि रे</w>
ऊँ चा</w>
सा म्
बा ते</w>
ह ारे</w>
अमेरि कन</w>
डब्ल ्यू
नज र
वि ंडो
उद्ध रण</w>
रो ह</w>
, 2010</w>
पे ड़ों</w>
वा लो</w>
ह ड्ड
ध क्का</w>
कि ला</w>
स्व राज</w>
दर्शा ता</w>
अ जन
च ह
अर् जित</w>
राज पूत</w>
बो लना</w>
बा स</w>
अटै क</w>
और तों</w>
ई स्ट</w>
इम रान</w>
सन् त</w>
व सा</w>
वि य
a l
12 .
कु ल्
व ीय</w>
१९ ६
बता एं
आरो पों</w>
बि ट</w>
ु ति</w>
वि ख्यात</w>
उड़ ी
उ ड़ा</w>
सूर् य
टे लि
मे ष
महा द्वीप</w>
निक लता</w>
पी एस</w>
उर् फ</w>
हे ड
व्यापार ियों</w>
इं डोने
हर कत</w>
सह न</w>
स्टी ल</w>
जागरू क</w>
स् कै
अक्ष रों</w>
दार् श
ऊं ची</w>
पू नम</w>
लो हे</w>
छ ंद</w>
बाज ारों</w>
जा ति
स ्</w>
वं श
बा जों</w>
न ारे</w>
गे म्स</w>
वि देशों</w>
का मों</w>
न र्स</w>
डि श</w>
स् पर</w>
वि धि
सौं पा</w>
मा स्ट
पी स</w>
विभा जित</w>
चौ थी</w>
लक्ष णों</w>
सत्या पित</w>
सु खी</w>
बौद्ध िक</w>
.... ..
मे शन</w>
जि ं
भेद भाव</w>
स दर</w>
सें ट्रल</w>
ज्ञा नी</w>
बदमा शों</w>
अं तरा
र म
दिखा ते</w>
कामया बी</w>
नी म</w>
उ छा
फे र</w>
लौ टने</w>
प तियों</w>
आ ला</w>
महा देव</w>
परि भाषित</w>
2 20</w>
ऐ क्
रो मन</w>
प्रे षित</w>
धु न</w>
ज ड़
सु कू
सक ्राइ
ह ड्डी</w>
प्ला ंट</w>
ह त्य
द य
जी बी</w>
जंग ली</w>
विकल्प ों</w>
क तों</w>
ला ओं</w>
10 8</w>
एक् ट्रेस</w>
पं प</w>
प्रो फाइल</w>
आखि रकार</w>
ओ ह</w>
साम यिक</w>
मा ंगे</w>
भाषा एँ</w>
प दा</w>
जी लैंड</w>
201 2
यू पीए</w>
मु गल</w>
इं स्टि
रे श
स जा
झू ठा</w>
वगै रह</w>
प्र सन्
अप्रे ल</w>
ला पता</w>
उठा ना</w>
दहे ज</w>
कौन सा</w>
औष ध
साँ स</w>
ट करा
बद नाम</w>
बै न</w>
पे य
स तर्क</w>
सां सदों</w>
त्व रित</w>
ग् ध</w>
जी वों</w>
बु ंदे
ड िक</w>
खरी दें</w>
वी क</w>
भा वा
खिलौ ने</w>
प्रसार ित</w>
ह ब</w>
मा फ</w>
आ याम</w>
बल ि</w>
ब्रे क</w>
उठ ने</w>
ग ज़
पन् नों</w>
ग लियों</w>
त् तरी</w>
सं योजन</w>
अ य
वृष भ
जग दी
कार् ड्स
मस् ती
कर न</w>
बे रोजग
मि थुन
यूनि ट</w>
फि क्स</w>
मज दूरी</w>
मै चों</w>
खा ं</w>
मा ंड</w>
अधू री</w>
व त्
अ शुभ</w>
कार्ड्स अंक</w>
वृश् चि
ज म</w>
पह ले
उठा ते</w>
ठ हरा
आ फि
न ं
वां छ
मुश् कि
खु जली</w>
नु मा</w>
व तन</w>
टी ज़</w>
चैं पिय
निक लते</w>
शू ट</w>
सूच ना
खा न
गु न</w>
फ् लो
ब हिष्
पं ख</w>
न काल</w>
य ार
है रत
सी म</w>
संगठ ित</w>
परि स्थिति</w>
द्व ं
अनुर क्षण</w>
डी ओ</w>
तु ओं</w>
अ मल</w>
सा कार</w>
प्री त</w>
लॉ स</w>
प्रदर् शनी</w>
म ग
अप रि
लिया ई</w>
लगा व</w>
बह ती</w>
ना ई
ट ित</w>
, 2012</w>
बी सीसी
/0 2</w>
कमी न
परिणा म
अर् चना</w>
p o
अ सि
बता एँ</w>
म लिक</w>
लेख नी</w>
सौं प</w>
जाए ंगी</w>
उप देश</w>
का मुक</w>
स्त ो
होट लें</w>
हैं ड
फ ट</w>
वि चित्र</w>
मल् टी
ना काम</w>
बता ये</w>
रैं किंग</w>
शो भा</w>
चीज़ ों</w>
धु री</w>
आउट डोर</w>
स्प ति
हल् की</w>
वे ग</w>
इन् द्र
सितारे टैरो</w>
आर् मी</w>
ण् ‍
खि ल</w>
पाँ व</w>
१ ०
प् पू</w>
रिजल् ट</w>
उत् सु
मुह ब्बत</w>
आई ं</w>
राशिफल मेष
सिंह धनु
राशिफलमेष सिंहधनु
राशिफलमेषसिंहधनु वृषभ
कन्या मकर
राशिफलमेषसिंहधनुवृषभ कन्यामकर
राशिफलमेषसिंहधनुवृषभकन्यामकर मिथुन
राशिफलमेषसिंहधनुवृषभकन्यामकरमिथुन तुला
पै रा
कुंभ कर्क
राशिफलमेषसिंहधनुवृषभकन्यामकरमिथुनतुला कुंभकर्क
मध ु</w>
बाह ्य</w>
सम्बन् धी</w>
वृश्चि कमीन
राशिफलमेषसिंहधनुवृषभकन्यामकरमिथुनतुलाकुंभकर्क वृश्चिकमीन
राशिफलमेषसिंहधनुवृषभकन्यामकरमिथुनतुलाकुंभकर्कवृश्चिकमीन बोलें</w>
ऩ े</w>
वाणि ज्य
तें दु
8 /
ज म
वि रू
आ कां
विश्रा म</w>
व्याव हारिक</w>
अनु वादक</w>
ट्रे नों</w>
नि रोधक</w>
गार् डन</w>
सब् सक्राइ
बर म</w>
अभि भाव
तकली फ</w>
लड़ ा
ब जाए</w>
2. 7
दार्श निक</w>
जिन को</w>
ण े</w>
ए ग्
श क्
बा ली</w>
d i
ध रो
विवा दित</w>
बा बू
फल स्वरूप</w>
सु पी
चम त्कार</w>
आदि त्य</w>
प्र वासी</w>
व्यव स्थित</w>
वर् तन</w>
रा शन</w>
ब्रह् मा</w>
नाश् ते</w>
आह् वान</w>
ब्र ो
आ शा
संवेद ना</w>
फं से</w>
क दार</w>
य श</w>
इंग् लिश</w>
प ारा</w>
स् क
अ ख्
मा ओं</w>
सा बु
बी काने
१९ ४
अनु बंध</w>
लह सुन</w>
त नों</w>
स्कू ली</w>
फ़ो टो</w>
ध ै
मै थि
पड़ ेगी</w>
हाद सा</w>
मुरा दाबाद</w>
ले नी</w>
सहे जें</w>
रिले शन
बॉ लिवुड</w>
कश्मी री</w>
चंद्र मा</w>
र नों</w>
पोर् न</w>
सुपी रियर</w>
हार् ड
रू पी</w>
डा लते</w>
साहि ब</w>
ना गर</w>
डि लीट</w>
ठ ी
कार्य शाला</w>
7 /
राज नेता</w>
सो नम</w>
नाइ ट</w>
शौचा लय</w>
पह ल
१ ५
चम त्
व्या करण</w>
शाह रूख</w>
फो र्ड</w>
त्‍ व</w>
डिप् लो
ग् ने
क्यो कि</w>
e r
छु ड़ा
मु न्
बे बी</w>
ग ना</w>
3 3
दिखा ए</w>
अरवि न्द</w>
समझा या</w>
शा का
करू ंगा</w>
चौ की</w>
इ ले
ग जल</w>
स्टू डियो</w>
00 :
प नीर</w>
राज मार्ग</w>
जै विक</w>
बो लो</w>
अनु प्रयोग</w>
वि नाश</w>
कार ी
मुसी बत</w>
टा ंगों</w>
त ारा
ओ डि
बा दाम</w>
कांग्रे सी</w>
वै वाहिक</w>
का एँ</w>
हॉ स्पि
मार् के
पि न</w>
सा मु
ब या
डे वल
शॉ ट</w>
पु ट</w>
अंत तः</w>
खे ले</w>
क् यो</w>
ट् टा</w>
समझा ने</w>
फिल् टर</w>
हिं सक</w>
शुभार ंभ</w>
बच्च ो</w>
तारी ख़
सब कुछ</w>
अवि नाश</w>
वि द</w>
पै सों</w>
त ब्
राह ु</w>
मा थे</w>
निका ले</w>
न यन</w>
जा ट</w>
ड िया
महर् षि</w>
फो रम</w>
संचा लक</w>
यू नाइटेड</w>
विशेषा ंक</w>
२ ८</w>
ख़ा न</w>
अप ि
रिश् ‍
नी तियां</w>
जब् त</w>
उज् जैन</w>
मृ तक</w>
उप यो
बै ंग
र खा
पा चन</w>
उद ार
ष्ट मी</w>
पत् तियों</w>
नो बेल</w>
दु रु
शिल् प</w>
बू ँ
इन् टर
यू टी</w>
मि ली
ट्रै फिक</w>
लि नी</w>
ष ो
बा लिका</w>
ए थ
बू त</w>
फ न</w>
मजबू ती</w>
वि नि
ण ो
न मेंट</w>
ल् डर</w>
मो टर
पर स्पर</w>
मुठ भेड़</w>
क टो
क़ ि
फ़िल् मों</w>
तह री
मं दी</w>
व्यव स्था
ारो पण</w>
आ ज्ञा</w>
हैरत अंगे
कल क
खामो श</w>
आत्म कथा</w>
ढे रों</w>
ई मान</w>
सि म</w>
आँ सू</w>
दी ं</w>
अत्य न्त</w>
ब सा</w>
अ दर
लघु कथा</w>
वही ँ</w>
सुविधा जनक</w>
हम ला
4 :
ख िक</w>
हा थ
स् ड</w>
वा हि
लाल च</w>
ख ारी</w>
पोर् टल</w>
पे स्ट</w>
इंस्टि ट्यूट</w>
सिद्धा र्थ</w>
चिं तित</w>
मा ँग</w>
मे ज
च िक</w>
र क्
ब्लॉ ग्
ढूँ ढ
नी ति
गा था</w>
एक ड़</w>
व्‍य व
जोड़ ें
बी र
तथ ्यों</w>
प्रमो द</w>
वि तरित</w>
बीएस ई</w>
स्ट्री ट</w>
अनु या
क्ष ति</w>
201 1
र वै
अल र्ट</w>
ंग ो</w>
स ऊ
बा ला
औष धि</w>
अनुप म</w>
प्रमाण पत्र</w>
मांसपेश ियों</w>
प्र बल</w>
बीकाने र</w>
हटा एं</w>
म ता
अह ंकार</w>
न न्द</w>
प्रमाण ित</w>
के दार
शब् ‍
गा जिया
मान ें</w>
काउं टर</w>
बा ड़ी</w>
बिल् डिंग</w>
नि फ्टी</w>
ही म</w>
लौ टे</w>
बु क
दी वारों</w>
शि ंगटन</w>
वि जय
उपभो क्ताओं</w>
य ेगा</w>
भा ँ
ह वीं</w>
भ ्रा
हाइ ट</w>
व ज़न</w>
की र</w>
क क्षाएं</w>
सि ध्
आँ गन</w>
त् त
टिप्प णियों</w>
जस् टिस</w>
3 18
लिख ता</w>
सत् ता
अन् त
ङ ्
सं बद्ध</w>
इन र</w>
ल जी</w>
ल् ले</w>
लू स</w>
सां प</w>
ज िय
इंड स्ट्री</w>
ना खून</w>
बन र्जी</w>
प्र को
सि ंगल</w>
बद लें</w>
राज्‍ य</w>
एक् सेस</w>
पा ंड
त्रि म</w>
199 0</w>
इकट् ठा</w>
चुट कु
ला ज</w>
आज़ा द</w>
199 9</w>
2015 ,
वा स्‍त
बा कू</w>
निका य</w>
आलो च
सब्सक्राइ ब</w>
सी क्रेट</w>
२ ७</w>
स्वच्छ ता</w>
सम् पत्ति</w>
स्टे ंट</w>
वे दों</w>
विधाय कों</w>
फू ट</w>
अनुष् का</w>
क्षेत्र फल</w>
कृष् ण
ग्र ो
रंग ीन</w>
आ दर</w>
मौ र्य</w>
आ लिया</w>
पु ं
वा सना</w>
सह कारी</w>
धनु ष</w>
ण् ट</w>
एंड ्र
ट मेंट</w>
आदि त्य
1 20</w>
से लि
कै लोरी</w>
भू लें</w>
खुश ियों</w>
से के
लोक तांत्रिक</w>
फाय रिंग</w>
क टि
स्वी कृत</w>
अके ली</w>
वाणिज्य िक</w>
ग् लै
अली गढ़</w>
वोल् टेज</w>
किरा ये</w>
डि ज़ा
प ठ
लि यत</w>
दा ने</w>
उठ कर</w>
अंग ु
न ंगा</w>
भ्र ू
त् मकता</w>
अंग ों</w>
दो हरा</w>
गी र</w>
अर् पित</w>
द शकों</w>
फ त</w>
शेय रों</w>
रो ते</w>
गि रोह</w>
वा पिस</w>
समझ ें</w>
उपा ध्याय</w>
सं धि</w>
दो ष
बढ़ो तरी</w>
जन न</w>
वरु ण</w>
मि थ
ख ल
झा ंसी</w>
म पुर</w>
चै म्प
संगीत कार</w>
हाइ कु</w>
का य</w>
एं टी</w>
जा ग</w>
मान ती</w>
अपि तु</w>
बी ती</w>
आए ंगी</w>
यु क्‍त</w>
कॉमेंटे ड
अनु सूची</w>
मत भेद</w>
स् पै
कारो बारी</w>
शास् त्रों</w>
श म
मैने जमेंट</w>
ईमे ल्ड
बहा ना</w>
दा नों</w>
वर् स</w>
मह े
गि नी</w>
ज ्यों</w>
आदि वासियों</w>
ने ताजी</w>
गि लास</w>
लॅ ंड</w>
झ ी
मेह ता</w>
दु बे</w>
समा चार
न्व यन</w>
गं तु
गड करी</w>
घट क</w>
तुल सी
चि त्त</w>
बल्ले बाज</w>
जोड़ें अधिक</w>
घा य
दे य</w>
05 :
जन् मे</w>
ब क्
मसा ले</w>
ब र्ड</w>
वा य</w>
सहा य</w>
रिकॉ र्
पं थ</w>
एजें ट</w>
पंचा ंग</w>
h o
१ ६
स ज़ा</w>
इ माम</w>
क् ले
आ ह</w>
अन्या य</w>
डेवि ड</w>
ण ्य</w>
ह ्यू
ज़ि म्
व्या पी</w>
र चा</w>
आ म
पट री</w>
बे री</w>
प्रतिनि धियों</w>
न दि
अ संभव</w>
पि घ
त ृ</w>
ऊँ गा</w>
हँ सी</w>
दा ना</w>
ड र्स</w>
गाजिया बाद</w>
र व</w>
नै तिकता</w>
भी त</w>
त म्
ला व
च ंद
एं ट्री</w>
सराह ना</w>
ड़ ना</w>
अ हिंसा</w>
टो ल</w>
पेय जल</w>
डि वाइस</w>
न ु</w>
शा खा
सऊ दी</w>
ओ वर
फो ड़</w>
मुम किन</w>
भर कर</w>
एक त्र</w>
बा घ</w>
च लिए</w>
मो क्ष</w>
द स्
ू र</w>
चा ंद
चि ड़िया</w>
रिलेशन शिप</w>
फ्रें स</w>
उम् दा</w>
दु बारा</w>
क्‍यो ंकि</w>
श् वरी</w>
ज़ त</w>
भाग ने</w>
टु कड़ा</w>
9 ,
आत्म विश्वास</w>
जा ल
प्रका शक</w>
रक्त चाप</w>
फिक् सिंग</w>
अदर क</w>
नीं व</w>
को ना</w>
टू टे</w>
इलेक्ट्रॉ निक</w>
बर् लिन</w>
च न्द</w>
पर्य टकों</w>
ि म</w>
क्र ॉ
इं सा
सि डी</w>
प प्पू</w>
घट ित</w>
पत ली</w>
मी ठे</w>
आज मा
अग्र णी</w>
धर् मों</w>
ने पाली</w>
ख़ री
चला ते</w>
पुलि सक
मि टा
आ स्ट्रे
प सीना</w>
क़ त</w>
ज स
का ँग</w>
मि ं
आर क्षित</w>
ग ंदगी</w>
स्ट न</w>
हम ी
एजें स
हा ँग</w>
सर् प</w>
लिहा ज</w>
खबरें कॉमेंटेड
गु ट</w>
खबरेंकॉमेंटेड खबरें
खबरेंकॉमेंटेडखबरें ईमेल्ड
पुष् प</w>
कल र</w>
मनुष ्यों</w>
ते ल
न ह
प्रासं गिक</w>
बेव कू
पां व</w>
ताज़ा खबरेंसुपरहिट
आ पूर्
टि ंग्स</w>
बै टरी</w>
खबरेंकॉमेंटेडखबरेंईमेल्ड खबरेंसुपरहिट
रिश् वत</w>
पा ॅ
ओ शो</w>
खुश ियां</w>
स् मारक</w>
प्‍ यार</w>
एक् टर</w>
पत् ‍
शृ ंखला</w>
ट्र स्ट</w>
बेंग लु
ताज़ाखबरेंसुपरहिट खबरेंकॉमेंटेडखबरेंईमेल्डखबरेंसुपरहिट
कथा ओं</w>
नव जात</w>
लम् बा</w>
मे गा
बर सों</w>
सै म
ग ित</w>
ख रा</w>
लगा म</w>
ज ियम</w>
क्यू ंकि</w>
कर् ण</w>
नु क्
सिक् के</w>
मि त्र
न् ति
बे सिक</w>
प ती</w>
बो लती</w>
विश्वस नीयता</w>
पा र्ट</w>
अनु शं
198 0</w>
वि ज्ञ
जिज्ञा सा</w>
मही नो</w>
ला जवाब</w>
आई पी</w>
न्यू जीलैंड</w>
कलक त्ता</w>
ल् टी</w>
गै र
ला पन</w>
मन् त्र</w>
कस् बे</w>
बने गी</w>
क ब
वारदा त</w>
इजा जत</w>
सं भाल</w>
रिया ई</w>
विद ्य
गै ल
हा सन</w>
लक्ष् मी
के त</w>
भे ज
म दन</w>
ग या
द रि
शॉ प</w>
उ ल</w>
प्र गतिशील</w>
पदा धिकारी</w>
परम्प रा
आ राम
सां प्रदायिक</w>
गि ल</w>
घा व</w>
मानवा धिकार</w>
दिग् विजय</w>
कह ूँ</w>
19 47</w>
गो र</w>
जता या</w>
क्रमा ंक</w>
सना तन</w>
नि भाई</w>
छु पे</w>
प् लेट</w>
प्रविष् टियां</w>
ज लन</w>
चा र्ट</w>
हू ँ
सुकू न</w>
चा ल
नि गा
अनो खा</w>
हों ठ</w>
गण ि
प्रधा ना
क् या
शिवा जी</w>
प्रतिक्रिया एँ</w>
अप ू
निम् ‍न</w>
स्ट्र ॉ
कै ल्
तर ों</w>
मि ठा
मि थुन</w>
बहिष् कार</w>
्र ्
क लि
आ एं</w>
गै ंग</w>
्रा स</w>
निरपे क्ष</w>
स स्ती</w>
पड़ो स</w>
आवश्यक ताओं</w>
उ तने</w>
तर क्की</w>
ंडे शन</w>
करी बन</w>
्र ि
फ ंस</w>
क दर</w>
प्रेर णा
डिप्लो मा</w>
बलि दान</w>
बे न</w>
व्य ों</w>
आ गंतु
ला इंस</w>
2013 व्यूस</w>
गुड़ गांव</w>
प्रति रोध</w>
इन् सान</w>
दर् भ
स्‍ य</w>
सम ा</w>
ड्ड ू</w>
पी सी
अप ्
ार त</w>
ब्यू टी</w>
सू ची
ड ं
0 ,000</w>
ज प</w>
ति माही</w>
ज् जा</w>
का स्ट</w>
प ति
वा ल
e e
ला ला</w>
गे शन</w>
स्पति वार</w>
त को
लु प्त</w>
मौजू दगी</w>
स्पे स</w>
फा स्ट</w>
इरा दा</w>
देंहटाएं टिप्पणी</w>
ष् म</w>
ह सन</w>
सुन ना</w>
फ़ ार
तु ला</w>
सर ण</w>
पु कार</w>
दर् ज़</w>
नव गीत</w>
प टल</w>
स और</w>
जना ब</w>
चा ण
अन ूप</w>
गि रा
हिन् ‍दी</w>
नि लंबित</w>
आ टा</w>
प्र द</w>
के तु</w>
ंग ो
वा ड़ी</w>
ता ना
भ ती
न्‍ न</w>
मणि पुर</w>
पी टा</w>
प्रमो शन</w>
सौ भाग्य</w>
खरी दा</w>
है प्पी</w>
चर् या</w>
चॉ कलेट</w>
राज न</w>
बद लती</w>
त्‍ य</w>
निर्देश ित</w>
इंत जाम</w>
ि तों</w>
स्था ई</w>
अनु शासन</w>
अ हि
थाई लैंड</w>
पुरू षों</w>
रो ना</w>
हथिय ारों</w>
प्ले यर</w>
एम एससी</w>
नि को
म यी</w>
अव लोकन</w>
अं ड
ग्यार ह</w>
मार् क्स</w>
वे ल्
गि रे</w>
लिं क्स</w>
सप् लाई</w>
च ारा</w>
काम काज</w>
वाता नु
सर पंच</w>
आई एस</w>
दा वे</w>
उपे क्षा</w>
उप श्रेणियाँ</w>
२०१ १</w>
निका लकर</w>
ब् लू
कृ त्रिम</w>
ना ग</w>
भ ि</w>
ल नी</w>
मिसाइ ल</w>
पहुंच कर</w>
तू ने</w>
मूर् ख</w>
इ या</w>
ड़ ियां</w>
आपूर् ति
ईं धन</w>
कि र</w>
२०१ ०</w>
मु द्रा
वि फल</w>
प्रि या</w>
मे घ
केंद्र ों</w>
इंडोने शिया</w>
वा टर</w>
���������������������������������������������������������������� ����������������������������������������������������������������
शु गर</w>
ं त
बे र</w>
लू ँ</w>
वे टर</w>
ह र्ष</w>
स्‍टा इल</w>
म च्छ
भो र</w>
मन् ना</w>
खू बी</w>
का ंक</w>
मह ा</w>
गो लिक</w>
करू ं</w>
एन डी
ap p
द पुर</w>
ता कत
से व
सीमा ओं</w>
विशेष ताएं</w>
ट ह
स् मो
लु ध
हा ना</w>
तारीख़ ें</w>
नक दी</w>
उ तरे</w>
सुधार ने</w>
ब तला
शही दों</w>
ंद ों</w>
दि ला</w>
अपरा धियों</w>
जरू र
हो गे</w>
ण ि</w>
वि पक्षी</w>
कॉ मे
व ल्
द मन</w>
इ र
ब चना</w>
सं यंत्र</w>
जा ई</w>
बे चैन</w>
अ गु
ध रा
ला एं</w>
िय ता</w>
बा ईं</w>
स वे
पृष् ‍
लि ब</w>
आरा धना</w>
टे म्प
जवा हर</w>
मौ खिक</w>
जे म्स</w>
वा इंट</w>
सं हार</w>
ड़ कर</w>
श त्रु
कि शन</w>
सॉ फ्ट</w>
आक्रो श</w>
सं यम</w>
वि राम</w>
भ द्र</w>
अ लं
अफ्री की</w>
स् टी</w>
हा जि
आ नु
ख़ राब</w>
हि ला</w>
रा ख</w>
छा या
भाष ी</w>
मले रिया</w>
बो लता</w>
ता ना</w>
गु द
व ंद
सिद्धा ंतों</w>
मु ट्
ओ म
ध नी</w>
पी पल</w>
पू ज्य</w>
प्रयोग शाला</w>
ले शन</w>
6 6
दुर् भाग्य</w>
तर ल</w>
श् व
दा यों</w>
रो ज़
ौ ली</w>
ए पि
मिश्र ित</w>
सा थ
डाय ट</w>
प ठा
हो ठों</w>
ट ार
जी ल</w>
ले खि
नि क्स</w>
यू के</w>
रू ट</w>
11 .
चु नते</w>
पुरा लेख</w>
आदित्य नाथ</w>
5 5
कर् मों</w>
क्ष ति
अंग्रे ज</w>
घे रे</w>
से मी
से फ</w>
कर् स</w>
आर पी</w>
जु टे</w>
मार् टम</w>
कर ण
आफि स</w>
ख त</w>
ल ट
इच्छ ुक</w>
सिया सत</w>
नि विदा</w>
ई रानी</w>
दि ल्
मले शिया</w>
दी ल</w>
भर ते</w>
सब् सिडी</w>
चु प्पी</w>
9 9
टा बेस</w>
कुं जी</w>
मत दाताओं</w>
ज मी</w>
सूच कांक</w>
आय ेगा</w>
निवे शकों</w>
स रे
टी करण</w>
डाइ ट</w>
ए ड्स</w>
पहुँ चे</w>
ग ड्
बो ल्ड</w>
दिग् गज</w>
जी ती</w>
का टना</w>
सर सों</w>
वै चारिक</w>
फ़ी ड</w>
जी त
दू ं</w>
प ंद्र
अन जाने</w>
मंजू र</w>
रा ं</w>
महत् त्व</w>
पो षक</w>
टी का</w>
लै श</w>
भौ गोलिक</w>
आज म</w>
निर् देशों</w>
दु बई</w>
म जे</w>
की मती</w>
ब्‍ यूटी</w>
2010 व्यूस</w>
भव तः</w>
स्ट्रे शन</w>
ग वाह</w>
मूल ्य
इज् जत</w>
सं विदा</w>
फै शन
12 वीं</w>
जंग लों</w>
वातानु कू
स् किन</w>
स ड
भ्रू ण</w>
व्या प्त</w>
क ड
ख ता</w>
रोमां चक</w>
परिणाम स्वरूप</w>
8 ,
खा ती</w>
बृह स्पतिवार</w>
सं ता</w>
गर् स</w>
ज ज्
दिख ते</w>
ड्यू ल</w>
पार् ष
टी बी</w>
वृ ति</w>
स् त्रा
फि र
लियो न</w>
पी एच
धरो हर</w>
वि लय</w>
आ चार</w>
मह ंगी</w>
प्र जाति</w>
परि दृश्य</w>
ग्र ि
/0 1/
स्थ ी</w>
ग़ लत</w>
सा न
उत् पीड़न</w>
i st
मि टा</w>
पड़ ा
घु टने</w>
झ ं
छा ई</w>
बाद लों</w>
फि ल</w>
घ ने</w>
अति क्रमण</w>
सि ल्
रॉ क</w>
स्त न
क श्य
गौ री</w>
भविष्य वाणी</w>
बद लना</w>
परि जन</w>
उर् जा</w>
स् पा
ष्‍ ट</w>
छो र</w>
ता लों</w>
199 8</w>
सर्वा धिकार</w>
प्रता प
नि त्य</w>
रिपोर् टर</w>
फरी दाबाद</w>
तहरी र</w>
सामान्य तः</w>
स्ट्र ि
ल् हे</w>
विवेकान ंद</w>
सत त</w>
खो ले</w>
स्था पन</w>
सिद्धा न्त</w>
ने ंस</w>
ह् ह्
ड़ ी
लो हा</w>
व सु
स् तिक</w>
महारा जा</w>
भौ तिकी</w>
कुत् तों</w>
ला ठी</w>
ल् म</w>
दब ंग</w>
मॉ र्
ख ्य</w>
प्र ै
पु रे</w>
अपना ने</w>
से हत
अ स्थायी</w>
हॉस्पि टल</w>
ना थ
चौ था</w>
प्री ति</w>
वी जा</w>
मै प</w>
प्रीम ियम</w>
ल् ला
म त्
र् ग</w>
ने वि
कैं प</w>
सु ने</w>
अभि गमन</w>
उठ ते</w>
यु नाइटेड</w>
घटना क्रम</w>
वा ए</w>
निरी क्षक</w>
प्रयो गों</w>
फै ली</w>
ताकत वर</w>
डा ई</w>
के ल</w>
केदार नाथ</w>
ल का</w>
1 10
दस् तक</w>
बदमा श</w>
पर म
बढ़ा एं</w>
डा ं
विद्य मान</w>
फते ह
का लोनी</w>
दुकान ें</w>
ठ ्
क्रिया एँ</w>
प् लीज</w>
निक लती</w>
जी वंत</w>
ता ज
धै र्य</w>
झ ट</w>
चो रों</w>
ए जु
करो ड़
वर् क</w>
सो वि
ध ू</w>
16 0</w>
मे क</w>
खा तों</w>
खु राक</w>
देश भक्ति</w>
पार् वती</w>
प टा</w>
खो या</w>
शा ल</w>
जा ँ
वै ष्ण
ब नीं</w>
ख ं
जी र</w>
उदा सी</w>
सिलसि ले</w>
हा ँ
न्य ौ
व ध</w>
सि क
18 57</w>
फ़ र</w>
ग ढ़ी</w>
चे न</w>
अच्‍ छी</w>
इ क्
धि या</w>
विशेष कर</w>
कट् टर
ग ज
सू ट</w>
से ठ</w>
डि टी</w>
भूत पूर्व</w>
इन् त
मि कों</w>
पास पोर्ट</w>
टू टा</w>
आश्चर्य जनक</w>
न्‍ य</w>
क़ ा</w>
स्टे ट्स</w>
दबा ने</w>
स्पॉ ट</w>
r a
ऑ ल</w>
​ ​
का ल्
उ धार</w>
परि कल्पना</w>
र क्षा
स रि
औप चारिक</w>
किस् से</w>
नवा ज</w>
मै डम</w>
वन स्पति</w>
फे यर</w>
चाली स</w>
क द्
उड़ी सा</w>
ब ज</w>
चौरा हे</w>
मनो विज्ञान</w>
वे ंट</w>
री ब</w>
आ ं</w>
विरू द्ध</w>
कर् क</w>
नक् शा</w>
छा पने</w>
फस लों</w>
को टि</w>
र र</w>
नमा ज़</w>
अव ॉ
मर् यादा</w>
घटना एँ
खि ए</w>
य हो
कु मा
नि चले</w>
कॉ ले
एफ आई
चिकित् सा
राष्ट्री य
म ज़े</w>
पोस्ट मार्टम</w>
क्सि को</w>
सि खाया</w>
भ रत</w>
नि भा</w>
3 24
ओडि शा</w>
वा कर</w>
6 व्यूस</w>
रौ शनी</w>
दि लों</w>
रिय ो</w>
ह ता
प्र सव</w>
सौ न्
कु ट</w>
भाव ुक</w>
ला ओ</w>
मार्के टिंग</w>
ठ ंडी</w>
ग़ म</w>
टू टने</w>
रज त</w>
विष ा
चाण क्य</w>
जवा ब
फे क्ट</w>
ब ु</w>
के मि
राम लीला</w>
खरी दी</w>
वि क्रे
ह टके</w>
बरा बरी</w>
जा निये</w>
कु ँ
न्‍ द्र</w>
स ्रा
गि फ्ट</w>
रॉ य</w>
प्रा ची
पं क्तियाँ</w>
हॉ स्टल</w>
ऑ यल</w>
सज् जन</w>
प्रया ग</w>
पे ड</w>
याद गार</w>
ंद्र ा</w>
ब ्य
पत् तों</w>
पा एगा</w>
दू ल्हा</w>
न मी</w>
री न</w>
नी ज</w>
झ ड़</w>
खु लकर</w>
लाह ौर</w>
अपे क्षा
उठ ती</w>
सैम संग</w>
स्ट ै
318 भाषा</w>
अनुभ वों</w>
मै सेज</w>
सू त्र
आ शु
ग ़</w>
ब सूरत</w>
कथा एँ</w>
योजना एं</w>
फाउ ंडेशन</w>
डे ़</w>
खरी दारी</w>
द खल</w>
एका दशी</w>
हिंदु ओं</w>
नी ला</w>
उ स्ता
के बल</w>
पी एल</w>
हे ड</w>
शु ई</w>
च्छ ा</w>
ग म
, 2009</w>
परिवर्तन हाल</w>
घटनाएँ समाज</w>
मु ल्क</w>
विवा हित</w>
ब् ब
08 :
वे रि
द स्ती</w>
रिश्ते दार</w>
उतर ने</w>
जिला ध्यक्ष</w>
विवा दों</w>
कैट रीना</w>
क़ े</w>
बढ़ ना</w>
सुन् दर
पंच वर्षीय</w>
काय दा</w>
र तन</w>
लु टे
समा धि</w>
शी ट</w>
कश्य प</w>
स्थ गित</w>
क्रा न्ति</w>
सर्वो त्तम</w>
स्ट्रे ट</w>
नौ कर</w>
णि का</w>
न ंद
कह र</w>
क्ला सिक</w>
भाग लपुर</w>
समू वी</w>
नि तिन</w>
पर् स
जगदी श</w>
वि ला
ड्र ी</w>
दा ँ
जि ़
सं योजक</w>
परह े
यू जर</w>
बिज़ न
ल म्प
पूर् वो
श्र मिक</w>
मांग ों</w>
उद्यो गों</w>
परिणा मों</w>
ने श्वर</w>
घो ष</w>
कि चन</w>
बू झ
मद् दे
पै साव
ने त्र</w>
प्रो से
पैसाव सूल</w>
यू ज</w>
नीला मी</w>
ष ड
बा ण</w>
पहा ड़ों</w>
बू ढ़े</w>
हरी श</w>
उप वास</w>
घोष णा
दस्तावे ज़</w>
जन मत</w>
गां ठ</w>
तो ड़ा</w>
म ियां</w>
मि ड</w>
नमू ना</w>
बॉय फ्रेंड</w>
राज वंश</w>
रू पां
ब् ले
आई सी</w>
राष्‍ ट्रीय</w>
ह ियों</w>
स् लो
हैरतअंगे ज
गो ली
रेस्टो रेंट</w>
चो द</w>
विडियो फैशन
चे त</w>
विडियोफैशन हैरतअंगेज
ब्रा जील</w>
सोवि यत</w>
के ले</w>
यो गा</w>
सामु दायिक</w>
ं कित</w>
सू खी</w>
न् दा</w>
े श
का व</w>
प ियन</w>
न्यूज़ मनोरंजन
ताज़ाखबरेंसुपरहिटखबरेंकॉमेंटेडखबरेंईमेल्डखबरेंसुपरहिट ब्लॉग्
दि स</w>
पै ठ</w>
कविता यें</w>
िया ं
न्यूज़मनोरंजन बिज़न
आ वेद
ट नी</w>
न्यूज़मनोरंजनबिज़न समूवी</w>
क्‍ टर</w>
जि ट</w>
भि न्
मुआव जा</w>
सा ना</w>
दां व</w>
निरा ला</w>
टी मों</w>
ची ख</w>
था ली</w>
खेल मजेदार</w>
का ऊ</w>
सि वा</w>
आईए एस</w>
निश् चि
चर् बी</w>
न ंगे</w>
नि गाह</w>
इ का
मै न
अंदा जा</w>
निक लना</w>
फी ल्ड</w>
छि पे</w>
इं जि
ट नों</w>
आधु नि
प्राइ म</w>
भं डार</w>
स्व तन्
बा धा
मॉड रेटर</w>
धार क</w>
ऊँ ची</w>
कर वाई</w>
मिला न</w>
रे ख</w>
त करीबन</w>
स सुर</w>
भी गे</w>
छ ः</w>
टाइ गर</w>
ज्ञान वर्धक</w>
नु भूति</w>
पूर क</w>
शा श्
ड कै
कल्या ण
निभा ने</w>
नौ जवान</w>
च ंदन</w>
ढ़ ियों</w>
इं स्पे
बं दर</w>
ख रा
प्रा प्
बंगा ली</w>
वा हक</w>
द ंगल</w>
वि टी</w>
ल खंड</w>
ना र्
उ ग
म्भ िक</w>
के यर</w>
h a
वि गत</w>
सरो वर</w>
अग्र िम</w>
हे ली
भ ई</w>
अ मन</w>
ब्र ॉ
वी न
रेसि पी</w>
इ टा
न कल</w>
व्‍य क्ति</w>
शि र
से क्स
क सम</w>
जी ं</w>
२ ९</w>
पु रोहित</w>
पा यें</w>
4 3
प्र क्षे
पे ट्रो
इस्ला मिक</w>
इन्टर नेट</w>
म सू
मोटा पे</w>
शास नकाल</w>
जा ओगे</w>
२०० ९</w>
बाड़ मेर</w>
199 6</w>
इन् ‍
जि ते
समा प्ति</w>
मो चन</w>
ध न्य</w>
उ मा</w>
जन् ‍
जु लूस</w>
सली म</w>
केन्द्र ित</w>
र चित</w>
बता यें</w>
सो ल
बद लता</w>
उस पर</w>
पला यन</w>
ं कर</w>
फ़् तार</w>
सी रियल</w>
यो गा
देश भर</w>
सॉ फ़्
हाइ ड्रो
ंग ि
छोड़ ना</w>
क स्टम</w>
प्र भा</w>
निका लना</w>
ऐश्वर् या</w>
बर् दाश्त</w>
ू ल</w>
प्रे मियों</w>
अक तूबर</w>
रण वीर</w>
चिट् ठा</w>
संघ र्
स कार</w>
आं दोल
सॉ र्ट</w>
सी ल</w>
रखा व</w>
उ तारा</w>
क्ष णों</w>
ख़ु दा</w>
भाग ियों</w>
कु लर</w>
भु व
झू ठे</w>
ले वा</w>
डि स्क</w>
ब रू</w>
प्र जनन</w>
कम्युनि स्ट</w>
एन एस
सा धु
बा ई
साह सिक</w>
ख़ि ला
डें ट्स</w>
सुंद रता</w>
व्र ता</w>
चि दं
से वी</w>
फि केशन</w>
201 7,
लौ किक</w>
मू त्र</w>
खा ड़ी</w>
जॉ ब्स</w>
बे ब्
प्रो ग्रा
हि त
प् पल</w>
क मो
स्वी डन</w>
निष े
वि क्ष
रा ठ
मह क</w>
अनु मो
सरो कार</w>
ग म्
ऑ फ
नक द</w>
विज्ञ प्ति</w>
डा उन</w>
रख ेंगे</w>
हि न</w>
दर् द
सो साइ
सेहत मंद</w>
गैल री
घु स
ए रिया</w>
ब सों</w>
खि ला</w>
कम रें</w>
प सीने</w>
सिया सी</w>
शा प</w>
बीसीसी आई</w>
हँ सते</w>
गीत कार</w>
वांछ ित</w>
ल ल
बी एम
पॉलि सी</w>
ले री</w>
कैप् टन</w>
पदा धिकारियों</w>
मंत्रि मंडल</w>
वा लय</w>
वि लास</w>
१९ ५
मोहल् ले</w>
त प</w>
र क्षक</w>
रू ह</w>
ब्राह् म
ब्रे किंग</w>
दाखि ला</w>
के ला</w>
ऊँ चाई</w>
टी ना</w>
स्व त</w>
अभ्य र्थियों</w>
गा यन</w>
प्रॉ पर्टी</w>
रोह तक</w>
मं ड</w>
वंद ना</w>
शा दी
गो स्वामी</w>
झ ल
कत ई</w>
रचना एं</w>
राज कुमारी</w>
आय ेंगे</w>
हौ सला</w>
वा इन</w>
ठे केदार</w>
रा त
मै क
उ ँ
४ ०</w>
राजा ओं</w>
मे मो
नर म</w>
कृ त
लग ेगी</w>
सन् ना
अजन बी</w>
दि ला
सी ए</w>
जे क्शन</w>
ब टो
गांधी जी</w>
ए ण्ड</w>
क्‍ वीन
ता व</w>
आप रा
डे टिंग</w>
अनु भाग</w>
नौ सेना</w>
माइ कल</w>
एक् सेंट</w>
बन वाया</w>
वय स्‍क</w>
हु क्
छा पा</w>
द रिया</w>
रो इन</w>
से ब</w>
प्र खंड</w>
l i
वि वश</w>
करें इसे</w>
गड़ बड़ी</w>
हिस् से
मुस् लि
भाँ ति</w>
चाह ेंगे</w>
प्र जा</w>
उल् टा</w>
व्यापार िक</w>
थ ॉ
अंतरा ल</w>
एक त्रित</w>
राज जर्मनी</w>
क्‍वीन जानिए</w>
बेब् सऔर</w>
मद नी</w>
शर् मना
हो त</w>
अव स्थित</w>
जी विका</w>
कार िणी</w>
06 :
जा बाद</w>
वा ट</w>
डिय ़
ग्र ा</w>
विध वा</w>
सम र</w>
साइ ट्स</w>
आ समा
भी म
शा सकों</w>
ख्वा हि
न का</w>
ख ने</w>
मस ले</w>
का लि
सू खा</w>
परंपरा गत</w>
भरो से</w>
त्‍ मक</w>
बुक मार्क</w>
पह लुओं</w>
पंचाय तों</w>
को लं
बै नर</w>
भू खे</w>
गे टिव</w>
ं त्रि
थ र</w>
प्रति बंधित</w>
पौ धा</w>
फ त
सो नाक्षी</w>
/0 5/
सुध ारे</w>
द रा</w>
सो म</w>
जन् य</w>
क् यू</w>
चिकित् सकों</w>
इ ंग</w>
पढ े</w>
स्की म</w>
हरे क</w>
शॉ पिंग</w>
म जि
ने हा</w>
छू त</w>
यहो वा</w>
2014 ,
शक् ल</w>
पढ ाई</w>
प क्का</w>
पु जारी</w>
राक्ष स</w>
मु हिम</w>
ता नी</w>
इश् क़</w>
पंच मी</w>
सं वैधानिक</w>
शि ता</w>
प्रसन् नता</w>
ि कता</w>
सु धीर</w>
मर् जी</w>
ल हर
कमि श्
एक जुट</w>
फै ले</w>
उपलब् ध
वा दे</w>
जीवन शैली</w>
मृत्य ु
बांग् ला</w>
बेरोजग ारी</w>
नी ले</w>
च लाना</w>
इ समे</w>
जि हा
करू ँगा</w>
प्रीम ियर</w>
� �</w>
पै नल</w>
सिले ंडर</w>
बा बत</w>
पड़ ताल</w>
ग ू</w>
नि ष्ठ</w>
न् त्र
तू न</w>
पाय लट</w>
पो ं
मन् त्री</w>
हा वी</w>
मा तर
ता ओ</w>
प्र हार</w>
ट्रे ड</w>
आ ंग
णा चल</w>
ब्र ज</w>
ह क़</w>
उ च्‍
कु रान</w>
गुना ह</w>
वे तन
पत ला</w>
परि श्रम</w>
म ठ</w>
ओ ं
ह वा
ग गन</w>
अन् न</w>
सीख ना</w>
व् ही
अप ग्रेड</w>
शर्मना क</w>
बो र</w>
ट्रै क्टर</w>
जौ हर</w>
अं बेडकर</w>
एन जी
आपरा धिक</w>
ग्रे स</w>
झग ड़ा</w>
इरा क</w>
e s
अभि नव</w>
आन ंद
दे ंगी</w>
199 7</w>
अ रो
नसी ब</w>
स्थि रता</w>
समझ कर</w>
ष ्य
कैले ण्डर</w>
दिखा ना</w>
मोबा ईल</w>
द्व ार
मि स्टर</w>
म रा</w>
ले न
खि ं
पब् लि
चिदं बरम</w>
मी त</w>
गो यल</w>
समझ दार</w>
लें टाइन</w>
तुलसी दास</w>
अ साधारण</w>
/0 4/
भावना त्मक</w>
दुकान दार</w>
स फा
ंगा बाद</w>
का जल</w>
कु श्ती</w>
हा स</w>
प निक</w>
आयर न</w>
अ पर</w>
ौ ल</w>
आ हत</w>
शी तल</w>
आ ज़
ब ग
ज़ बान</w>
स लि
ई यों</w>
वा कां
टै क्सी</w>
सब ने</w>
क्ष कों</w>
गिर ि</w>
चा कू</w>
व री
प्रदर् शन
एन ए</w>
अ लै
कॉ लोनी</w>
रोमां टिक</w>
ओ ल्ड</w>
द्वा ज</w>
क द</w>
गु ड़</w>
उस्ता द</w>
आ वे
गल तियां</w>
सुर क्षा
ार ित</w>
झ ंडा</w>
एक् सरसाइज</w>
श्रे णियों</w>
निया ई</w>
वि दाई</w>
जन सत्ता</w>
शिय न्</w>
श शि</w>
चु भ
घू मते</w>
ढ ि
प कों</w>
कुल पति</w>
लेखा गार</w>
सोसाइ टी</w>
पा एँ</w>
इ नाम</w>
ब क</w>
साक्ष रता</w>
हर लाल</w>
कृ ति
अफ़ ्री
ठ हराया</w>
रा जी</w>
टै गोर</w>
१ ००</w>
दूर संचार</w>
कै लि
३ १</w>
क् यु
दर्श नीय</w>
अनु सरण</w>
परा जित</w>
घ ण्
जु बान</w>
सौ दे</w>
आपूर्ति कर्ता</w>
तला श
लै टिन</w>
गि र्द</w>
लै स</w>
ंगा ना</w>
ब्रि टी</w>
निर् णा
खा स
ख ण्ड
अख् तर</w>
छु आ</w>
र् ट
को र
स्ट ैंड</w>
पत् ता</w>
चू र्ण</w>
शरा बी</w>
प ठित</w>
श हर
o r
गि री
सी ईओ</w>
सि द्धि</w>
त काल</w>
बृह स्पति</w>
ग्रा उंड</w>
आ ॅ
द ण्ड</w>
बू झ</w>
बे ला</w>
कल् स</w>
तेंदु लकर</w>
का बि
वि वर
धड़ कन</w>
स्ना तको
199 5</w>
अल विदा</w>
क तें</w>
जा लं
कॉ प्टर</w>
निष् ठा</w>
लॉ गिन</w>
पा लना</w>
रख ो</w>
सु इट</w>
प्रति भागियों</w>
तब् दील</w>
त्रि य</w>
इश ारे</w>
व क्त
ता लिका</w>
फ़ि ल</w>
चि ह्
पिछ ड़ा</w>
स्वतन् त्रता</w>
बन् धन</w>
न् द
मर ते</w>
लिहा जा</w>
दि लाया</w>
सह ार
सोच कर</w>
बचा या</w>
ब् बा</w>
ए शन</w>
क्रू र</w>
था ना
उपरा ंत</w>
जाय े
टेली फोन</w>
ऑर् डर</w>
त् ता
विंडो ज</w>
कप डे</w>
प्र देशों</w>
२०१ ६</w>
लेखि का</w>
इंस्पे क्टर</w>
ब ख्
ति ब्बत</w>
रि टर्न</w>
सक ेगी</w>
हरा कर</w>
199 1</w>
बा धित</w>
ग्रे जु
अ ख़
पर् दा</w>
राष्ट्र वाद</w>
ऑस्ट्रे लियाई</w>
ड़ ियाँ</w>
प्र स्थान</w>
वा दों</w>
एक् यू
जबर न</w>
फिल् म
जॉ र्ज</w>
6 7
पेशा ब</w>
ति ल
दि या
पंद्र ह</w>
डा लना</w>
ही रा</w>
नगर ीय</w>
पी के</w>
गुद गु
गर्भ निरोधक</w>
लुध ियाना</w>
गु णा</w>
राइ टिस</w>
करो गे</w>
ड़ ाई</w>
कार् तिक</w>
मी ना</w>
दर भ
स्टू डेंट</w>
पूछ ते</w>
वाणि ज्य</w>
ना ली</w>
पे टी</w>
काल् पनिक</w>
कर् त
कॉ क</w>
त्या गी</w>
स ईद</w>
द्रा क्ष</w>
बचा ओ</w>
भु ला</w>
पीड़ ितों</w>
बी एस</w>
झ े</w>
झू ठी</w>
लो कार्
गो लियां</w>
ओ लम्प
स्था न
कै म</w>
ं कों</w>
टि कता</w>
रे न</w>
बार ी
पि ं
पहुंचा या</w>
यू नानी</w>
स्टे शनों</w>
हनु मान
प्रा प्‍त</w>
ख याल</w>
पह ना
ती करण</w>
ख जाना</w>
गु नी</w>
फ् लॉ
स्वा मि
समन्व य</w>
सिं घ
शे यर
अव श्‍य</w>
ट् टे</w>
ंग ी
द ंत</w>
ल्‍ दी</w>
मा ली</w>
जोड़ ों</w>
ग धे</w>
10 1</w>
दौ लत</w>
स्‍ तान</w>
मै रि
इं डीज</w>
स्नातको त्तर</w>
सा झे
अ क्‍
वि ज़न</w>
ब्‍ लॉग</w>
प्रा णियों</w>
प डा</w>
आस्ट्रे लिया</w>
5 00
ण् डा</w>
हथ ेली</w>
सं ख्या
तर् ज</w>
सं दर्भ
लता पूर्वक</w>
गरि मा</w>
अर् ध
क ंडो
त्य ों</w>
डी वी
न बी</w>
गु फा</w>
प्रतियो गि
आ शय</w>
बह ने</w>
टो पी</w>
प मेंट</w>
तमा शा</w>
ै न</w>
भी म</w>
सी आर
गु म</w>
आवा गमन</w>
बे डिंग</w>
ब ड
आ जीवन</w>
मार् क्स
धमाल सबसे</w>
चु पके</w>
चिन् ता</w>
ऊं चे</w>
शै तान</w>
क्रम श</w>
स्टि वल</w>
रू र</w>
कॉमे डी</w>
पकड़ कर</w>
स जी</w>
पी डि़
श् लोक</w>
रॉ यल</w>
ने शन</w>
क् वार्
त स
दरभ ंगा</w>
र्म ल</w>
लाभ दायक</w>
कठि नाई</w>
क् ट्स</w>
को ल्‍ड</w>
फौ ज</w>
उद् देश
एकी कृत</w>
दिखा यी</w>
रो कथा
फाइ बर</w>
ड ली</w>
a g
रै ना</w>
फ़् लैश</w>
धार णा
छ ला
नवरा त्र</w>
फु र्
न ंदन</w>
कल श</w>
बि टिया</w>
झ ड़ने</w>
क्र मश
हॉ ट
सक ने</w>
द ंगों</w>
सोच ती</w>
ं टी
मार ना</w>
पै न</w>
नग रों</w>
ज़ रु
मूल भूत</w>
भ ैंस</w>
ल ड्डू</w>
ना ल्ड</w>
रह मान</w>
भ टक</w>
दर् जनों</w>
बिन् दु</w>
ब र्थ
उत्सा हित</w>
ते ज
बैठ ते</w>
टा उन</w>
रह म</w>
लग ेंगे</w>
मस्ती खेलमजेदार</w>
ख्‍ या</w>
1 10</w>
प नों</w>
दा मन</w>
१ ४
सं भवतः</w>
तेल ंगाना</w>
/0 9/
मैथि ली</w>
य म
का हे</w>
आज माने</w>
मन रेगा</w>
भो ज</w>
खे लना</w>
पूछ ना</w>
पर क</w>
हत्या कांड</w>
ढ क</w>
ज ले</w>
ग ्य</w>
ज गा
सक ल</w>
अस्प तालों</w>
ज माना</w>
पै मानों</w>
अव सरों</w>
भाषा ए</w>
उ म्र
थ ीम</w>
म ं</w>
वि ष</w>
199 2</w>
वे ष</w>
बि खरे</w>
बल्ले बाजी</w>
टू ल</w>
ड् डा</w>
करी बी</w>
दे स</w>
मह बू
हड्ड ियों</w>
app न्यूज़मनोरंजनबिज़नसमूवी</w>
जवा हरलाल</w>
अ राज
समझ ी</w>
एप् पल</w>
रोकथा म</w>
खु फिया</w>
निर् दोष</w>
फ़ र
दी क्षा</w>
ता म
धर् मे
ना टकों</w>
ल हरा
कहा वत</w>
मो ड़ा</w>
विनि मय</w>
टू र</w>
ट लर</w>
धार कों</w>
200 6व्यूस</w>
199 3</w>
हा र्ड</w>
व का
म्यू जिक</w>
ब जा</w>
पढ़ें मार्च</w>
न वी</w>
द म्
पूर्ण ता</w>
सा ठ</w>
नी करण</w>
मॉ ल</w>
नो किया</w>
है ँ</w>
दुरु स्त</w>
जी एसटी</w>
अन देखी</w>
चांद नी</w>
क्रमश ः</w>
रे स्त
आलो चक</w>
अपेक्षा कृत</w>
रें ट्स</w>
धन ु</w>
न् नति</w>
कमिश् नर</w>
आवा सीय</w>
प्रव चन</w>
जौ नपुर</w>
शब्दा वली</w>
भर ती</w>
भं वरा</w>
चो टी</w>
र ि</w>
स्वि ट्
अधू रा</w>
अं सारी</w>
२०० ८</w>
सम ंदर</w>
नि योजन</w>
सर कारें</w>
डिज़ा इन</w>
ऑफि सर</w>
और तें</w>
9 4
एप् ली
क टा
जा ईं</w>
ल ड</w>
व सी</w>
गम् भी
सु निए</w>
फ ट
मुना फा</w>
गुज ार
अपे क्षित</w>
नि देशा
न्यौ ता</w>
शाश् वत</w>
गे स्ट</w>
च् या</w>
बाग वानी</w>
रो ड
धर ने</w>
सो ड</w>
9 6
को ल</w>
य स</w>
वा म</w>
पै ड</w>
मूल तः</w>
घ टा</w>
ह दी
विश्व विद्यालयों</w>
अभ य</w>
आँ कड़े</w>
निशा ने</w>
तबा ही</w>
णु ओं</w>
स्लाइ ड</w>
ति ए</w>
कॉ म
ले पन</w>
धर्म शाला</w>
खु लने</w>
नो ट्स</w>
हरिया ली</w>
धं धा</w>
द् धार</w>
वाई फाई</w>
नार े
123456 7</w>
श कु
प्र स्‍
मु सा
प्रो फाइ
श्वे त</w>
हि च
नार द</w>
एंड्र ॉ
न ट
तोह फा</w>
चु नने</w>
घन त्व</w>
ते ज़ी</w>
तथा पि</w>
का बिल</w>
निश् ‍
उद्दे श्‍य</w>
झा ँ
जान लेवा</w>
सज् जित</w>
भार द्वाज</w>
फै लाने</w>
तप स्या</w>
सं लग्न</w>
द ्या
मो हित</w>
फैक् ट्री</w>
प टी</w>
सिं धु</w>
वं शी</w>
वर्ष ो</w>
श्रद्धा लुओं</w>
सुना या</w>
ता ंत</w>
बै क्
कंग ना</w>
वर्गी करण</w>
सा धा</w>
रु झा
स्तर ों</w>
शि ला</w>
ऊं चा</w>
ह वाओं</w>
बू ंद</w>
ड़ ू</w>
v i
o n
आ भारी</w>
सू ख</w>
गा ड़ियों</w>
प्रा णा
उ ट</w>
इं श्यो
जालं धर</w>
जा मा</w>
ज़ र्
ल ॉ</w>
ती व्रता</w>
न ंगी</w>
क्ष य</w>
शे ख</w>
प्रा इस</w>
मी ट</w>
लह रों</w>
उ भर</w>
ब लेट</w>
सै य
इस् पात</w>
ण ता</w>
ही त</w>
बे गम</w>
हि ं</w>
तर की
दा ऊ
8 7
क सी</w>
रचना कारों</w>
एम ओ</w>
तुर न्त</w>
ज ौ</w>
रे गि
मौ सी</w>
ए डी
कंडो म</w>
पी जी</w>
पाॅ इन्
सा निया</w>
शि ष्ट</w>
मे ल
फ़ ्रा
बुद्धि मान</w>
आवं टित</w>
रा स</w>
भा टिया</w>
किस् सा</w>
नारा जगी</w>
pm बहुत</w>
प्रो फ़ाइल</w>
न ै</w>
खुद रा</w>
यो र</w>
खे र</w>
प् वाइंट</w>
फ री</w>
बारा त</w>
टिप्पण ियाँ
गो रे</w>
बरा क</w>
अने कों</w>
खा नों</w>
मौ लाना</w>
डि स्‍
यु क्तियाँ</w>
र हा
सा लाना</w>
चुटकु ले</w>
दी वाना</w>
ए लो
197 0</w>
ब ियों</w>
बिग ड़</w>
ज बाब</w>
चतु र्थ</w>
निदेशा लय</w>
जा ऊं</w>
करा ता</w>
वर् दी</w>
स्व चालित</w>
चे ंगे</w>
हो ड़</w>
कम ज़ोर</w>
कॉ र
निर्णा यक</w>
तर स</w>
बी ता</w>
गृह मंत्री</w>
ट्रां सफर</w>
मुट् ठी</w>
ओलम्प िक</w>
प्र मुख
तालि बान</w>
खो जीं</w>
———— ————
प दो
ई टी</w>
स रह
वि लियम</w>
जि ंद
विय त
निर स्त</w>
नव रात्रि</w>
मद्दे नजर</w>
गर् भा
स्मो किंग</w>
12 5</w>
साँ चा</w>
अ जित</w>
ऐ ं</w>
पी कर</w>
दा ढ़ी</w>
:4 5</w>
सि पल</w>
कर ंट</w>
बुंदे लखंड</w>
आकाश वाणी</w>
ल दार</w>
पे मेंट</w>
वा दन</w>
सा पे
छो ड
198 4</w>
स्पे क्
फर् स्ट</w>
मे रि
सोल ह</w>
व स</w>
उन् ही</w>
हज़ रत</w>
छू ने</w>
ब्रे री</w>
डर ते</w>
ंड ्स</w>
जे एन
च् चा
ष्ट ता</w>
भ ली</w>
अम् बेडकर</w>
खा ए</w>
स्वा भि
गुरु देव</w>
शी द</w>
हल् ला</w>
प वार</w>
ं ध
वे श
co m
जी तिए</w>
का ली
दूर दर्शन</w>
गु ज़र</w>
सु नीता</w>
गोली बारी</w>
सा ए</w>
इंस्टी ट्यूट</w>
स्टे बल</w>
बे ल्
दिखा ता</w>
चन्द्र मा</w>
आव ारा</w>
ध्या न
र ज</w>
चौ थ</w>
पत्थ रों</w>
विज यी</w>
नर क</w>
324 भाषा</w>
पर् य</w>
द ह</w>
तर् क
धो ने</w>
यहू दी</w>
सौन् दर्य</w>
ढूं ढ</w>
च लाई</w>
फ र्म</w>
लो जी</w>
पे शे</w>
बेच ारे</w>
फे स्टिवल</w>
य दा</w>
हे म
द ंगे</w>
अधि वेशन</w>
फोर् निया</w>
धन राशि</w>
दह शत</w>
द ंग</w>
तोड़ कर</w>
एनसी आर</w>
पुर म</w>
ला र</w>
ना ले</w>
उपयो गिता</w>
ला त</w>
दिल् ली
अनु चित</w>
दी वानी</w>
गा नों</w>
2. 6
दिन भर</w>
शर् मि
निय मा
सुल भ</w>
प्रोफाइ ल
स्टा इ
लगा ड़ी</w>
उत्तर प्रदेश</w>
सुन ता</w>
मो नी</w>
द लाल</w>
ज् वाला
सं क
ने ंगे</w>
लो कल</w>
एस एमएस</w>
साक्ष ्य</w>
पहचा ना</w>
निर् मला</w>
कार्य कारिणी</w>
हाई वे</w>
र कर</w>
रा धा
हज़ ारों</w>
जरूर तों</w>
प च्च
बि छ
अभि लेख</w>
सै द्धा
ष् टा</w>
ज हरी
वे ली</w>
सहार नपुर</w>
नज ारा</w>
समस्‍ या
ह वाला</w>
मस लन</w>
सी ओ</w>
लड की</w>
से मी</w>
सारा ंश</w>
इं ड</w>
ती र्ण</w>
पूर्वो त्तर</w>
ट्रे ट</w>
समु चित</w>
पं त</w>
मे गा</w>
खा नी</w>
ग्र ता</w>
श्र वण</w>
प्ला निंग</w>
शि क
ति रु
घ टिया</w>
प्रच लन</w>
बेंगलु रु</w>
कह लाती</w>
प्र बंध
स् पा</w>
कॉमेंटे टर</w>
शोध कर्ताओं</w>
ई ई
वै भव</w>
आं कड़ा</w>
हिन्दु स्तानी</w>
अनो खी</w>
असहम त</w>
ल्‍ स</w>
सचि वालय</w>
कानू नों</w>
ना शक</w>
वेद ना</w>
नै शनल</w>
विज्ञा पनों</w>
सि ंग
कहा नी
नहा ने</w>
क् टो
पूछ ता</w>
सं ख्‍या</w>
वा शिंगटन</w>
बो नस</w>
ता इ
प्रो टो
मद ्रास</w>
ज लाने</w>
टे यर</w>
प्रा चार्य</w>
रिश्‍ ते</w>
ब सी</w>
फा ड़</w>
दि लाई</w>
अ माव
ढ़ ता</w>
पानी पत</w>
अव शेष</w>
ते लु
आ मदनी</w>
वि राज
मो म</w>
य था</w>
लो हिया</w>
पी ला</w>
प्र श
लिए थर्ड</w>
म ज़ा
अंपायर वेबसाइट</w>
प्रोफाइल साइन</w>
य ्या</w>
पड़ा व</w>
उतार ने</w>
लाभ कारी</w>
को ट
साम्रा ज्य
चू ँकि</w>
कॉमेंटेटर कॉमेंट</w>
गो चर</w>
सर् टिफि
बार ीक</w>
अंपायर कॉमेंटेटरकॉमेंट</w>
रि हा</w>
आई आईटी</w>
ए टर</w>
ना जु
ग म्बर</w>
ने म</w>
, 2013</w>
कॉमेंटेटर भंवरा</w>
क्‍ त
प्राइ वसी</w>
पिछ ड़े</w>
आई बी
मा पन</w>
लो का
मा टी</w>
वा ब</w>
हो ल</w>
ि स</w>
अंधे रा</w>
घि नौ
सी र</w>
चू त
उद्यो ग
डे न</w>
ठ ंडे</w>
वृश् चिक</w>
माओ वादी</w>
त्रा सदी</w>
उठ ाई</w>
आभा स</w>
198 9</w>
ड ियों</w>
क् वे
का व्य
जै सल
बगी चा</w>
अरु णाचल</w>
मे ने</w>
दा हि
ब्रह्मा ण्ड</w>
रि क्तियों</w>
थ ू
सत्या ग्रह</w>
पंच म</w>
वा ग</w>
सी खें</w>
ए नि
को ठ
ऑपरे टिंग</w>
चू र</w>
एम बीए</w>
g oo
हर ु</w>
ज़ि ला</w>
का ए</w>
बं ट
प्र पत्र</w>
अफ जल</w>
आ टे</w>
श्र मिकों</w>
घाय लों</w>
शे र
उ र</w>
लं दा</w>
निर्दे शिका</w>
खा सी</w>
बे चै
त म
प्रति वर्ष</w>
बर्थ डे</w>
फ् ले
महा सभा</w>
चश् मा</w>
कु रु
07 :
रजि स्ट्री</w>
डा क्
पॉ ल</w>
क़ा त</w>
परेशा नियों</w>
मो दी
स्वयं सेवक</w>
ियो ं
कॉ म्
लू ं</w>
को हरे</w>
फर मान</w>
जे ने
चो दा</w>
जू र</w>
क पास</w>
a c
ए नी
के न</w>
गुला मी</w>
पीड़ िता</w>
हार् मोन</w>
अ पार</w>
पर वरि
लॉ क</w>
पर दे</w>
बढ़ ेगी</w>
अ सीम</w>
ट ंकी</w>
क स्ट
अमृ ता</w>
गु हार</w>
नि वासियों</w>
लो ग
ब्राह्म णों</w>
फ़ि टनेस</w>
लॉ न्‍
वि च</w>
शि खा</w>
उप ज</w>
त मन्ना</w>
मा दा</w>
प्र ी</w>
गू ँ
कै श
मि त्रता</w>
फोटो ग्राफी</w>
बर् न</w>
199 4</w>
एजु केशन</w>
ब् ध</w>
7 00</w>
ने ंट</w>
बि ठा
मुक् तक</w>
नव वर्ष</w>
गोल् फ</w>
करो ड</w>
स पोर्ट</w>
कम ला</w>
/0 8/
पं क्तियों</w>
पु कार
जी पुर</w>
डे ल्
का टा</w>
उप निष
पौ ष्
सामा न्‍य</w>
लोकार् पण</w>
ना ता</w>
ना लंदा</w>
अ काल</w>
म गढ़</w>
आ कृति</w>
बै ड
हिस्से दारी</w>
अक सर</w>
णु ता</w>
से तु</w>
समझ ो</w>
छ वियों</w>
रि सो
क्ष ्य</w>
द्र व</w>
अं बानी</w>
सार् व
ह रों</w>
वि हीन</w>
मजि स्ट्रेट</w>
मर ्रा</w>
अ नव
एम ए</w>
उप न्या
सं क्षेप</w>
ई यर</w>
व की
सम कक्ष</w>
द त</w>
3 22
णा त्मक</w>
भ गा
घे र</w>
परवरि श</w>
पा यल</w>
व्यव सायिक</w>
सु धा</w>
से न्
बा क़ी</w>
फ़ ू
सौर भ</w>
ं चल</w>
ना बाद</w>
सोच ो</w>
अख़ बार</w>
ग न्ना</w>
दा दा
पहल वान</w>
उच्‍ च</w>
ती या</w>
नज रिया</w>
समु दायों</w>
कृ तियाँ</w>
बना यी</w>
फु ल्
घु टनों</w>
डे ड</w>
मे हर
डायबि टीज़</w>
झे ल</w>
ले मर</w>
त बाद
श्य क</w>
सह वाग</w>
परहे ज</w>
एफ सी</w>
द न
अ जीत</w>
किशो रों</w>
ह ड़</w>
टि प
ख ट
ज नी</w>
भा गी</w>
ग ौ</w>
छ ठ</w>
चि त्
उ ं
पै थी</w>
मौ ज</w>
तं त्रि
जैसल मेर</w>
धमा के</w>
चे गा</w>
जो कि</w>
च कित</w>
वो टिंग</w>
कर नेवाले</w>
प्रति कूल</w>
सरि ता</w>
स्रो तों</w>
गो श</w>
आँ खे</w>
शं ख</w>
डिप् टी</w>
कै म्
त हीन</w>
पूछ ो</w>
ख़िला फ़</w>
स्‍ मार्
प का</w>
वका लत</w>
सेल् फी</w>
पा दु
मना ई</w>
एक्स चेंज</w>
र ग
नि मंत्र
दि खी</w>
घरे लु</w>
बा ज़</w>
साबु न</w>
आशु तोष</w>
प्रति स्पर्धा</w>
जुड़ ें</w>
सौं पी</w>
छोड़ ो</w>
स्वामि त्व</w>
हों ठों</w>
भ लाई</w>
उत्तर दायी</w>
ू स</w>
नेवि गेशन</w>
प छ
मुद्र ण</w>
टा टर</w>
रहस्य मय</w>
कु शी</w>
सहे ली</w>
प त्रा
ख ै
मना ते</w>
मै ग
शाखा ओं</w>
सं तों</w>
स्टा र्स</w>
जा प</w>
औ रंग
पढ़ें जुलाई</w>
बढ़ा ती</w>
पह ना</w>
प्र शिक्षित</w>
ज ड़ी</w>
कच्च ा</w>
19 50</w>
गोवि न्द</w>
किंग डम</w>
पाठ शाला</w>
उद्य म</w>
ओ एस</w>
निक लकर</w>
तर ु
ल ची
प्रति बद्ध</w>
डे टाबेस</w>
का टकर</w>
आकां क्षा</w>
एपि सोड</w>
र सी
पाॅइन् ट
य री</w>
ई ंट</w>
po st
इन कम</w>
सम् बो
3 .0
क दा
तात् पर्य</w>
नी च</w>
18 0</w>
आ क्रामक</w>
भ टक
गेंद बाज</w>
धू म
शा द</w>
मह ेन्द्र</w>
व् हाइट</w>
पा द</w>
पी ंस</w>
अश् विन</w>
ब हा</w>
फै मिली</w>
सु री</w>
मुर ली</w>
१ ३
क्रिया एं</w>
ढा ल</w>
साइ बर</w>
न् ती</w>
अ ष्ट
वे व</w>
मान्य ताओं</w>
समि तियों</w>
फ़िल् में</w>
बं दूक</w>
सं तो
मो निका</w>
बा बरी</w>
२०० ७</w>
प्रण ब</w>
फे र
२०१ २</w>
जू झ</w>
सिय स</w>
ट्रे डिंग</w>
पारि स्थि
स्टू डेंट्स</w>
मू ला</w>
प्र दायि
अध े
चैम्प िय
हाजि र</w>
ब ले</w>
का ण्ड</w>
अ समर्थ</w>
ता ने</w>
चि कन</w>
व ह
मध े
ब ढ</w>
सु ओं</w>
ट्रै वल</w>
अं डा</w>
से क्शन</w>
टेक् नॉ
पर्स नल</w>
सै फ</w>
डीवी डी</w>
महा नगर</w>
वर्गी कृत</w>
सफ लतापूर्वक</w>
ए ग्री
पोर् ट
ले डी</w>
स्पी कर</w>
म ची</w>
मं तर</w>
ख्या ति</w>
व्याख्या न</w>
तरकी ब</w>
क तार</w>
कच रा</w>
नज़ ्म</w>
बै ंग</w>
क सौ
बद बू</w>
प च
आर् य
दाऊ द</w>
सॉफ़् टवेयर</w>
दर् शनों</w>
अध ि</w>
बैठ ा
रो धी</w>
उत् थान</w>
सभ ्य</w>
ब काया</w>
आर बीआई</w>
स प्‍
शा न्त</w>
उल् टी</w>
म् बे</w>
खा ंसी</w>
फ़ा न</w>
धो खा
पहुंच ते</w>
ल वी</w>
10 ,
इ यां</w>
बा ज़ी</w>
क्र ै
कै दी</w>
जन् मा
इंसा नियत</w>
व टी</w>
रजि स्ट्रेशन</w>
शब्द कोश</w>
रै या</w>
मे जर</w>
इंश्यो रेंस</w>
कब् र</w>
शं करा
प्रभाव ों</w>
चट नी</w>
नारे बाजी</w>
7 7
बै ल</w>
डा र्
असि स्टेंट</w>
वै ध</w>
गण पति</w>
जिन् दा</w>
लड़ ते</w>
चु रल</w>
छा ं
लि फ्ट</w>
यू रो</w>
मनो वैज्ञानिक</w>
ट्र ा</w>
ख् ती</w>
व न्य</w>
प्र ू
01 :
मालि कों</w>
केन्द्र ों</w>
पार्ष द</w>
ए स्टेट</w>
बं दरगाह</w>
म प्र</w>
जाइ ए</w>
च लेगी</w>
322 भाषा</w>
नक् सल
फ़िल् टर</w>
महत् वाकां
जान कार</w>
प्र दायक</w>
आई जी</w>
कि ंग्स</w>
मोह न
ह ंग
खो लकर</w>
रू ण</w>
खा ँ</w>
ं दा
रेस्त रां</w>
द् द</w>
कच्च ी</w>
कुल दीप</w>
पि तृ
/0 6/
मु ल्
न य
वि ंडो</w>
व ड़ा</w>
सो या</w>
पर् शियन्</w>
सूची बद्ध</w>
ताल मेल</w>
अं डर</w>
नाजु क</w>
व जूद</w>
जाए ँगे</w>
शिव लिंग</w>
प्र क्रियाओं</w>
शि शु
फ़ ्र
ब यां</w>
बुल ंद</w>
प लों</w>
मसा ज</w>
बु द्ध
मु ह</w>
बू ल</w>
वो ह</w>
ए ंगी</w>
स्वा मी
अध्‍य क्ष</w>
डी आई</w>
मी कि</w>
परि स्थि
हटा एं
रंग मंच</w>
मान कों</w>
सु सज्जित</w>
चस् व</w>
सिं हासन</w>
चैं पियन</w>
ओ रल</w>
बि खर</w>
लै ब</w>
आई ए</w>
ध क्के</w>
दे शिक</w>
जी रा</w>
मि थि
प्रा तः</w>
ं तिक</w>
ख् ता</w>
अर् ली</w>
मा ला
ण् डी</w>
फ़ ौ
क ै</w>
तुम् ‍
सर् वि
हे ल्‍दी</w>
तहसी लदार</w>
मुख्य तः</w>
क साब</w>
सं गोष्ठी</w>
बी बी</w>
द कर</w>
अँधे रे</w>
हि मां
उत्ते जित</w>
टा ला</w>
बु त</w>
रस् सी</w>
ताज महल</w>
/0 7/
वर् ना</w>
ब करी</w>
फे क्शन</w>
घि रा</w>
रि व्यू
अभि लेखागार</w>
भा गे</w>
ष्‍ ठ</w>
ंत्रि की</w>
स्त म्भ</w>
सुर् खियों</w>
है रानी</w>
माइक्रो सॉफ्ट</w>
नुक सान
वि मोचन</w>
डॉ ॰</w>
:5 9</w>
नेटवर् किंग</w>
सं कोच</w>
दु श्‍
सेमी फाइनल</w>
व श्यक</w>
एँ गे</w>
खे लें</w>
ता ं
अं चल</w>
आद तों</w>
जा दू
गे ल</w>
लि प</w>
म् बू</w>
ताज़ाखबरेंसुपरहिटखबरेंकॉमेंटेडखबरेंईमेल्डखबरेंसुपरहिटब्लॉग् स
टी रिया</w>
व क्‍त</w>
नि न</w>
भि खारी</w>
धा नों</w>
गोवि ंद</w>
ख लन</w>
बु ढ़ा
हैं ...</w>
म क्का</w>
क्र मित</w>
परी क्षा
न ग्न</w>
कल् चर</w>
रिक् शा</w>
जु टा</w>
रह ेंगी</w>
उठा ये</w>
ने गी</w>
श् वास</w>
कू ट
वा क</w>
ई या</w>
ड़ ते</w>
सर् ग</w>
ब हाल</w>
जे शन</w>
प्रा त</w>
जो क्स</w>
ष् टीकरण</w>
आ ड़</w>
ज लाना</w>
ली वर</w>
दुख द</w>
घो ड़ा</w>
बढ़ा ना</w>
\\ \\
रोमा ंच</w>
प हि
क पा</w>
वॉ टर</w>
जी र्
जु दा</w>
सहा नुभूति</w>
वर् चस्व</w>
स्रो तहीन</w>
बा थ</w>
ब्लॉ ग्स</w>
ग़ ैर</w>
मोहल् ला</w>
मुस्लि मों</w>
अवॉ र्ड</w>
द बो
ण्ड ित</w>
रि हाई</w>
ध्रु व</w>
नस् ल</w>
जाय ज</w>
संस् कारों</w>
क टा</w>
आख़ि र</w>
फे ड
गौर व
अभ द्र</w>
फ़िल् मी</w>
टे गा</w>
कत् ल</w>
स् मिथ</w>
र ंगी</w>
एफआई आर</w>
सात वें</w>
भी ख</w>
व त्</w>
न् दन</w>
सु श्री</w>
न्द्र नाथ</w>
जा वेद</w>
खु दाई</w>
लम् बाई</w>
पं डि
लग ि
लि न
ले टेस्ट</w>
वि ता</w>
खी र</w>
सु म</w>
प्ले स</w>
टे प</w>
प्राणा याम</w>
फ ली</w>
य हा</w>
ने स
वकी लों</w>
प्रत्य ारोपण</w>
सत्या पन</w>
व ले</w>
फ ैं
सि व</w>
श ती</w>
ड्र ा</w>
श हाद
हि सार</w>
प्रार म्भिक</w>
ना मित</w>
डा लता</w>
मू न</w>
ख पत</w>
खो ने</w>
सुपरहि ट</w>
स्व तः</w>
बंध ु
मार् मिक</w>
निर्मा ताओं</w>
च म्
सि वाय</w>
दीर् घ
इ ब्रा
ब खूबी</w>
सु थ
20 ,
कार्य ो</w>
म दर
02 :
योग ियों</w>
आ मने</w>
फ़ र्
हिष् णुता</w>
जम शे
हि णी</w>
धमा का</w>
श्रृ ंगार</w>
रैं क</w>
डा लर</w>
जॉ य</w>
फी सद</w>
स् नै
है सियत</w>
टा य
प्र वा
व्य तीत</w>
विक्ष नरी</w>
अदा ल
को ण
एनडी टीवी</w>
इजा फा</w>
सें जर</w>
दिन चर्या</w>
बु र</w>
रा इल</w>
इ ज़
द् दी</w>
ब्रे ड</w>
म नों</w>
ऐ ं
मु क्ति
फै न</w>
र च</w>
चू का</w>
ज लने</w>
अ विश्वास</w>
सें सर</w>
कॉर् पोरेट</w>
फु केत</w>
वे न</w>
उ खा
लग न</w>
अ चल</w>
ए व</w>
ला उ
जू झ
प्रताप गढ़</w>
/0 2/
सूक्ष ्
इ ल्
ल टका</w>
छा ँ
गार ंटी
गं तव्य</w>
मशी नों</w>
धी नता</w>
बि जन
वाम पंथी</w>
सं स्‍
दू ँगा</w>
अन् वे
ला वा</w>
द्र ता</w>
बना ओ</w>
चो दने</w>
ध्व स्त</w>
जख् मी</w>
पी रिय
कॉ न</w>
आस ाराम</w>
फोटो ग्रा
करि श्
निश्‍ चित</w>
पुरा णों</w>
सि ंड
म ्या
पर शु
अन ु</w>
स्त्र ो
य ंग</w>
यू जर्स</w>
कौ शिक</w>
छो ड़ी</w>
गो दाम</w>
में ट्री</w>
जे श</w>
त् ते
पढ़ें अकतूबर</w>
म हम
ता दाद</w>
सो चे</w>
विरो धियों</w>
इका इयों</w>
नॉ न</w>
की च
क क्षाओं</w>
अल् मोड़ा</w>
ऋ ग्
भ ड़ा
व लोकन</w>
च ंदा</w>
६ ०</w>
करा ती</w>
शार दा</w>
गी न</w>
बूँ द</w>
द स्त
बा ध्य</w>
लि ंगी</w>
त् ते</w>
स् की</w>
श मी</w>
गढ़ वाल</w>
19 60</w>
का ंग</w>
...... ...</w>
सं भोग</w>
सा ले</w>
बा ना</w>
डो नाल्ड</w>
बिज़ नेस</w>
ज्योतिष ीय</w>
इंजी निय
a d
लगा ता</w>
अन न्त</w>
वेतन मान</w>
ल के</w>
अफ सोस</w>
बुले ंस</w>
स्‍ तर</w>
ज्ञान वर्धन</w>
स् वी</w>
क्ष ी
दर् शिता</w>
सेव कों</w>
सै लरी</w>
ज़ा हिर</w>
सिर सा</w>
ौ रा</w>
अप न</w>
अनुभ वी</w>
छि ड़
गी ली</w>
वि मान
उत्ते जना</w>
पै टर्न</w>
खौ फ</w>
गू ंज</w>
प डे
र् मी</w>
सू चक</w>
मै ट्री
नॉ र्
पी ता</w>
2011 व्यूस</w>
नि की</w>
थ प्
टैं क</w>
उल् लू</w>
ध ड़ी</w>
दूर स्थ</w>
रा उ
घ टी</w>
न्य ु
के श
बेचै नी</w>
गा मी</w>
ल क्
मं त</w>
उछा ल</w>
हो नें</w>
उपा य
वि भि
क वरी</w>
वि देश
ल य
वॉ क</w>
ग़ ु
निय ति</w>
द्र वि
लौ टते</w>
शे ट्टी</w>
द लीय</w>
मे क्सिको</w>
डि मांड</w>
मार् शल</w>
अर्थ राइटिस</w>
पा शा</w>
सह जता</w>
इन् द्र</w>
गा जर</w>
मे दार</w>
पा त्रता</w>
ऋ तिक</w>
कॉ लम</w>
n e
चा हि
बि छा
मा फिया</w>
हे क्
लि प्त</w>
बढ़ ेगा</w>
मे ंस</w>
पद् म</w>
शाका हारी</w>
झ ंडे</w>
त स्‍वी
अ ा
पॉ प</w>
मं ह
परिवर्तन समाज</w>
दुनिया भर</w>
ल ैंड
मक् खन</w>
स् ट्स</w>
मर् डर</w>
कार् बो
2 1,
मज़ बूत</w>
सी मेंट</w>
आ भा</w>
अम् ल</w>
मुह ं</w>
औषध ीय</w>
मो ं
कार ण
ला ली</w>
बद लकर</w>
प्रशं सक</w>
कने क्ट</w>
स खी</w>
बे दी</w>
कृ त्य</w>
२०१ ४</w>
गा डी</w>
ते वर</w>
क वाय
मैट्री मोनी</w>
जु नून</w>
बता कर</w>
:5 5</w>
चुनौ तियों</w>
चाह ने</w>
आव रण</w>
प हिया</w>
जू ता</w>
का ंच</w>
गं दा</w>
स्थानां तरित</w>
म रु
करा कर</w>
एम सी</w>
५ ७</w>
बे होश</w>
छो ड</w>
ढां चे</w>
चि ड़
सै ला
ध निया</w>
वक्त व्य</w>
कर् नल</w>
द राज</w>
उल ट</w>
स् ति
अल् प
पत ंग</w>
पी टर</w>
प काने</w>
प्रे त</w>
दे ही</w>
आई ना</w>
व्यवसा यी</w>
खास तौर</w>
पृष्ठ ों</w>
छुट् टियों</w>
अ ठ
प्रदायि कता</w>
उ क
नारा य
अधि वक्ता</w>
अपरा धों</w>
लग ना</w>
मिल ें</w>
रो ष</w>
बढ िया</w>
दु रुप
क्षति ग्रस्त</w>
चुट की</w>
दस्तावे जों</w>
बंध ी</w>
वि वि</w>
पढ़ें मई</w>
आर टीआई</w>
रजनी कांत</w>
ड्रा मा</w>
बढ़ ाई</w>
अ खा
द सवीं</w>
का जी</w>
प्रजा पति</w>
पें टिंग</w>
दिखा कर</w>
संर क्षक</w>
झग ड़े</w>
महारा नी</w>
दक्षि ण
बद ौ
देव गन</w>
क टी</w>
नि शुल्क</w>
रो प</w>
व्हा ट्स
छोड़ ें</w>
अस्थ मा</w>
मोटर साइकिल</w>
आ दान</w>
मुकद मे</w>
न् दर</w>
पाय ेंगे</w>
फतेह पुर</w>
ना च
व्य ंग</w>
शंकरा चार्य</w>
छ पी</w>
झु क</w>
क्यू ं</w>
क्ष ण
स्व देशी</w>
त्‍ या
09 :
रा घ
क लं
मौ त
ज टि
करवा ना</w>
दा ब</w>
14 0</w>
नमस् ते</w>
प्रत्या शियों</w>
न् त्र</w>
आ हे</w>
ई श्वर
नि यो
फै ट</w>
खुश ियाँ</w>
मो हक</w>
स्त्र ी
क्ष त्रिय</w>
र मा
एस बीआई</w>
बढ़ा ते</w>
इसी लिये</w>
ट् ठ
चित्र ित</w>
मुं शी</w>
राज े</w>
03 :
भुव नेश्वर</w>
ले ंगी</w>
टु कड़ों</w>
हु नर</w>
ई ये</w>
ब् लम</w>
लु भा
मे न्ट</w>
अधे ड़</w>
रख िए</w>
1 30</w>
कार्या लयों</w>
उ दार</w>
ल ड़ा</w>
पो स्‍ट</w>
ू न</w>
स्टे ज</w>
फ लता</w>
श्र ंखला</w>
र् य
वा स
टा ल</w>
ओ लिं
प्रा ं
ज़ मी
जु डी</w>
म तों</w>
कं ठ</w>
ह सी
निष् पक्ष</w>
उ मेश</w>
ब्र ज
वेब कैम</w>
सम्पा दक</w>
तर् गत</w>
ो ं
डी पी</w>
मा धुरी</w>
छू टें</w>
रा ही</w>
बंध ु</w>
ज हा</w>
मुला क़ात</w>
सम्‍ भव</w>
हँ स</w>
goo g
अन गि
भर िये</w>
रवि शंकर</w>
ध वन</w>
प ड</w>
घं टी</w>
न त
सर् जिकल</w>
माध व</w>
पी एससी</w>
को इ</w>
आयर लैंड</w>
गुदगु दी</w>
द् व</w>
से व</w>
करु णा</w>
सू प</w>
शर णा
लु ब्रि
पौष् टिक</w>
फॉ लो</w>
दुरुप योग</w>
पाठ्य क्रमों</w>
सराह नीय</w>
टा या</w>
टू रि
जु लती</w>
दिखा एँ</w>
उद् धार</w>
प्लेट फार्म</w>
मस् तक</w>
शहाद त</w>
5 4
क्रि ए
नाय िका</w>
सर ो</w>
उप नाम</w>
ब्रे न</w>
दुश्‍ मन</w>
पा द
उ छ
साम ्र
3 25
के शव</w>
यू ट्यूब</w>
दर् ज़ा</w>
रिटा यर
आ क्
टा र</w>
दू षित</w>
36 0</w>
पृथ क</w>
साहित्य कारों</w>
आ यें</w>
ध्या ना
मंत्र ी
ए स्कॉ
मह ंगे</w>
मा ताजी</w>
ने क</w>
तिर ंगा</w>
ह वन</w>
दा माद</w>
अप ंग</w>
पु तला</w>
कन् हैया</w>
प कर</w>
अव धी</w>
किस में</w>
ज़ि क्र</w>
, 2016</w>
लं ब</w>
सड़ कें</w>
बे ल
ब्ला गर</w>
ज लती</w>
दे वर</w>
ण ित</w>
चह च
पा त्रों</w>
हाइ ड्रे
चित्र कार</w>
बां टने</w>
एस आई</w>
त निक</w>
पे ंट</w>
मं शा</w>
आधुनि कता</w>
पेट्रो लियम</w>
भग व
मे यर</w>
हुक् म</w>
प्रा देशिक</w>
परियो जना
सु ब्र
जीर् णो
परि ष्
व्य था</w>
रु कने</w>
म् म</w>
196 2</w>
आ ंगन</w>
गा त</w>
कु म्भ</w>
वर् चुअल</w>
उत्पा दक</w>
अ सम
गार मेंट</w>
राष्ट्र वादी</w>
वि दा
m e
अं कुश</w>
खब री</w>
चु रा
गेंद ों</w>
एन एस</w>
ब दा
अंध कार</w>
ज़ि ल</w>
क टे</w>
नू तन</w>
वास्‍त विकता</w>
अ तुल</w>
ग रों</w>
वे रा</w>
फ्र ैं
नि पटा
मु काम</w>
समा वेश</w>
वन् दना</w>
रख रखाव</w>
आर् टि
द् दा
पर्य वे
डी ह</w>
एस्कॉ र्ट</w>
ऊँ चे</w>
चैंपिय नशिप</w>
जु टी</w>
द्व ै
थ िये
ब स्त
गू ं
बहु धा</w>
लाइ नों</w>
प्र योजन</w>
टे ट</w>
पंचाय ती</w>
साम र्थ
पाय ेगा</w>
o u
तैयार ियां</w>
प्रति द्वं
लिख ती</w>
अव तरण</w>
सिर दर्द</w>
जन् नत</w>
अमर नाथ</w>
कैल् शियम</w>
आ आ
पा बंदी</w>
चु म्
डे न
छात्रा वास</w>
मा पद
दया घात</w>
क ण्
कमे न्ट</w>
श प</w>
फ ँ
समाज वाद</w>
ह फ़्
राज नेताओं</w>
अ सफलता</w>
तर फा</w>
सुना ने</w>
क मेंट्स</w>
निमंत्र ण</w>
ठ हर</w>
पा गल
197 1</w>
रो बोट</w>
गुन गुना
भो ले</w>
ठ प</w>
डा क
डि ब्बे</w>
लौ ह</w>
उ बा
से ल्‍
हमी रपुर</w>
पुण ्य
इं सानों</w>
ट्र म</w>
मूर् त</w>
अच्‍ छे</w>
स्वाभि मान</w>
क्रे न</w>
रुझा न</w>
अनव रत</w>
टे ंगे</w>
अव ्
/0 3/
ज ियो
पी लिया</w>
ब्ला स्ट</w>
गारंटी शुदा</w>
19 20</w>
दि ता</w>
िया ला</w>
जु आ</w>
दर्द नाक</w>
रजनी श</w>
दा वे
बर् खा
सक्र ियता</w>
कें ट्स</w>
धोखा धड़ी</w>
स् प्रि
दु ल
04 :
े श्वर</w>
भा ं
खान पान</w>
गु स्ता
कि स्तान</w>
र क्‍त
सि ग्
छात्र वृत्ति</w>
इ ज</w>
स्ट ार
ब्या ह</w>
सु निश्‍चित</w>
खा बाद</w>
द वाई</w>
छि पी</w>
स्तर े
अधि कृत</w>
लाइ ब्रेरी</w>
प्रति बद्धता</w>
चिट् ठे</w>
ख ट</w>
का वट</w>
लॉ ट</w>
संघ ीय</w>
लॉ न</w>
माओ वादियों</w>
इ वेंट</w>
धौ नी</w>
टे लाइट</w>
जी प</w>
चट् टा
सैद्धा ंतिक</w>
साह ू</w>
प्ले क्स</w>
परि चालन</w>
फी चर्स</w>
वर्ष मौजूदा</w>
टेक् ना
अन् न
सार णी</w>
सदस् य
खुद कुशी</w>
हम ी</w>
दम दार</w>
8 9
न्या सी</w>
व्य ु
मा थु
पढ़ ता</w>
खे ली</w>
उम्मी दों</w>
मा मी</w>
तस् करी</w>
न् या</w>
डिस्‍ क्‍
ब लिया</w>
खो ली</w>
प्र शिक्ष
रु द्राक्ष</w>
गो बर</w>
सा ख</w>
ब िया
वि मल</w>
मा फ़</w>
बन वाने</w>
जग न्
न् नी</w>
व क्ताओं</w>
पाइ प</w>
देश द्रो
ई डी</w>
इस ्रा
समय बद्धता</w>
वि ‍
बु र्
फ़ार सी</w>
सू बे</w>
goog le
कै ट</w>
साम्र गी</w>
छ ठे</w>
ट्रॉ फी</w>
बदौ लत</w>
आर् डर</w>
ले स्
रिश्ते दारों</w>
एं व</w>
शी शे</w>
आव श्‍
धुं ध
नि गेटिव</w>
एन एल</w>
प्र जातियों</w>
लू को
थो क</w>
लुब्रि केंट्स</w>
पढ ें</w>
सा इं
ता र्
अनगि नत</w>
स् तो</w>
चै ले
प दी</w>
स जग</w>
इ मेज</w>
चै त
सर्टिफि केट</w>
परशु राम</w>
मुस्कु रा</w>
मिं टन</w>
धुं ध</w>
10 वीं</w>
नाम करण</w>
चित्र कला</w>
सु दर्शन</w>
चे री</w>
ले आम</w>
डिस्‍क्‍ लेमर</w>
आई सीसी</w>
तिहा ई</w>
नियंत्र क</w>
शिकाय तें</w>
अभि ला
क्‍ ट</w>
भा गा</w>
टै टू</w>
बुद्धि जीवी</w>
आ भूषण</w>
डॉ न</w>
घो ल</w>
सिक् किम</w>
कु ंड</w>
मधु शाला</w>
हिमां शु</w>
ज ार
छु आ
मा ल्या</w>
से टिंग्स</w>
7 5
शा ं
आ हट</w>
श स्त्र</w>
प्रे ग
पच्च ी
s h
रि तिक</w>
सप् त
जा ब</w>
यू एस</w>
बि गड़
जन हित</w>
गै जेट</w>
लह ू</w>
कवाय द</w>
काउं सिल</w>
दिना ंकों</w>
मा प</w>
सी डेंट</w>
आप रेशन</w>
ए म्स</w>
१ २
न ली</w>
ंग त</w>
र ईस</w>
लू न</w>
साझे दारी</w>
डे स्क
धारा वाहिक</w>
वातानुकू लन</w>
सलि ल</w>
कन् नौ
भाग्य शाली</w>
तं त्र
द हा
शो भ
चुं बन</w>
ट लैंड</w>
त्रि वेदी</w>
जु गाड़</w>
एफ डीआई</w>
जेएन यू</w>
बो लीं</w>
हदी स</w>
परि पूर्ण</w>
गेंद बाजी</w>
सी पी</w>
मु ंडा</w>
ट्र ाई</w>
रसो ई
उद्ध ृत</w>
धारा ओं</w>
ऊ र्
किर णों</w>
तैना ती</w>
रा ई
निका सी</w>
चिन् तन</w>
ब्लै क
मन मानी</w>
क् वालि
मोर् चे</w>
ला ग</w>
लोक गीत</w>
197 2</w>
रह िये</w>
ना नक</w>
श्या म
ध्या पक</w>
शु मार</w>
स्‍ पे
आर सी</w>
जं क्शन</w>
घुस पैठ</w>
निय मि
काला धन</w>
राष्‍ ट्र
मै या</w>
समी करण</w>
मल या
प्रभा र</w>
ंड न</w>
निषे ध</w>
औ रों</w>
सि लि
मुजफ्फर पुर</w>
कै दियों</w>
200 9
म्‍ मेदारी</w>
सा ती</w>
ल की</w>
करा नी</w>
ल क्षित</w>
ऑपरे टर</w>
अक्ष म</w>
चु रा</w>
अ लगा
प्रिं सिपल</w>
नी श</w>
ल पे
न शी
शै ले
:5 7</w>
3 50</w>
गं बर</w>
धर् मा
नजर अंदाज</w>
अ सामान्य</w>
व हा</w>
शर ार
कॉले जों</w>
सं भावनाओं</w>
दु ई</w>
कॉ ट</w>
भ क्ति
त्रि वे
कीर् ति</w>
अ चार</w>
क बी
आ ें</w>
रवै या</w>
भागी दारों</w>
ख ारे</w>
ज़ि ले</w>
व धि</w>
काग ज़</w>
व्या प
टो टके</w>
मे व</w>
बचा ना</w>
पं छी</w>
टै ब</w>
ईमे ल
विक्रे ता</w>
डी एनए</w>
ग्र ीक</w>
आत् ‍
मि ट
स टिकता</w>
कोलं बिया</w>
सं न्यास</w>
अस् मिता</w>
बूझ कर</w>
ध ्र
पृथ् वी
डू बे</w>
जि़ म्‍मेदारी</w>
क्रा न्ति
हो गा
निभा या</w>
संके तों</w>
भय भीत</w>
फ़े सबुक</w>
ष् या</w>
तत् वा
स् विस</w>
अध्या पकों</w>
:3 5</w>
ओ झा</w>
हा उ
ना सा</w>
नन् दन</w>
२०१ ३</w>
रवी न्द्र</w>
इंग ित</w>
म दर</w>
रे ड्डी</w>
विश्व नाथ</w>
चा ं
तड़ प</w>
गिर ते</w>
वै न</w>
जु र्म</w>
इ याँ</w>
रिटायर मेंट</w>
ठहर ने</w>
घु सा</w>
सब्ज ियां</w>
ज हीर</w>
r i
य क्ष</w>
चा लान</w>
सर लता</w>
मर् दों</w>
मार ुति</w>
महा मंत्री</w>
स्‍ ती</w>
श स</w>
का का</w>
खतर ों</w>
द ंगा</w>
:3 3</w>
फो कस</w>
स्ट्रॉ ल</w>
आ खरी</w>
आपा तकाल</w>
े दार</w>
ह स्तरे
सं प्रदाय</w>
198 6</w>
थप् पड़</w>
आर ंभिक</w>
2 रोमांस</w>
का टे</w>
3 लुब्रिकेंट्स</w>
4 काश</w>
मे सेज</w>
ता क</w>
रो के</w>
ज बर्
सत् संग</w>
पे शी</w>
198 3</w>
चित्र कूट</w>
ए ना
रिवा जों</w>
स स्पे
लो भ</w>
शिव पाल</w>
ड़ ो</w>
सभा गार</w>
सा ला</w>
स्वा इन</w>
ड्राइ विंग</w>
नि मि
डे रा</w>
हर् ष
ठ ो</w>
डे यरी</w>
दृश्य ों</w>
स ख्ती</w>
यो द्धा</w>
परी क्षाओं</w>
जाग ो</w>
च मन</w>
पादु कोण</w>
उत्पा द
स्वा य
बढ ती</w>
सा ल
क्रि य</w>
आज मगढ़</w>
कमा ंडर</w>
र सत</w>
इरा दे</w>
क्ष णि
चं चल</w>
तो मर</w>
घु ड़
यं त्रों</w>
नि स्
र मा</w>
रो कना</w>
नाट ्य</w>
कोय ले</w>
ट ु</w>
माथु र</w>
परि प्रे
स्तु ति</w>
अपू र्
च रित</w>
संर क्षित</w>
इन् ही</w>
दी र</w>
स चेत</w>
शि क्षि
घ ों</w>
चार ो</w>
दो निक</w>
वर्ण संदेश</w>
कन् न
अंडर गारमेंट</w>
उन मे</w>
ं तरण</w>
वर् ड
स भी
:4 2</w>
अनुशं सित</w>
टा वर</w>
बढा ने</w>
अं द
गल तियों</w>
रेगि स्तान</w>
ख गो
हाई ट</w>
भावा र्थ</w>
इ को
अ ड़
री डर</w>
टिफि केशन</w>
महिला यें</w>
रख नी</w>
घ् न</w>
टकरा व</w>
हा ट</w>
मि र्जा</w>
उन पर</w>
ज्ञ ेय</w>
गिर कर</w>
मु ग्ध</w>
भू ले</w>
इं जेक्शन</w>
अगु वाई</w>
4 0
स्क्र ी
ट्रि क्स</w>
मै क्स</w>
थो डी</w>
भाव पूर्ण</w>
ब र्थ</w>
्रो म</w>
राष्ट्री यता</w>
एका ंत</w>
ऋग् वेद</w>
श तर
शिव रात्रि</w>
रू बरू</w>
कुरु क्षेत्र</w>
गर् ग</w>
एयर टेल</w>
से नानी</w>
पी र</w>
रू परे
ज ्यू
8 8
सिफार ि
दो हा</w>
जो ल</w>
पी ओ</w>
हो तीं</w>
चा ला
प्राथ मि
म ताओं</w>
टो न</w>
चौं काने</w>
9 00</w>
निर न्तर</w>
नी लम</w>
तबा ह</w>
व रे</w>
तृ ण
रि न</w>
चे हरों</w>
अ त
ना एं</w>
शि रो
एजें डा</w>
वस्तु एं</w>
लि ंग
ते श</w>
च्छ ा
विशेष ताएँ</w>
ख ड़
बैड मिंटन</w>
भग वती</w>
या पन</w>
चि ता</w>
ले षण</w>
नि हार
कै म्प
संभा ला</w>
का स</w>
कार खाने</w>
नी ली</w>
कड़ ियों</w>
कैलि फोर्निया</w>
ना गार्
उ तरी</w>
एस एम</w>
चू सना</w>
त्रि पुरा</w>
का फि
:5 3</w>
वर न</w>
लगा ती</w>
वा हा</w>
परि वार
जानकार ियां</w>
जीर्णो द्धार</w>
197 5</w>
ग़ज़ लें</w>
विराज मान</w>
दी न
शि ंदे</w>
ज़ा न</w>
ग द</w>
ठा क</w>
दु ओं</w>
समझ ती</w>
त ाराम</w>
प डी</w>
जै क</w>
आं धी</w>
द मा</w>
ब त
फ्र िज</w>
जग म
जानकार ी
बता इए</w>
टा र्
तैयार ियों</w>
दवा एं</w>
ब्रि टन</w>
पक ड़ी</w>
बं सल</w>
पढ़ा ने</w>
विशेषज्ञ ता</w>
सो न
आ ंच</w>
अन् ध
पहुँचा ने</w>
गर्भ पात</w>
:5 1</w>
चिं ता
बोल चाल</w>
शब्‍ द</w>
रु के</w>
का ते</w>
वो टर</w>
खो री</w>
चौ ड़ी</w>
कोशि का</w>
सा ध्
पक् की</w>
वित् त
अप वाद</w>
ओलिं पिक</w>
उ गा
प्रका श
रॉ बर्ट</w>
चा व</w>
पि च
इटा वा</w>
क्र ो</w>
छा पे
सु मि
रो त</w>
यु ग्
श्रद्धा लु</w>
चू स</w>
म् ह
प्रको प</w>
सिंड ्रोम</w>
दो हरे</w>
फें का</w>
झा ड़ू</w>
आश् व
ओम प्रकाश</w>
ऑक् सीजन</w>
भा न</w>
फो र
मुश्कि लें</w>
एक्स पर्
क् सन</w>
वेरि फिकेशन</w>
वी एम</w>
शुरू आती</w>
बाँ ट</w>
आ शि
198 7</w>
:3 8</w>
गम्भी र</w>
अभ ियो
:5 6</w>
आग स्त</w>
जबर दस्ती</w>
:4 6</w>
ड मी</w>
दे साई</w>
सुरे ंद्र</w>
तृ तीया</w>
जल वा</w>
जन्मा ष्टमी</w>
द नी</w>
:3 6</w>
:4 8</w>
हेल् दी</w>
साम् प्रदायिक</w>
रा उंड</w>
c h
सै नी</w>
दूर भाष</w>
बंग ला</w>
मै ग्
से मि
ही रे</w>
ऑ ब्
स गाई</w>
:4 1</w>
वेस्ट र्न</w>
ने ंसी</w>
चला ए</w>
/ 10/
का ठ
पा ला</w>
प्र ा</w>
ख़ा मो
फर् श</w>
5 000</w>
इंड स्ट्री
डे ली</w>
डू बा</w>
बह ता</w>
वाल् मीकि</w>
2. 0</w>
जा ऊँ</w>
जर् नल</w>
डायरे क्ट</w>
सिन् धु</w>
6 9
सांख्यि की</w>
दि नी</w>
198 5</w>
नागरि कता</w>
ज ज़्
वृ क्षों</w>
ड्रि ंक</w>
ष् ण</w>
ब्र ु
शिल् पा</w>
सिध् दांत</w>
197 7</w>
बा हों</w>
ब्रह्मा ंड</w>
ए के
7 9
नि योजित</w>
बु नि
ता वादी</w>
डे ल</w>
बां दा</w>
पूँ जी
कह ूं</w>
शि फ्ट</w>
10 5</w>
न शील</w>
प ल्स</w>
विवा दा
गुर् जर</w>
र तला
बे चा</w>
प्रे ग्ने
उम्मी दें</w>
गो ला
मक् खी</w>
कं टे
सम या
पुरस् कृत</w>
प्र चु
ब् लाग
म्र ता</w>
प ग
सि खा</w>
रूपरे खा</w>
वे ल्स</w>
ब्र श</w>
भारत वर्ष</w>
वा ष्
कार कों</w>
उ ग्र</w>
ठि काना</w>
ज़ माना</w>
सिद्ध ू</w>
डि नर</w>
ल्ला हु</w>
am बहुत</w>
रे डियो
बे सन</w>
प्रति बिं
अलगा व
सुल झाने</w>
त व
पट् टा</w>
ब गा
ग्री स</w>
उत् तीर्ण</w>
प्रा योजित</w>
घ ्र
:4 4</w>
:5 4</w>
श्र ु
मू ल्‍
:3 7</w>
प्रश्नो त्तरी</w>
हाइ पर
वार् ताला
दा मों</w>
वार ें</w>
अ स्‍थ
वास्तु कला</w>
वि ज्ञान
खु र्
प् पन</w>
सल् ल
म टर</w>
नाम आपका</w>
स्थान हल</w>
ईमेल स्थानहल</w>
कै पि
ह ज</w>
पह नकर</w>
वियत नाम</w>
भ त्ता</w>
था म</w>
अ चूक</w>
शा ंक</w>
घा ती</w>
खे ड़ा</w>
नवा ब</w>
पै दा
मंग ो
उतर ते</w>
ला मा</w>
खा सा</w>
ध्याना कर्षण</w>
झु ल
इन् हे</w>
अस्‍थ मा</w>
क लेक्
पा खी</w>
उलझ न</w>
ने हरु</w>
इ र्द</w>
पो कर</w>
एक्‍ स
बा य</w>
श्रे ष्ठ
विध ियों</w>
ब्‍ लड</w>
सा ये</w>
नमू ने</w>
ज ारा</w>
:5 8</w>
बा ंट</w>
पुनर् वास</w>
एव म</w>
पा श्
एस ए</w>
:3 4</w>
थिये टर</w>
आठ वीं</w>
प्रचार क</w>
तर ंग</w>
ए स्
थि एटर</w>
ट्वि न</w>
स्वा धीनता</w>
प ना
समर्थ ित</w>
वीरे ंद्र</w>
ग्रेजु एट</w>
फि क्र</w>
ह ें
इस पर</w>
:3 2</w>
साहि त्‍य</w>
फ़ो ल्डर</w>
इन्त जार</w>
ग्रे न</w>
बेवकू फ</w>
मिनि ट</w>
आँ चल</w>
व्यु त्
कसौ टी</w>
बंध े</w>
झ र</w>
अ च
सी एन
विश्‍ व
शिकाय तों</w>
अ दृश्य</w>
ची ं</w>
ब ट</w>
दिव ्या</w>
घे रा</w>
एक्यू पं
एस एसपी</w>
आश्र य</w>
खा ल</w>
ता ली</w>
से ल्स</w>
कलि युग</w>
इं स्टा
200 8
मा ध्‍
नी तिक</w>
तृण मूल</w>
आय ेगी</w>
मु स
न्याय पालिका</w>
हंस ते</w>
वसु ं
कीर् तन</w>
नहीं एक</w>
नी चर</w>
बि म्ब</w>
15 00</w>
समू चे</w>
बे ंच</w>
परे ड</w>
बै म्बू</w>
सर् किट</w>
सूर् यो
एंड ्रा
अभिय ु
कै फ</w>
ऋष ि
:3 9</w>
टी वी
ड ल
200 7
नो ई</w>
मार ियो</w>
चि त्रा
र हीम</w>
तृ प्त</w>
स् खलन</w>
जु ड़ने</w>
बुनि याद</w>
अव् वल</w>
बै क
सं भावनाएं</w>
र फ़्तार</w>
८ ०</w>
a t
हि टलर</w>
2. 5</w>
उदा हर
जर् न
शतर ंज</w>
ठ ियों</w>
जु रा
चि र
आ ल</w>
सम् भावना</w>
ण् डे</w>
या कू
जा ऊंगा</w>
बि हार
सी बी</w>
बि पाशा</w>
की ट</w>
फा ई
इंग् लैण्ड</w>
बुजुर् गों</w>
बताएं आपके</w>
:5 2</w>
लेन देन</w>
डू ब
बताएं आपका</w>
अना वश्यक</w>
सुध ारों</w>
लेक् सी</w>
ज़ ्म</w>
मा ंड
अ श
ज् ज
ने ल</w>
एच आई
शादी शुदा</w>
इं डिय
अध्य य
ट बॉल</w>
रे ंगे</w>
खा यें</w>
भंड ारण</w>
दी वाने</w>
जाय जा</w>
कव च</w>
फे ंग्
खरीद ना</w>
विशेष ताओं</w>
मुजफ्फर नगर</w>
रसोई घर</w>
भि जवा
मा णिक</w>
बेल् जियम</w>
सेल् सियस</w>
मू ला
बे टों</w>
पो षित</w>
चर् ड</w>
कारा वास</w>
बना वट</w>
सेल्‍ फी</w>
ह स्त</w>
फार सी</w>
फेंग् शुई</w>
स वा
मे ंदर</w>
तंत्रि का</w>
समझ दारी</w>
प ग</w>
कु ण्ड
गाँ वों</w>
सु कमा</w>
य िता</w>
3 1
क् वीन</w>
र वी</w>
चि कनी</w>
ज गा</w>
कले क्शन</w>
ख बर
ग् लास</w>
महम ूद</w>
198 8</w>
टी में</w>
वर्ण माला</w>
खि च
ग वाही</w>
साइ ट
टै बलेट</w>
निरपे क्षता</w>
ज या</w>
1. 5</w>
कार पोरेशन</w>
बे टियां</w>
गिरफ् तार
उ तरा</w>
उ षा</w>
वसुं धरा</w>
नि स्त
की र्ण</w>
संभ वत</w>
ज़ा ना</w>
क्ल र्क</w>
रा यल</w>
स्टा र्ट</w>
बगी चे</w>
ह टकर</w>
ई र्
मह फ़िल</w>
संभा लने</w>
फै क्स</w>
गुज रने</w>
निवे शक</w>
चाल कों</w>
त रो
की ड़े</w>
मि मी</w>
जी वियों</w>
मि त्
द ड़</w>
स्ट्रा इक</w>
परिप्रे क्ष्य</w>
उप क्रम</w>
करा ये</w>
टिप्पणियाँ कोई</w>
उ ग्र
बु झ
सह योगियों</w>
ले क</w>
मा बाद</w>
सि प</w>
ो गे</w>
ग लों</w>
पार दर्शी</w>
ली करण</w>
मार् गों</w>
विधा ओं</w>
ब्रा उन</w>
न ई
बेच ारा</w>
सं पदा</w>
रवी श</w>
म ॅ
भी ष्म</w>
को रियाई</w>
अर बों</w>
कथा कार</w>
विडियोफैशनहैरतअंगेज धर्म
बी बी
:4 9</w>
आइ डिया</w>
:4 3</w>
मं जिलों</w>
एस ओ</w>
कु छ
ग ंग
उत्तरा धिकारी</w>
गोल् डन</w>
डा लो</w>
सं काय</w>
कॅ ं
एल ए</w>
कीच ड़</w>
श्रो ताओं</w>
टेम्प लेट</w>
ब्रे कअप</w>
ग़ा लिब</w>
स तर्
5 0
दी की</w>
निष् क्रिय</w>
दि नो</w>
w s
मर ना</w>
.0 /5.0</w>
ज्वाला मुखी</w>
सि खाने</w>
स जीव</w>
प्रै क्
सो ं
म म</w>
ना श
ऊ तक</w>
लि ‍
मित्र ो</w>
एं टर
ता न
ज् वार</w>
सुपर स्टार</w>
ल व
खगो लीय</w>
च ियों</w>
करा एं</w>
फ्लॉ प</w>
बि ता</w>
स् फी
शा हज
पदो न्नति</w>
को चिंग</w>
प्रा ण
प कार</w>
आ कस्
चिकित्सा लय</w>
चि ठ्
जा दुई</w>
नी यत</w>
त ग
गद् दी</w>
रोड वेज</w>
हि स्‍
नव मी</w>
सुर ंग</w>
नो टिफिकेशन</w>
रिपोर् टिंग</w>
अनुष् ठान</w>
भर ना</w>
पल कों</w>
उपलब् धियों</w>
सौ हार्
चे गी</w>
द्र व्य</w>
खुश खबरी</w>
जिम्मे दार
सतर् कता</w>
वी आईपी</w>
ठ गी</w>
वो टों</w>
फि ंग</w>
बे वजह</w>
ऐ श</w>
कर म</w>
रह न</w>
ज्‍ यो
बह ते</w>
कौ ं
हार्ड वेयर</w>
तुझ से</w>
शी त
सम ो
बी ट</w>
वा हों</w>
s i
जमशे दपुर</w>
यु वा
198 2</w>
बा बा
शी त</w>
भर ें</w>
न् तों</w>
ार ो</w>
सी ढ़ी</w>
न स
रो ही</w>
वि कि</w>
बि रा
मि लाने</w>
बे हाल</w>
जे न</w>
वाय दा</w>
उर् वर
च ो</w>
बाबू जी</w>
बचा एं</w>
फ् लाइट</w>
अभि न्न</w>
इ क्वि
चार् ल्स</w>
प्र पो
p l
स्या ही</w>
इ ब्
प्रोसे सर</w>
जीत कर</w>
दश हरा</w>
मी णा</w>
सिने मा
197 6</w>
कम्युनि टी</w>
ज ड़ों</w>
प्रो जे
उल् लास</w>
बे रोजगार</w>
कर् मा</w>
एन डीए</w>
आमंत्र ण</w>
नर् सिंग</w>
डी न</w>
अर् जी</w>
ड्रा ई</w>
ख़ त</w>
का शी
दो स्तो</w>
लिन क्स</w>
सं क्रांति</w>
छो ड़े</w>
प ढ</w>
तुझ को</w>
हा टी</w>
अं श
द वाइ
ब्रि गे
ली म</w>
कॅं पस</w>
ही रा
डि पार्टमेंट</w>
विच लित</w>
ष कों</w>
वेस्ट इंडीज</w>
गतिविध ियां</w>
हा नी</w>
ओ स</w>
ज लते</w>
वज ों</w>
ं क
हा य
पर्या य</w>
ण वी</w>
र ची</w>
मो हि
नारा ज़</w>
ज़ा म</w>
वि रु
:4 7</w>
ं घ
हु स्
अव स्थी</w>
वर् जन</w>
ह रित</w>
लहर ें</w>
अ न</w>
घ बरा</w>
विभि न्‍न</w>
धं धे</w>
ख्वाहि श</w>
अनु मानित</w>
खामो शी</w>
स्थ ली</w>
कने क्
ए लान</w>
शा सी</w>
कर िए</w>
स्पेक् ट्रम</w>
मु न</w>
इंजि नियरिंग</w>
पत् ती</w>
न्यू ड</w>
झ ंडी</w>
लो चन</w>
उत्सु कता</w>
बन ो</w>
अनुया यी</w>
भा लू</w>
फा ल्
फ्रां सीसी</w>
प्र ख्यात</w>
गा ण्ड</w>
गो भी</w>
शिर कत</w>
खे प</w>
अस् सी</w>
अग्र सर</w>
व्यं जनों</w>
ब् लोग</w>
भि ड़
उपभो ग</w>
मा पने</w>
कार ो</w>
डेस्क टॉप</w>
वि या</w>
री ज़</w>
टॉ य
द बे</w>
ख डा</w>
म ँ
दु रा
पट ियाला</w>
कव रेज</w>
मि जाज</w>
सश स्त्र</w>
झु का</w>
उप र्
अर्थ ों</w>
बा य
बैठ ना</w>
चौ ंक</w>
3 2
न् तरण</w>
शु क्रा
पा लि
शुक्र िया
सो ल</w>
पवि त्रता</w>
मार ते</w>
लू ट
१९ ३
ख जाने</w>
न्याय मूर्ति</w>
ज तन</w>
प्रणा लियों</w>
सम्पा दकीय</w>
प्रधाना चार्य</w>
साहि ल</w>
अंगू र</w>
संवेदन शीलता</w>
गा ंगु
अनुमो दन</w>
दु ष्ट</w>
रु ख़</w>
इ मो
ता र्थ</w>
द्रवि ड़</w>
माउ ंट</w>
फ़ाइ लों</w>
डे मो
ल ंच</w>
माध्य मों</w>
हटाएं उत्तर</w>
रोज मर्रा</w>
प्‍ लान</w>
आनु वं
बुद् दीन</w>
शे ल</w>
पह े
बु लाने</w>
करा ची</w>
मि नल</w>
सम ैन</w>
सु स्त</w>
वी करण</w>
रु का</w>
सुन ें</w>
न कार</w>
पद् म
फ लक</w>
अधू रे</w>
का नी</w>
टी ईटी</w>
क्वार् टर</w>
सामर्थ ्य</w>
सु ई</w>
श्रा द्ध</w>
स् ती
हा लिया</w>
‍ मी
विजे ट</w>
फ ों</w>
विष् ‍
स् तीन</w>
ग लिय
ल क
का न्त</w>
7 6
सफा या</w>
म् परिक</w>
गह ने</w>
विकास शील</w>
सला द</w>
ग्लै मर</w>
आज तक</w>
भा स</w>
तारी फ़</w>
न का
नु अल</w>
जें सी</w>
प्र वर्तन</w>
मू क</w>
सिल् वर</w>
कुश लता</w>
पे शा</w>
तम् बाकू</w>
भाग ते</w>
नज़ रों</w>
हिंदु त्व</w>
याकू ब</w>
सी ता
डिय़ ों</w>
दा ह</w>
एम एल</w>
सैय द</w>
फं सा</w>
राज स्‍थान</w>
मौ सम
किलो ग्राम</w>
पाउ ंड</w>
प धार
सा दगी</w>
सौ गात</w>
जो गी</w>
ई न</w>
समलैंग ि
कैम् ब्रिज</w>
आ ति
विश्‍ वास</w>
टेक्ना लजी</w>
चौ दह</w>
जु टा
शु ष्क</w>
देहा त</w>
ू ंगी</w>
वि न्
बु लाकर</w>
ए बी
रज नी</w>
द हन</w>
निरा करण</w>
गाय िका</w>
चढ़ कर</w>
दिन कर</w>
मे ड</w>
फ ड़
हमला वर</w>
वि फलता</w>
रो ता</w>
अभ्य र्थी</w>
प्रवा हित</w>
ग्री न
ढां चा</w>
व नों</w>
तु र</w>
सं वर्धन</w>
सवे रे</w>
t w
छा न
ब सें</w>
प्राइ मरी</w>
ल ताओं</w>
चु री</w>
रख ेगा</w>
उन् नी
जो त</w>
लो गे</w>
उन् मुक्त</w>
इन् स्क्रिप्ट</w>
सिम ट</w>
य ें
ग्रे टर</w>
गा व
द स
काले धन</w>
हो स्ट</w>
नन् हे</w>
चमत् कारी</w>
वृ ह
चम कदार</w>
पैं ट</w>
र् ग
पीएच डी</w>
क पल</w>
न ॅ
छी ं
हेक् टेयर</w>
महारा णा</w>
चढ़ा व</w>
सजा वट</w>
कु की
गा म</w>
सि क्यो
वा चक</w>
मो र
की ट
चैत न्य</w>
मह त्व
अफ़ सोस</w>
ड़ े
लख ी
201 6
अभि मान</w>
चाहू ँगा</w>
वृ त</w>
मा हिर</w>
जाग ृत</w>
सा व</w>
शा लिनी</w>
धन बाद</w>
पा पों</w>
स्टो न</w>
ट च</w>
साम ्य
क्षि तिज</w>
वि त्‍
से ट
गो ला</w>
बां टा</w>
ड्र ै
सं त
पिछ ला
नी दर
उप चुनाव</w>
छ ठी</w>
बढ़ा ता</w>
हड़ कंप</w>
न ारी
ार े
दु र
म ू</w>
कब ड्डी</w>
विवादा स्पद</w>
ठ हरा</w>
गु ट
कर् ट</w>
प्रशं सकों</w>
चैम्पिय नशिप</w>
प्ले न</w>
क डे</w>
एजेंस ियां</w>
स् फू
क या</w>
सु गंध</w>
निक ट
एचआई वी</w>
सन्ना टा</w>
यो धन</w>
भ्र मित</w>
दी वान</w>
बॉ क्
ढो ल</w>
चि ल्ला</w>
ये ँ</w>
मर णीय</w>
ट र्म</w>
भारत कोश</w>
भया वह</w>
अनुकू लित</w>
घिनौ ना</w>
मु स्त
कथा एं</w>
पूर् वजों</w>
ग्रं थि</w>
8 4
कम ्यू
सु मित</w>
वायु सेना</w>
कर्त व्यों</w>
मू र</w>
मै सूर</w>
कां स्टेबल</w>
दरवा ज़े</w>
ंग ता</w>
ट्रा यल</w>
साइ ज़</w>
अभिभाव क</w>
अफ़्री का</w>
पुरु षो
औरंग जेब</w>
फर ्रु
स् कार</w>
स्त ू
झू म</w>
माय के</w>
ता ले</w>
तत् त्व</w>
प तं
कार् ट</w>
आर् काइ
खा सियत</w>
स् वर्
अभिभाव कों</w>
नगर पालिका</w>
प्रण व</w>
पांच वें</w>
फै लने</w>
पढ़ें जून</w>
कै रे
खिला फ़</w>
थॉ मस</w>
आ हु
पहुँ ची</w>
ला म</w>
श्वे ता</w>
४ ५</w>
मि लि
फ़ै क्टर</w>
साध् वी</w>
मे ें</w>
बी डी
गुल ज़ार</w>
दर् स</w>
वैष्ण व</w>
भाषा एं</w>
अश् व
से शन</w>
ल श्
दर् जे</w>
य ारों</w>
हा फि
फ़ाइ लें</w>
गांगु ली</w>
घटा ओ</w>
ट्रें ड</w>
द रत</w>
दा स्ता
अँधे रा</w>
च ारे</w>
मुझ में</w>
दरा र</w>
डि वी
सी पी
प्रतियो गी</w>
स्रा व</w>
डेवल पमेंट</w>
पि ंज
पीडि़ त</w>
या ंत्रिक</w>
236 6</w>
उ च्चा
पुलिसक र्मी</w>
फट कार</w>
समा चारों</w>
इ बाद
मू लन</w>
इतिहा सकार</w>
बॉ र्
पॉ वर</w>
10 2</w>
फर् नीचर</w>
ड र्
यात्रा यें</w>
मा पी</w>
हृ दयाघात</w>
नाय डू</w>
प्र ज्ञा</w>
साव धा
क सर</w>
भू खा</w>
७ ०</w>
द् वेष</w>
पहचा नने</w>
स् वे
दबा एं</w>
प्र लय</w>
अ रे
11 ,
ज लाकर</w>
के सरी</w>
कार पोरेट</w>
समा हित</w>
लि व</w>
सम् मुख</w>
सूक्ष् म
अनुकू लन</w>
फेर बदल</w>
बा ं</w>
ल ड़ी</w>
खिलौ ना</w>
प ण्डित</w>
संभ ल</w>
ए ट
व ना</w>
बचा ए</w>
चम की
प्रे षण</w>
अमाव स्या</w>
व शि
ष् मा</w>
को री</w>
जिन् ‍
पार म्परिक</w>
सल् लम</w>
कह लाते</w>
अभि व्यक्त</w>
पट कथा</w>
छोड़ ते</w>
ग्र ैंड</w>
12 ,
ब ट्
बू ढ़ा</w>
आ जीविका</w>
अनु प्रेषित</w>
रच यिता</w>
हॉ र्
गिरी श</w>
आ वृत्ति</w>
डि ली
अफ वाह</w>
आराम दायक</w>
कर ारा</w>
ख़ याल</w>
जोड़ ता</w>
मज़ा क</w>
ट्यू मर</w>
सेके ंड</w>
का कर</w>
म ियाँ</w>
शि कं
श्र ुति</w>
बद तर</w>
बू थ</w>
जि गर</w>
ग ट</w>
12 2</w>
बा कि</w>
सम् प्रदाय</w>
बा ल्
चढ़ ाई</w>
क म्‍
निय ल</w>
अदाल तों</w>
ऑ स्कर</w>
है ...
13 :
पी ली</w>
मह त्‍व
कार् ब
ओ ँ</w>
श्‍ वर</w>
नै नो</w>
चिह् नित</w>
पड ता</w>
ढ़ ाई</w>
टा ंग</w>
आगंतु क</w>
कच रे</w>
पै लेस</w>
सुंद र
2. 9
प् लग
कप्ता नी</w>
1 18
रक्‍त चाप</w>
सर कार
सेमि नार</w>
का ॅ
पर्या वर
घि रे</w>
पठ न</w>
द ारा</w>
ृ ति</w>
दा न्त</w>
सभा ओं</w>
भव नों</w>
ज स</w>
क़ रीब</w>
गाँ ठ</w>
फ ला
हा स्या
क्रम बद्ध</w>
मु ग़
कू ड़ा</w>
ड रता</w>
तु झ</w>
फु ल
जॉ र्
फ्रे म</w>
महा देवी</w>
कृष् णन</w>
रिवा ज</w>
मुख ौ
वस्तु तः</w>
गै लेक्सी</w>
मूर् तियों</w>
फ् ट
र्म ियों</w>
खब रे</w>
प ें</w>
फ क्
इलेक् ट्रो
ऊ न</w>
इन मे</w>
वा ली
चन् दन</w>
गं दी</w>
ब त्
झु र्र
सुरे न्द्र</w>
पृष्‍ ठ</w>
स जाया</w>
इलेक् ट्रि
ले श्वर</w>
राजनी ती</w>
रो जी</w>
मै क</w>
पह नी</w>
लड़ कियाँ</w>
कला त्मक</w>
सन सनी</w>
मी डिया
पा एगी</w>
इला का</w>
होम ्यो
धरा तल</w>
चर् य</w>
गु ड
हिंदु स्तानी</w>
सूर्यो दय</w>
रो ग
फ ैंस</w>
रा स्तों</w>
मा था</w>
ति ब्ब
ज्ञ ों</w>
गुर् दे</w>
वार िस</w>
फाइ नें
भू निर्माण</w>
सं कु
भड़ के</w>
बना एंगे</w>
अभि वादन</w>
जी पी</w>
हटा कर</w>
निभा ते</w>
लोका युक्त</w>
गो लियों</w>
चंद्र शेखर</w>
कद मों</w>
निया मक</w>
ल ौ</w>
दुर् गा
अल वर</w>
क ंडी
धर् मी</w>
के गा</w>
खर् चा</w>
बे सब
रिसो र्ट</w>
अर मान</w>
ल फ्
खो र</w>
बार हवीं</w>
चक्र वर्ती</w>
क्रॉ स</w>
5 3
अब्दु ल्ला</w>
टि विटी</w>
म ्यु
मा ते</w>
प्रिं टर</w>
त् ‌</w>
बा बर</w>
उ ड़ने</w>
बा एं</w>
इं फेक्शन</w>
अ स्वीकार</w>
धूम धाम</w>
अनु भव
अ ज्ञेय</w>
मना थ</w>
मचा या</w>
मा फ़ी</w>
रू पा</w>
खा क</w>
अर् जें
प ु</w>
ब्र ू</w>
अ सुरक्षित</w>
रु द्दीन</w>
षड ्य
आंग न
पु त्रों</w>
शक्ति करण</w>
फुर् सत</w>
निर् वाह</w>
मा एं</w>
उंग लियों</w>
पढ़ें फ़रवरी</w>
नि वार
मुख र</w>
ल् सन</w>
पाश् चा
व्य भि
सब र्ग</w>
हाइ वे</w>
बाधा ओं</w>
ला इन
श न्स</w>
महा निदेशक</w>
ब ड़ा
इंडस्ट्री ज</w>
ार ें</w>
आ दी</w>
पि ट
अनू ठा</w>
सा वि
डि फ़ॉ
फै जाबाद</w>
इमार तों</w>
ह राम</w>
जी एम</w>
स्ट डी</w>
अ नीता</w>
गा जीपुर</w>
फै गी</w>
सेवानि वृत्त</w>
क्रिया न्वयन</w>
मिट टी</w>
संबो धन</w>
ऐक् ट्रेस</w>
ठे के
मेरि ट</w>
ऑटो फैगी</w>
लू ंगा</w>
वि श
अरो ड़ा</w>
इन् होने</w>
फार् मर</w>
198 1</w>
म शाल</w>
लग ें</w>
सु चार
रू नी</w>
रिया सत</w>
भिन् नता</w>
स ि</w>
उपर् युक्त</w>
मू वी
इन् वेस्ट
बहु मूल्य</w>
मु हर</w>
न वे
शी श</w>
शु द्धि</w>
ट्यू बों</w>
भड़ क</w>
निका लें</w>
छान बीन</w>
प्रॉ ब्लम</w>
चहच हाना</w>
है दर</w>
बे ं
बा लू</w>
कल ह</w>
कां स्य</w>
न द</w>
डे निश</w>
तस्‍वी रें</w>
पि क्चर</w>
आश्व स्त</w>
स्प ष्टीकरण</w>
अव ध</w>
ट ब</w>
पा टिल</w>
डू बने</w>
डेन मार्क</w>
ई वीएम</w>
ओ सी</w>
पक्ष ीय</w>
जगन् नाथ</w>
स त्र
ल् लाह</w>
भड़ा स</w>
मार् टिन</w>
उम ंग</w>
गी ला</w>
इं द्र</w>
तार् किक</w>
दुर् योधन</w>
सं जो
बु झा
लेस् बियन</w>
छा पे</w>
ड कास्ट</w>
गुरू वार</w>
चू हे</w>
भा ड़</w>
पे न
असं ख्य</w>
देवे ंद्र</w>
बा लो
बहु जन</w>
संपा द
सप् तम</w>
197 3</w>
घट न</w>
छापे मारी</w>
मह त्ता</w>
तू फ़ान</w>
अनु पालन</w>
जन नी</w>
स् त्रों</w>
जा ली</w>
गर मा</w>
बु न्
ब् बर</w>
कब् ज</w>
महत्‍व पूर्ण</w>
अ क्षा
भर तपुर</w>
म लाई</w>
माइ श</w>
स् क्
चा ही</w>
ल न्दन</w>
सु दूर</w>
गु ड़िया</w>
जड़ ें</w>
ती खी</w>
दी प
पा र्थ
मे घ</w>
माल वीय</w>
र् ति</w>
निष् का
पाकि स्‍तान</w>
नक्स ल</w>
सं ख्य
खंड न</w>
ज़रु रत</w>
साध ्य</w>
कु ण्डली</w>
हेल् थी</w>
ते रस</w>
विद्रो ही</w>
राज्य मंत्री</w>
ल् फ</w>
ली ड</w>
लू टने</w>
ए त
स्को प</w>
त ल्
रेखा ंकित</w>
आकस् मिक</w>
कर तीं</w>
फे ल
द्वी प
विवे चन</w>
जोड़ ना</w>
पतं जलि</w>
जु टाने</w>
मल् टी</w>
निर् भरता</w>
क भार</w>
वा ते</w>
बैक् टीरिया</w>
टिप ण्
स मेंट</w>
रा नी
छला ंग</w>
3 06
पथ री</w>
एल बम</w>
स् वर्ण
इ मर
बैठ ता</w>
स्ट र्
मे ज़बान</w>
व्‍यव स्‍था</w>
घा टा</w>
एक् टिव</w>
जा ने
ही नता</w>
सुना मी</w>
196 5</w>
325 भाषा</w>
सन् नी</w>
राज न
मच्छ र</w>
पार्ट ियां</w>
जमी नी</w>
भग वा</w>
मेज बानी</w>
हि दा
डिली वरी</w>
पूर्ण तः</w>
त् विक</w>
तला शी</w>
अना यास</w>
हे ल
सक्र ीम</w>
ंग ड़ा</w>
अहम ियत</w>
ज द
री ढ़</w>
न् त
नागार् जुन</w>
फर्रु खाबाद</w>
ब छ
णा ल</w>
राम जी</w>
नती जों</w>
नदि याँ</w>
गु त्
वि द्व
राष्ट्र गान</w>
विकि रण</w>
गु दा
बेव फा</w>
सक े
हि लेरी</w>
डिजा इनर</w>
स को</w>
ह नी</w>
जन संपर्क</w>
संतु ष्टि</w>
बिज़ ्
राम पाल</w>
कार्या न्वयन</w>
पॉ ली
न्‍ या
19 48</w>
बि का</w>
खा द्या
व्य स्त
बन् धु</w>
छत्तीस गढ़ी</w>
क बाड़
प्रोड क्ट</w>
फि ली
उद्देश ्यों</w>
डिफ़ॉ ल्ट</w>
इ ने
सी नो</w>
मा तृ</w>
वि क्टो
मु न्ना</w>
2012 व्यूस</w>
हृ दय
ee t
वेब साईट</w>
कड़ ा
सूर ज
मिठा स</w>
बि खे
अ स्त</w>
पहचा ने</w>
मस ला</w>
सी टी</w>
शा लाओं</w>
िय ॉ</w>
या हू</w>
चढ़ ने</w>
स नी
स्ट्रो क</w>
मु क़ा
उम् ‍मी
एक् टिंग</w>
धर्म निरपेक्ष</w>
निमि त्त</w>
विश्‍ व</w>
मा पा</w>
ता पूर्ण</w>
सि क्का</w>
197 9</w>
ता ल्
ज्योति षी</w>
समे ट</w>
दोष ियों</w>
कल्याण कारी</w>
देख रेख</w>
15 .
रेश म</w>
ही रोइन</w>
ज्‍यो ति
ड च</w>
ना भि</w>
1 12</w>
प् प</w>
पु ख्ता</w>
प्रस्‍ तु
बॉ य</w>
उत्ते जक</w>
अहि जा</w>
ना गा
क्यू टिव</w>
तन् हा</w>
दरवा ज़ा</w>
अंध विश्वास</w>
द क्षता</w>
भा प</w>
गु वा
डि ल</w>
10 4</w>
प्रा व
देवे न्द्र</w>
अ मूल्य</w>
गा उट</w>
पा ण्ड
५ ००</w>
सापे क्ष</w>
दे वी
3 000</w>
19 30</w>
य शो
वि न्यास</w>
दू जे</w>
मुस्कुरा ते</w>
पर् दा
उत्‍ तर</w>
करोड़ पति</w>
व्यू ह</w>
स्व तन्त्र</w>
हंग री</w>
इ तर</w>
ठे का</w>
बिज़् नेस</w>
तेलु गु</w>
र सूल</w>
बी जिंग</w>
सी कर</w>
ए फ़</w>
थ िक</w>
श क्तियां</w>
मा यू
स्कॉ टलैंड</w>
टाइ टिस</w>
चुं ब
या ने</w>
13 5</w>
के र
गै जे
जिन मे</w>
स्कू टर</w>
स घन</w>
म ली</w>
17 0</w>
प्र दाता</w>
हिदा यत</w>
लिख ें
तट ीय</w>
कॉम र्स</w>
दी व</w>
10 24</w>
फौ जी</w>
ज् वाला</w>
रं जना</w>
ओ के</w>
बं सल
जै क
आदर स्वरूप</w>
पु ल
स्‍ प
0000 0000
पाश्चा त्य</w>
गठ िया</w>
चु निंदा</w>
तन् हाई</w>
इक लौ
श्रो ता</w>
कुल् लू</w>
उद्ध व</w>
चूत ड़</w>
अं कुर</w>
ँ क</w>
सि डनी</w>
सं क्रमित</w>
वेब साइटों</w>
य न्त्र</w>
औ ऱ</w>
उत्सु क</w>
के र</w>
की करण</w>
एयर लाइंस</w>
रु की</w>
करिश् मा</w>
अल् प</w>
दु ष्य
हास्या स्पद</w>
मान ंद</w>
जु काम</w>
से बी</w>
डा न</w>
ख़ू बसूरत</w>
ति क
लाई ट</w>
दुश् मनों</w>
पं हु
दि गम्बर</w>
लॉन्‍ ड्री</w>
ब जाने</w>
वि क्रय</w>
प लाइन</w>
ए के</w>
ब्र ै
आ सार</w>
उ बाल</w>
जस् वी</w>
कन्नौ ज</w>
जा किर</w>
वृत् तियों</w>
रिटा यर</w>
ट िय
साम रिक</w>
रो ती</w>
क फ</w>
न् सी</w>
प्र वर्
क् कन</w>
मा ताओं</w>
आभा सी</w>
अप ो
ऋष ियों</w>
तत् पर</w>
कामना एं</w>
अश् ली
न लाल</w>
मो हाली</w>
आई ने</w>
तू ल</w>
कैश लेस</w>
राजनीति ज्ञ</w>
साधु वाद</w>
पार दर्शिता</w>
इच्छा ओं</w>
o s
माध्‍ यम</w>
पक ने</w>
रि से
इ ल
गवर् नमेंट</w>
ऑ प्
रवि कर</w>
मि लीं</w>
छे ड़</w>
भू रे</w>
थ मा</w>
प्रक्षे पण</w>
टो रियल</w>
कठि नाइ
196 7</w>
अंड मान</w>
पागल पन</w>
हस्तरे खा</w>
त् वा
घु सकर</w>
प्रभु त्व</w>
अनु भू
धु लाई</w>
प राज
अप र्
मि लाया</w>
महा जन</w>
अल्पसंख्य कों</w>
जानकार ियाँ</w>
धी रज</w>
सामं ज
काँ ग्रेस</w>
आ घात</w>
निगा हें</w>
कु पोषण</w>
बुल ंद
बि स्त
डी आर
सि स्ट
टॉय लेट</w>
शी घ्र
थ र
नि स्ट</w>
मलया लम</w>
दे ह
चित् तौ
शि ंग</w>
उन् माद</w>
ने ह</w>
खे द</w>
पो त</w>
प्रति स्पर्
यथा र्थ
बर्खा स्त</w>
पा दित</w>
अन ै
डाक् टरों</w>
ला चार</w>
है ल्
किन ारा</w>
ष णों</w>
शो षित</w>
आ बन
दिशा ओं</w>
ब् बल</w>
साइ टिका</w>
एम डी</w>
शू ल</w>
बिज़ नस</w>
ठि काने</w>
ज लाया</w>
टि कन</w>
दु र</w>
प्रविष् टियाँ</w>
ल ौर</w>
क्ष मताओं</w>
गो ंडा</w>
वा च
न हा</w>
जु डे</w>
स्त्रो त</w>
ड रा</w>
मनी षा</w>
जो ड
ओ र
पढ़ें जनवरी</w>
ार ू</w>
/ 11/
भी तरी</w>
से क्रे
कम्प ्यू
ए पी
वि कृत</w>
की बोर्ड</w>
अं जु
पढ़ें आगस्त</w>
197 4</w>
8 2
बि गाड़</w>
बं बई</w>
आई ये</w>
स्वि च</w>
मो ती
खीं चने</w>
पु स्‍
अव य
नि चे</w>
नमा ज</w>
क णों</w>
कोले स्ट्रॉल</w>
गिर ती</w>
पु त्र
वाइ फ</w>
अं बाला</w>
दी क</w>
एव रेस्ट</w>
पुरस् कारों</w>
कविता येँ</w>
श त
द्व ी</w>
रे टेड</w>
सूर् या
द्र व्य
जमा त</w>
के सर</w>
प्री तम</w>
भे जना</w>
201 8</w>
विष यक</w>
सम ता</w>
ह सीन</w>
प्रति लिपि</w>
उड़ा ने</w>
किन् नर</w>
टा यर</w>
मान दंड</w>
गन् ने</w>
झ ड़
५ ८</w>
स्थ ता</w>
हि ब्रू</w>
भो ग
क ारे</w>
दी या</w>
भै रव</w>
19 56</w>
दुर् भाग्य
डि़ यों</w>
प न्द्र
या र्क</w>
शिका गो</w>
एनजी ओ</w>
टिपण् णी</w>
राज दूत</w>
चा टने</w>
हा था
वी णा</w>
प्रदर्शन कारियों</w>
घ राने</w>
बर से</w>
हज रत</w>
लो केशन</w>
प की</w>
स्वास्थ ्य
क्‍ शन</w>
ना मे</w>
खो लें</w>
वेल् थ</w>
एंड्रॉ यड</w>
जय प्रकाश</w>
मैग जीन</w>
एम ्</w>
मल् लिका</w>
बि गा
सुन्दर ता</w>
मी नाक्षी</w>
बया नों</w>
10 ,000</w>
इक्वि टी</w>
एप्ली केशन</w>
ली डर</w>
व ू
1 11</w>
सम् मले
वरी यता</w>
सी ंग</w>
थाना ध्यक्ष</w>
टै ग्स</w>
द शर
फ़ न</w>
मेज बान</w>
शर् म
पा ले</w>
चौ ड़ाई</w>
नजदी की</w>
, 2017</w>
अ खंड</w>
फें कने</w>
चतु र्थी</w>
तकनी कों</w>
कर वट</w>
म ट
सूचना एं</w>
tw eet
२०० ६</w>
इलेक्ट्रॉ निक्स</w>
ल की
स् काउ
स्फी ति</w>
धो खे</w>
क सरत</w>
माइ ग्रेन</w>
ब्लो गर</w>
ठ न</w>
उठ ो</w>
१९ ०
फ़ै सला</w>
सी बी
ग्रन् थों</w>
पट क</w>
गर्भा शय</w>
�������������������������������������������������������������������������������������������������������������������������������� ��������������������������������������������������������������������������������������������������������������������������������
कैपि टल</w>
लं बन</w>
पु कारा</w>
व फा
वा ंस</w>
उद् गम</w>
ऊँ गी</w>
स्ट्र िया</w>
हरिया णवी</w>
ता वाद</w>
सार थी</w>
शिया ई</w>
च प्पल</w>
कुं वर</w>
प्रति वेदन</w>
0. 00</w>
छ द्
ज म्
अ बू</w>
एम सीडी</w>
14 .
दर्शा या</w>
हे मंत</w>
आवे दक</w>
दौ ड़ने</w>
ट्रे नें</w>
196 9</w>
शांति पूर्ण</w>
7 4
अं धे</w>
ह कदार</w>
दो ई</w>
दृ ढ़ता</w>
रू पा
16 :
व्यवस्था ओं</w>
फा ँसी</w>
क़ दम</w>
गा ता</w>
पा पी</w>
रे सिंग</w>
शि कारी</w>
सर्व था</w>
ट करा</w>
सार्व भौ
नव ो
कर् ण
पच्ची स</w>
सं ज्ञान</w>
ब ड़ों</w>
चा हो</w>
गॉ सिप</w>
पॉलि टिक्स</w>
बा न
आंदोल नों</w>
बीएस एनएल</w>
चिकित्‍ सा</w>
कि रण
चार ि
तु ल्य</w>
लू ँगा</w>
शरा ब
डू बी</w>
बुलंद शहर</w>
चाली सा</w>
लौ टकर</w>
त बी
आ ह
आ नी</w>
हल के</w>
ज़्या दातर</w>
जि ल्
रूपां तरण</w>
रुप यों</w>
क्रि स</w>
मॉ नि
एस ईओ</w>
म ला
पाण्डे य
कु दरत</w>
पास वान</w>
गुवा हाटी</w>
हु ँ</w>
डी यू</w>
सब ी</w>
ह वेली</w>
ट् टू</w>
देश भक्त</w>
ओ रि
आधार भूत</w>
जी रिया</w>
डॉ ग</w>
क्रिए टिव</w>
र् पण</w>
स् वर्गीय</w>
चाहू ंगा</w>
निय ो</w>
बा ंस</w>
त्या ग
माइक्रो वेव</w>
वि सर्जन</w>
मत् स्य</w>
जं तर</w>
चि कना</w>
दा नव</w>
च रण
स् कर्ट</w>
पं थियों</w>
197 8</w>
न ्यो
प ौर</w>
ह ण</w>
क् लीन</w>
अ ब्रा
6 5
क गार</w>
को ल्
इबाद त</w>
श शि
यू टर</w>
और ंगाबाद</w>
है ः</w>
विध िक</w>
टे स्‍ट</w>
परि चर्चा</w>
मध ्या
विरो धा
टॉ क</w>
वि लिय
टे नमेंट</w>
कल्प ना
ज़ हर</w>
चु द
छु प</w>
संघर् ष
राष्ट्र ों</w>
अर् ध</w>
साह नी</w>
सं क्रामक</w>
बन् दी</w>
नज रों</w>
जद यू</w>
का ट
c i
ख जुरा
शा ब्
बिता ने</w>
हो त्रा</w>
जा तीं</w>
ताइ वान</w>
दिखा ती</w>
12 3</w>
वे लेंटाइन</w>
आईपी ओ</w>
तत्वा वधान</w>
खु लेआम</w>
ग न
दी ना</w>
था ओं</w>
प्लग इन</w>
रे स्त्रा
रह स्‍य</w>
दो हरी</w>
मॉ ड्यूल</w>
मातृ भाषा</w>
ज़र िये</w>
घा टे</w>
ट ॅ
दुर् घटना
आत्म घाती</w>
अ ज्ञान</w>
जिहा द</w>
जल् दबा
हु आ
धार ण
एनबी टी
का स्टिंग</w>
सा मा</w>
मो म
पे टेंट</w>
लो ना</w>
वि ष्ट</w>
नॉ र्थ</w>
चाँ दनी</w>
लू टा</w>
फेड रेशन</w>
हा ंग
दु नियां</w>
वे री</w>
त त्व
दीर् घा
वार्ताला प</w>
पि ंड</w>
ल र
झु ं
अ नियमि
बीर बल</w>
लग ंज</w>
बंध ों</w>
नि खार
चि त्रा</w>
ज लता</w>
ने ता
सुना ते</w>
नम कीन</w>
निय न्त्र
ज गाने</w>
पृथ्वी राज</w>
सि कु
पी सकर</w>
पारिस्थि तिकी</w>
स्त्र ियां</w>
जा नि
बु लाई</w>
इर फान</w>
श हा
बि लियन</w>
पा ओगे</w>
सम्मले न</w>
घ रे</w>
रे न्द्र</w>
तरु ण</w>
र पट</w>
गो त्र</w>
उद् दीन</w>
वीडियो स</w>
10/ 10</w>
नी ल
1 15</w>
पी यू
क्लि प</w>
दा वत</w>
अनु ग्रह</w>
केमि कल</w>
त श्
बे क</w>
पि च</w>
फ्लै श</w>
व शी
चौ ड़ा</w>
आकाश गंगा</w>
ठ हरे</w>
एन आर
अब तक</w>
हॉट फिक्स</w>
कार्य लय</w>
हि म
सह गल</w>
गा यों</w>
सं ब
सू ती</w>
जाय सवाल</w>
फ़ॉ न्ट</w>
ए नल</w>
उपलब्ध ियां</w>
8 3
ब ट
सीआर पीएफ</w>
से कुलर</w>
आई फोन</w>
एकी करण</w>
गा ती</w>
मान जनक</w>
अना र</w>
कु क</w>
को ला
मु खा
हु कू
सर्व त्र</w>
स वी</w>
निशा नी</w>
रोज़ गार</w>
आर्काइ व</w>
दे वा
रॉ य
रेस्टो रेंट्स</w>
म ऊ</w>
दि यां</w>
औ जार</w>
ले जर</w>
पत् तियां</w>
राय बरेली</w>
सं प्र
टि की</w>
कन्न ड़</w>
इं साफ</w>
15 ,
सरह द</w>
ह नी
यु ध्द</w>
पुनर् जन्म</w>
एनबीटी मेरा</w>
इलेक् ट्रा
खुश हाल</w>
मास्ट र्स</w>
वि जि
2007 व्यूस</w>
गी ता
पूंजी वाद</w>
शिरो मणि</w>
बा ट</w>
कि ल
कम लेश</w>
गुण गान</w>
अलै हि</w>
ध ब्बे</w>
चुंब कीय</w>
वि लुप्त</w>
स्टे टस</w>
कॉन् फ़ि
सु ध</w>
अब् बास</w>
कंप ्यू
लूको ज</w>
6 4
धन तेरस</w>
ला देन</w>
खु ल
जी ब</w>
२०० ३</w>
एक्सपर् ट</w>
डा कू</w>
लड़ ना</w>
तौ बा</w>
ब ियर</w>
जी ते
ट्रि पल</w>
बाइ बल</w>
एक्‍ सरसाइज</w>
9 00
ख ली</w>
9 :00</w>
विजे ताओं</w>
तब ियत</w>
स्था ना
अं क
ब्रा ंच</w>
परिष् कृत</w>
फि स
10 6</w>
रूप ण</w>
एक्यूपं चर</w>
फाइनें शियल</w>
सभा पति</w>
सरे आम</w>
मं ज़िल</w>
राम कृष्ण</w>
गंगा नगर</w>
खा ओ</w>
क़ु र
गैजे ट्स</w>
र् ड्स</w>
हाफि ज</w>
नुक् कड़</w>
पि तृ</w>
अक्षा ंश</w>
गुज रते</w>
यौ वन</w>
यू नी
प्रां तीय</w>
स् कों</w>
वि लक्षण</w>
शा ली
लॉ र्ड</w>
पुलिसक र्मियों</w>
प्र भाग</w>
साम ग्र
धा न
मे घा
कि ‍
कार्ब निक</w>
कु एं</w>
स विता</w>
आलोच कों</w>
कम्प नियों</w>
ड्ड षि</w>
कि नी</w>
सर् द</w>
लि खिए</w>
्य म</w>
ंड ु
आ रा</w>
राज द</w>
डे बिट</w>
विवा हिता</w>
हाथ ो</w>
अ ल्‍
बला त्
फु रसत</w>
रो या</w>
कै सीनो</w>
आजमा यें</w>
वि ंदर</w>
टै क्
महा काव्य</w>
अप्र ू
12 3
औ कात</w>
पै केट</w>
स्कै न</w>
मार ो</w>
अंत त</w>
हे लि
बुद्धि जीवियों</w>
ट्रांस फार्मर</w>
डे क्स</w>
ना प</w>
चौ थाई</w>
मर् या
क �</w>
दुर् दशा</w>
तन ु</w>
विधि वत</w>
जी ज</w>
समस्या एँ</w>
स वाई</w>
चु म्ब
मां झी</w>
ध्र प्रदेश</w>
खो जा</w>
यू थ</w>
कौ ल</w>
भ ैं
महा पौर</w>
पूर्वा ंचल</w>
वि मानों</w>
चला ता</w>
अर्जें टीना</w>
ऐ न</w>
ब जाज</w>
ओ वैसी</w>
मे थी</w>
न् दा
बी ॰
ने वालों</w>
पूर्वा नु
कुमा ऊँ</w>
फेल ्योर</w>
धा गे</w>
ती नो</w>
द ता</w>
9 7
कार्य क्षेत्र</w>
७ ८</w>
ि न</w>
शुक्रिया अपना</w>
भि षेक</w>
देश वासियों</w>
कर नाल</w>
ड ंडा</w>
कालि दास</w>
आवा जें</w>
क ंड
म र्म</w>
जा द</w>
बा जी
लम् हे</w>
है क</w>
स्वी कार्य</w>
ज़िम् मेदारी</w>
अप मानित</w>
संक लित</w>
टे लर</w>
बु ध्द</w>
साँ प</w>
निकट तम</w>
तं बाकू</w>
अनु प्रयोगों</w>
पै गंबर</w>
आगंतु कों</w>
‍ द</w>
औ चि
लगा यें</w>
संस् कृतियों</w>
मज हब</w>
ॐ ॐ
ना स्तिक</w>
चि प</w>
बार ह
जन्‍ म</w>
मि थक</w>
ज़ ख्
पर ि</w>
इन् दिरा</w>
स्‍पे शल</w>
ते रह</w>
जाइ श</w>
पु तली</w>
डे जा</w>
मूर् ति
युव तियों</w>
कैम्प स</w>
अराज कता</w>
शुभकामना ओं</w>
नार ंगी</w>
श क्कर</w>
बैंग लोर</w>
दुश् मनी</w>
खीं चा</w>
2008 व्यूस</w>
बु झाने</w>
क्वि ज</w>
अ ट्
पर् न
प्रेग नेंसी</w>
य मन</w>
14 4</w>
सुझा वों</w>
छ त्र
मो हर</w>
ड्रा फ्ट</w>
खजुरा हो</w>
ना पसंद</w>
आइ सक्रीम</w>
सॉ ना</w>
यूनि कोड</w>
अ णु</w>
यु रोप</w>
मस् जि
अस लियत</w>
स ्र
सोच ें</w>
विवेकान न्द</w>
बिरा दरी</w>
धा तुओं</w>
एका एक</w>
गुम राह</w>
बिजन ौर</w>
हु ड्डा</w>
बे चारी</w>
ं जय</w>
आ देशों</w>
14 :
ने त्र
एड मिशन</w>
फ ंस
थ ्री</w>
मिन टों</w>
पराज य</w>
हुस् न</w>
उन् मूलन</w>
यात्रा ओं</w>
तुल नात्मक</w>
पी जी
फि न
डी एम
ड्रा ई
पर्व तीय</w>
भेज कर</w>
सार्थ कता</w>
सुन हरा</w>
बु झा</w>
पत ले</w>
पी ढी</w>
गर् ल्स</w>
हे मा</w>
2. 8
दो षों</w>
इं डि
झा ड़</w>
मित् तल</w>
इस रो</w>
ग्र े</w>
चल चित्र</w>
सिक ंदर</w>
प्रति ज्ञा</w>
ग् ला
मुक्ति बोध</w>
कं द</w>
मा 0</w>
रि श</w>
रो ट</w>
गर्भ धारण</w>
इलेक् ट्रिक</w>
ति तली</w>
ंड ल</w>
विश्वा स
आ ँ</w>
हे नरी</w>
घ ड़े</w>
क़ ै
सो मनाथ</w>
विद ों</w>
कलं क</w>
थि र
य र्ड</w>
नुस् खा</w>
रिकॉर् डिंग</w>
हाइड्रे ट</w>
पू न</w>
क्ष ु</w>
अ छू
दशर थ</w>
बू टी</w>
चौ टाला</w>
लका य</w>
खेल कूद</w>
मुख्य धारा</w>
सब् र</w>
स त्तर</w>
एका धिक</w>
दार ू</w>
टो ली</w>
स्ट्र ै
दिखे गा</w>
13 .
ढ ु
निय मन</w>
दे ल</w>
तो ड़ी</w>
फ टा
प्या ला</w>
अ लौकिक</w>
धमा केदार</w>
ख दे
लै न</w>
13 ,
राय गढ़</w>
मा तृत्व</w>
बीएस एफ</w>
डा ॅ</w>
एजेंस ियों
राज े
प ढा
मा दक</w>
्र म</w>
या मत</w>
ह ने</w>
फ़ा यर
ज ड़ा</w>
ज़ ू</w>
घू मती</w>
नन् ही</w>
शा ख</w>
वी रता</w>
शी तकालीन</w>
प्र खर</w>
एं जे
ले ंट</w>
उत् सर्जन</w>
श् च
एम आई
कोशि शें</w>
ऐ त
सो नी
हा से</w>
बै लेंस</w>
ना ला</w>
सामंज स्य</w>
i t
लग े
जिते ंद्र</w>
शरार ती</w>
छ ड़ी</w>
प्र पात</w>
श् या</w>
सप् तर्
लश् कर</w>
जर लैंड</w>
रेस्त्रा ं</w>
है रत</w>
घु सने</w>
आदि म</w>
प्रश् ‍न</w>
का व्या
मी नार</w>
प्रसि द्धि</w>
पॉ लिश</w>
1 17</w>
न ल
र ब</w>
ह त्
टी का
त ह</w>
अ दि
हल वा</w>
र सिया</w>
आ श
सरा हा</w>
पा व
ले प</w>
लक्ष ्यों</w>
स् वर्ग
दि व्या
‍ त</w>
गोप नीय</w>
प ण
लो त</w>
स् ति</w>
लौ टना</w>
चे ष्टा</w>
सिद् दीकी</w>
बॉ म्बे</w>
सम्बो धित</w>
भो ला</w>
दू कान</w>
खुर् शीद</w>
स स</w>
अ निश्चि
कॉर पोरेट</w>
ए गो</w>
भ इया</w>
मे टा
बी जों</w>
रिय म</w>
12 8</w>
जा ऊँगा</w>
हेली कॉप्टर</w>
वि र
रख िये</w>
फ् लोर</w>
हाई स्कूल</w>
ब्य ौरा</w>
ईर् ष्या</w>
रु द्र
भती जे</w>
फिक् स्ड</w>
नि टी</w>
आर टी
घटना स्थल</w>
ब द</w>
म ण्ड
नज रें</w>
ट के
य ारी</w>
खा ये</w>
ब सु</w>
त फ
खू नी</w>
़ ा
घट ने</w>
हांग कांग</w>
डिस् प्ले</w>
ब लू
सा ज</w>
पै सेंजर</w>
न कोट</w>
बु ला
मू ँ
सि ख
न मो</w>
बार ियों</w>
आगा ज</w>
सावि त्री</w>
ऐ ड
शु द्धता</w>
ट् टर</w>
पाँ च
घण् टे</w>
भ स्म</w>
फौ रन</w>
छ क्के</w>
दश म
हो र</w>
न्य ु</w>
तू फा
पहा ड़ियों</w>
अनु सन्
जान बूझकर</w>
चट् टान</w>
सप नो</w>
कबू ल</w>
जी करण</w>
12 1</w>
शौ कीन</w>
स ले
पी पी</w>
३ ५</w>
मन न</w>
ष ण
निष् पादन</w>
ऐ ंड</w>
भू लने</w>
कां फ्रेंस</w>
कु म</w>
अ भूतपूर्व</w>
त्र ी
विकि मीडिया</w>
इ ज़</w>
निका लते</w>
हटा ना</w>
डे स्‍क</w>
वर् जित</w>
इले क्शन</w>
आवेद कों</w>
राष्‍ट्र पति</w>
आ चार्
त्‍ म</w>
........ ....
च का
घ ना</w>
पहुँच ते</w>
दाँ त</w>
तबाद ला</w>
स लू
15 :
उ प्र</w>
९ ०</w>
नसी हत</w>
उन् नाव</w>
चा बी</w>
फ नी</w>
न्‍ द्र
बधा ई
10 :00</w>
षा र्थ</w>
ष् म
ल कीर</w>
जी जा</w>
प्रभा कर</w>
सी ताराम</w>
सां सार
आ वेश</w>
संचा ल
बे टियाँ</w>
शो भा
जमी ं</w>
सं ग्रहण</w>
स्व शिक्षा</w>
सि खों</w>
च रा
78 9
नि हाल</w>
जबर् दस्त</w>
सां सों</w>
2015 व्यूस</w>
ग्रा म
हा शि
वा द्य</w>
जा ऊ</w>
टाइ ट</w>
भारत टाइम्स</w>
विशा लकाय</w>
कुश वाहा</w>
सल्ल ल्लाहु</w>
घू स</w>
डा यल</w>
प्राची नतम</w>
द बी</w>
मं े</w>
हरा ने</w>
in di
वृष भ</w>
उड़ा या</w>
े ता</w>
स्व देश</w>
धन्य बाद</w>
दशम लव</w>
पछ ता
टे गी</w>
मुसा फिर</w>
बि ंद</w>
वंश ज</w>
खिल वाड़</w>
का बुल</w>
भट नागर</w>
10 3</w>
झ रो
शि ष
हिन् दु</w>
नका ब</w>
तबी यत</w>
भि लाई</w>
a s
ब की</w>
उपा युक्त</w>
तू र</w>
एका ग्रता</w>
कान् हा</w>
न हार</w>
अधि भोग</w>
द फ
रे फर</w>
मह ार
यू रे
बट् म</w>
नुकसान देह</w>
द् धि
स् सी</w>
मो ट</w>
सि ंगर</w>
रतला म</w>
एस टी
लिख ो</w>
विद ्</w>
सा ध</w>
एक्स टेंशन</w>
द् वाद
आईपी एस</w>
पुरा तन</w>
प् प
हि प</w>
वे श्या
कै च</w>
कोशि शों</w>
छा र</w>
चै क</w>
़ ा</w>
सु राग</w>
मं चन</w>
पह नते</w>
ऑन लाईन</w>
ड ब्लू</w>
दाय रा</w>
पुन रा
ह म्
देव रिया</w>
को ल्ड</w>
अनो खे</w>
शाब् दिक</w>
ए रो
स शक्तिकरण</w>
................ ................
२०१ ५</w>
कै थो
बी एसपी</w>
त लक</w>
चै त्र</w>
टु डे</w>
अंगु ली</w>
इस्ला माबाद</w>
जिन् ना</w>
बाग ़</w>
आल सी</w>
सड क</w>
ज्य े
अ निश्चित</w>
डो ल</w>
टॉ म</w>
चु दा
196 8</w>
प्रोड क्शन</w>
सदस्य ीय</w>
न ः</w>
मुक् के
गुं जाइश</w>
छ वि
वि रह</w>
उ छल</w>
हॉ ं</w>
खा दी</w>
मत गणना</w>
राज ्या
पार् टी
द लील</w>
यू ए
प लक</w>
अन्वे षण</w>
पु सी</w>
धर् मां
6 0
मे टिक</w>
औ स
वै रा
जी ंस</w>
उन् हों</w>
बिल् डर</w>
ब्ला गिंग</w>
जाइ ये</w>
म कानों</w>
राठ ौ
सूच नाओं</w>
मु हल्
शुभार म्भ</w>
अब की</w>
गां व
मु ड़</w>
ईश्वर ीय</w>
प डे</w>
प्रो फ़े
अभ यार
मुद्र ित</w>
प्रति पादन</w>
द्र ौ
वा कि
उन् नयन</w>
अ ड
पा ई
विचार क</w>
हिन् दी
टि हरी</w>
नि चो
मु शाय
12 :00</w>
पिच कारी</w>
मा कपा</w>
तो ता</w>
सप्तर् षि</w>
अभिला षा</w>
विक्टो रिया</w>
णि म</w>
सैला ब</w>
ह स्ती</w>
रा शियों</w>
गु फा
अना मिका</w>
अ नौ
मुना फे</w>
साउ ंड</w>
त्‍ यौ
चे स्टर</w>
बन वा</w>
अफे यर</w>
जता ते</w>
ठ ियां</w>
बर् बादी</w>
प्र दत्त</w>
से ल
गो पाल
ऍ म</w>
नौ करानी</w>
बर् ताव</w>
जिम् ‍
पूर्ण तया</w>
मे वाड़</w>
पी ढ़ियों</w>
च ्</w>
4 32</w>
श ल्य</w>
रै केट</w>
शौ च</w>
सी बीएसई</w>
गि या</w>
न्यू ज
जें द्र</w>
क हिए</w>
का ओ</w>
पक् के</w>
ना ने</w>
जिस पर</w>
गड् ढे</w>
पट् टे</w>
गु लाल</w>
परिवर् तनों</w>
अनुसन् धान</w>
ट ्</w>
झ क</w>
थ ौ
भ विष्‍
भू टान</w>
सी एमओ</w>
पूर् णा</w>
r o
यौ गिक</w>
चौ की
वार ंट</w>
न फ़
०० ००
प्रा णों</w>
व ता</w>
ख ियां</w>
श ल
भागी दार</w>
फ़्र ें
साइ टें</w>
मेमो री</w>
सौ जन्य</w>
भर कम</w>
सॉ ल्ट</w>
खरी दे</w>
ओ प
पो प</w>
रा हों</w>
वि शुद्ध</w>
अच्छ ाई</w>
फे री</w>
10 7</w>
सा य</w>
वि कारों</w>
पे टी
दुकान दारों</w>
सल र</w>
19 46</w>
धर्म निरपेक्षता</w>
रो ड़</w>
ज डेजा</w>
चि न</w>
गुज रना</w>
योगा सन</w>
अ सहाय</w>
u n
18 :
भू पे
अ काली</w>
मै थ
बाँ ध
न पुं
लु ढ़
मा ह
गा ए</w>
के ट
वर् त</w>
सु साइड</w>
ट्रे वल</w>
क्ला इंट</w>
ं व</w>
गे हूँ</w>
4 50</w>
दो हन</w>
पूर ब</w>
ंड क</w>
गा लियां</w>
ज़ रिए</w>
श मन</w>
को हल</w>
ब ्यो
का मन</w>
स्वी कार
14 ,
हे लो</w>
महो बा</w>
नव भारतटाइम्स</w>
आं बेडकर</w>
मु शर
मै नुअल</w>
जय ते</w>
ंग ण</w>
पुलि स
शिव जी</w>
च नों</w>
लि खे
जा हि
1 19
वा स्ते</w>
ब से
आ पात</w>
कच हरी</w>
सु धा
ं को</w>
ड म्
बे जान</w>
सो ची</w>
बंग ले</w>
क्रि स्टल</w>
झा ँसी</w>
नर सिंह</w>
रा धे</w>
च लेंगे</w>
उम ड़</w>
आं खे</w>
के ंसी</w>
द ीय</w>
पत्‍ नी</w>
ब हि
पु ष्ट</w>
बे बस</w>
वि कृति</w>
सह न
त की</w>
समझा ते</w>
ड़ ता</w>
हो स्टिंग</w>
पि क्
मातर म</w>
बहा व</w>
अप्र त्या
वी पी</w>
मज़ दूर</w>
ड राव
सं शय</w>
खिच ड़ी</w>
धी शों</w>
परंपरा ओं</w>
सो डियम</w>
प्र स</w>
छ ट
कु न
खि ले</w>
हाइड्रो जन</w>
अभि प्राय</w>
त्‍ य
बिस्त रा</w>
ॅ क</w>
उद्य मी</w>
निरा शा
राष्ट्र मंडल</w>
एसोसिए ट</w>
क् लिं
का यें</w>
वृ ष</w>
चौ बीस</w>
द्वी पों</w>
ब होत</w>
दि लाता</w>
अनू ठी</w>
प्रतिद्वं द्वी</w>
सि ब्बल</w>
उत् साह
ठ ू
धार ियों</w>
पद् मा
बुढ़ा पे</w>
बे चना</w>
वर् धा</w>
अ विस्
बु श</w>
घर वालों</w>
16 ,
औस तन</w>
ग्र सित</w>
क स्तू
इ मे
जाय ेंगी</w>
प्रति रक्षा</w>
चट्टा नों</w>
वि नी</w>
सब ब</w>
घटा एं</w>
आसमा ं</w>
सुल झा
जिन् हे</w>
र ियां</w>
दो गे</w>
लाल सा</w>
था इ
खुश दीप</w>
गुज रती</w>
नु स</w>
ब् बी</w>
ध्व ंस</w>
शकु न</w>
पन्द्र ह</w>
सं देशों</w>
क्रै श</w>
सम ्य
अं कु
अस त्य</w>
संस्था गत</w>
फ टी</w>
ज़ ील</w>
के तन</w>
3 00
अधि कार
हुकू मत</w>
फा श</w>
पुरा तत्व</w>
महा प्रबंधक</w>
टर ियों</w>
कं धों</w>
वॉ लेट</w>
सं ती</w>
19 52</w>
रह स्
मुशर ्र
नि चली</w>
मुग़ ल</w>
हाथा पाई</w>
बल् ले</w>
शुभ कामना</w>
र्थ क</w>
कैं पस</w>
चु त</w>
च ढा
हा हा
उ ड</w>
ना र्थ</w>
मुख ्‍य
अप्र त्य
को ला</w>
जा ग्र
सिपा हियों</w>
ग्रो थ</w>
मुश्कि लों</w>
कट ु</w>
प्रतिक्रिया ओं</w>
कॉन् फ्रेंस</w>
सं भाग</w>
नवी नीकरण</w>
द्रव्य मान</w>
मध ारी</w>
दि त्य</w>
ता कतों</w>
सां ता</w>
सिग् नल</w>
इमर जेंसी</w>
अप के</w>
टॉ वर</w>
युग् म</w>
अर से</w>
या र्ड</w>
पे टाइटिस</w>
कमो डिटी</w>
सि म्
बज रंग</w>
त क़
वाइ ट</w>
च् य</w>
मशी नरी</w>
मि लिए</w>
हस्त ियों</w>
अप्रू व</w>
पु रिया</w>
मै री</w>
निस्त ारण</w>
सात वीं</w>
ज़ि ंदा</w>
देव दास</w>
व्‍य वधान</w>
पहुं चना</w>
उल झ</w>
जान कारों</w>
वान गी</w>
हेल् प</w>
बा क</w>
डा र्क</w>
एड वो
पढ़ा या</w>
वा क्या
सं चित</w>
फू ल
बॉर् डर</w>
व क्
नर संहार</w>
ख़री दारी</w>
अंतरि म</w>
क्रू ज</w>
201 9</w>
करवा ए</w>
परि धि</w>
12 6</w>
फ्र ॉ
पृष्‍ ठ
वर् ट</w>
सला मी</w>
यु गों</w>
बिज़ नेस
जादू गर</w>
थ ैं
एडि टर</w>
प ्</w>
परियोजना एं</w>
त मी
शॉ र्ट</w>
सक ूँ</w>
तह लका</w>
पथ राव</w>
न ट</w>
त्‍ ता</w>
कल्प ित</w>
द् वानी</w>
र बर</w>
ख फा</w>
न् ग</w>
हर भजन</w>
कबू तर</w>
बा ती</w>
दर् शन
पार स</w>
तिब्ब ती</w>
सै ट</w>
डॉ क्यू
मशी नें</w>
वै ल
ग़ा निस्तान</w>
इने लो</w>
ना पुर</w>
कां टे</w>
मु क्त
शिला लेख</w>
ढूंढ ने</w>
बल राम</w>
के ंड</w>
हं ै</w>
घ रा
मिल् फ़</w>
योग ेश</w>
पह नना</w>
नक्सल वाद</w>
तब के</w>
उन् होनें</w>
7 3
सं गति</w>
जख् म</w>
ठ िया</w>
हो श
दा स्तान</w>
मांग ते</w>
गु ने</w>
टि क
धु आं</w>
मह फू
पूँ जी</w>
छाँ व</w>
ब हिन</w>
पड़ ना</w>
झो ंक</w>
क्वालि टी</w>
पुण्य तिथि</w>
च म</w>
फ कीर</w>
बि कने</w>
मु ल्ला</w>
परि ण
रह ि
लू र</w>
एं कर</w>
मिला वट</w>
दीन दयाल</w>
19 59</w>
मल् होत्रा</w>
मा य</w>
भा र्ग
कॉ मिक्स</w>
लम् हा</w>
196 1</w>
नाराय ण
सो लर</w>
पर फेक्ट</w>
छु ए</w>
बे ल्ट</w>
ं त्र</w>
हत्य ारे</w>
कड़ ियां</w>
नि ध्य</w>
डी ए
से नाओं</w>
जें डर</w>
पि त्त</w>
रक्त दान</w>
वशि ष्ठ</w>
अनू दित</w>
अ सरदार</w>
गुज रता</w>
ज ियों</w>
विष म</w>
स्मृ तियों</w>
हो य</w>
चि ंग
19 39</w>
मह ंत</w>
विश्व युद्ध</w>
स्टी व</w>
इ ग्
माँ ग
बदा यूं</w>
ऊ ंगी</w>
सि स्को</w>
ं ट
1 24</w>
पर् टीज</w>
व्हाट्स एप</w>
ऍ न
रौ नक</w>
दु विधा</w>
जर् जर</w>
ले ड</w>
मु क
जा मुन</w>
प् लि
दबा कर</w>
डिय र</w>
ते श्वर</w>
18 ,
भू लकर</w>
मं त्रों</w>
ज ती</w>
मू ं
चार् टर</w>
ले क्स</w>
चू ना</w>
ड्र ग्स</w>
शिल् पी</w>
हार्ड कोर</w>
दा वों</w>
प ै</w>
सू फी</w>
बि खरी</w>
सम् भोग</w>
वै श्य</w>
धारणा ओं</w>
रा गढ़</w>
कार्य भार</w>
धो ती</w>
ब्ला उ
ल द्दा
ना थन</w>
डा ट</w>
पूर्व ज</w>
कृष् ‍
प ठान</w>
मग ध</w>
अब्रा हम</w>
ती ज</w>
प्र सं
मज द</w>
सेवानि वृत्ति</w>
ग धी</w>
ल तू</w>
प िया
द बद
एच डी
अभि नन्दन</w>
व फ़ा</w>
आर् कि
कमा या</w>
ज ड़े</w>
द शा
खा नदान</w>
त्‍यौ हार</w>
हथ े
द्रौ पदी</w>
कठ ो
वै द्य</w>
अ ज़
प्रचार ित</w>
बा सी</w>
14 1</w>
खुला से</w>
संतो ष
पि रा
ता नपुर</w>
गे श्वर</w>
ठेके दारों</w>
सांसार िक</w>
मिल नी</w>
गर मी</w>
संस् करणों</w>
निक ल
॰ बी॰
का जू</w>
अप्रत्य क्ष</w>
196 6</w>
धी मे</w>
सो र्स</w>
17 :
खिला डी</w>
रच ने</w>
र सन</w>
कर नेवाला</w>
पंजी यन</w>
सभी एनबीटीमेरा</w>
घू मता</w>
वय ं</w>
कीर् ति
निका यों</w>
करवा ते</w>
1 200</w>
को यल</w>
ट्रे ड
ज ि</w>
अन देखा</w>
अप्रत्या शित</w>
प्रतियोगि ताओं</w>
आंगन बाड़ी</w>
ज् व
नि विदा
8 0
आ ला
जन मानस</w>
राम चंद्र</w>
दौ ड़ा</w>
o n</w>
/ 12/
प्राव धानों</w>
स्पै म</w>
धन्य वाद
बस्त ियों</w>
पुरुषो त्तम</w>
वि डं
बा स्के
गा ये</w>
प्रमुख ता</w>
खु लती</w>
अंगू ठी</w>
ठो कर</w>
ग्रि ड</w>
1/ 2</w>
दि ली</w>
196 4</w>
क्र मी</w>
अंद रूनी</w>
ब्रे स्ट</w>
पड़ो सियों</w>
सं ता
रे जि
उप महाद्वीप</w>
मनो बल</w>
ब टा
त आला</w>
तोड़ फोड़</w>
बुन् दे
बार ें</w>
हम लोग</w>
सीसी टीवी</w>
जग जीत</w>
२० ०</w>
वॉ ल</w>
र साय
आ सा
य की
को स</w>
व ै</w>
जन जातीय</w>
जाग ृति</w>
विवे चना</w>
ला स्ट</w>
डा लती</w>
रॉ केट</w>
को षा
चे यर</w>
ताना शाही</w>
महबू बा</w>
छा वनी</w>
ब्रिगे ड</w>
पि क्स
ए ला</w>
रि चर्ड</w>
शा जापुर</w>
बे नामी</w>
ज लकर</w>
वय स्कों</w>
तना व
क्रान्ति कारी</w>
फैक् टरी</w>
सम् मति</w>
झ क
पेशे वरों</w>
अल सी</w>
आहु ति</w>
मू ंग
ब्रा ज़ील</w>
श बन
थै ली</w>
स् ली
प्र संस्करण</w>
बचा ता</w>
फ्लो रि
सफ़ ाई</w>
फि शर</w>
अंत ः
मु क़
बीएस ए</w>
स्ट ों</w>
व ॉ</w>
... .</w>
सि का</w>
हर दोई</w>
बज रंगी</w>
झो ली</w>
10 9</w>
विचार णीय</w>
ए जे
नै न</w>
विस्फो टक</w>
प ारा
लु त्
पाद प</w>
ज रिया</w>
घि र</w>
औचि त्य</w>
छ पा</w>
गा न्
समे टे</w>
गुल शन</w>
कू प</w>
फ़ा यदा</w>
ऍ स
हाद सों</w>
या चि
कह े
त मं
टे ंडर</w>
ट् ज</w>
सूर्या स्त</w>
प्र बन्ध</w>
कृ षक</w>
19 57</w>
गो ले</w>
सेलि ब्रिटी</w>
फुट बाल</w>
ट्र म्प</w>
पूछ ें</w>
नाम वर</w>
ल पेट</w>
दू ल्हे</w>
जे वर</w>
ज़ बर
जान नेवाले</w>
शाह रुख़</w>
13 2</w>
पे न्
यु धि
स नम</w>
टे ली</w>
भू लना</w>
चि र</w>
ड ब
बल् ब</w>
सो डा</w>
ट्यू टोरियल</w>
म गर
प्र े</w>
सो ता</w>
छात्रा एं</w>
ब्र ी
इन पुट</w>
क्रिके ट
ॉ रिटी</w>
ऑ क्स
लि पिक</w>
या ब</w>
बां टे</w>
मो टर्स</w>
चश् मे</w>
प्रचु र</w>
ह बी
कु कर</w>
परि धान</w>
ब्लॉ गर्स</w>
रस तिया</w>
करू ंगी</w>
स् मा
पढ ना</w>
रं जीत</w>
सुख देव</w>
ले के</w>
यु नि
a ti
उलझ े</w>
वा सु
चे किंग</w>
टि प</w>
डा 0</w>
माल वा</w>
व धू</w>
अध्या पन</w>
रत् नों</w>
शिष ्यों</w>
न्‍ यू
निगा हों</w>
आं सुओं</w>
निर्वा ण</w>
स् का</w>
स्वा स्‍थ्‍य</w>
बा ने</w>
नि खारे</w>
नि गल</w>
मेघा लय</w>
सेना पति</w>
th e</w>
ब म्बई</w>
चौ के</w>
बन् दर</w>
ऊँ गली</w>
वि नायक</w>
अठ ार
चि राग</w>
टी ए</w>
बंट वारे</w>
स्ट्र ा</w>
गल तियाँ</w>
नौ का</w>
च रों</w>
त सिंह</w>
सिक्यो रिटी</w>
इं टी
गज़ ब</w>
साध ू</w>
त द
छ तर
फक् किंग</w>
दीर् घा</w>
प्र वेश
श्रे ण
सूर दास</w>
अ नियमित</w>
श यन</w>
हंस ने</w>
ए स्ट्रो
को सी</w>
चैंपिय ंस</w>
आई टीआई</w>
परी क्षक</w>
प्रि ंस</w>
बा ड़</w>
मिले ंगी</w>
हफ़् ते</w>
प्रा ंगण</w>
ल तम</w>
भि गो
मर ता</w>
निभा ता</w>
हल् द्वानी</w>
जु ड़ा
षा ण</w>
विरु ध्द</w>
प्या सी</w>
मि न्
ब ारों</w>
रे गु
को ख</w>
इक् की
वे शी</w>
श्र म
छुड़ा एं</w>
वि लंब</w>
प्रोटो कॉल</w>
गु ब्
2 40</w>
क तर
ख गोल
सिं ध</w>
२०० ०</w>
मिथ ्या</w>
हा ड़ी</w>
प्रा माणिक</w>
टिप्प णी
लड़ा कू</w>
ि व</w>
मि द</w>
कम् प</w>
थ ित</w>
पना ह</w>
श्री नि
ब जाते</w>
जी रो</w>
बहु संख्य
चढ़ े</w>
आदर् शों</w>
रि टर्
ंग ना</w>
लगा ओ</w>
मही न</w>
क लाई</w>
को न</w>
सेले ब्स</w>
बांध कर</w>
चा वला</w>
त वा</w>
सा दा</w>
मा इक</w>
ग् गी</w>
मा घ</w>
क्लिं टन</w>
गा ड़ियां</w>
गौ ड़</w>
श ू</w>
श् म
l o
प ख
टवर् ती</w>
पं खु
ढूँ ढ</w>
ह सरत</w>
मा ल्
ं चे</w>
मै के
पूर्वा वलोकन</w>
जन्म भूमि</w>
वा ड़े</w>
डि ं
नौ जवानों</w>
फॉ र
से क</w>
रे गी</w>
नवे म्बर</w>
बे ई
पर ख</w>
अ पा
फै न्स</w>
घोटा लों</w>
ढूँढ ने</w>
य ती</w>
कटि हार</w>
7 12</w>
द त्ता</w>
तात् कालिक</w>
ब्रॉ ड
अ स</w>
प ला</w>
भार्ग व</w>
ु ल</w>
नि खार</w>
कु लो
श टल</w>
आ तुर</w>
मि ति</w>
ला ज
बी सवीं</w>
सौ ते
बेच ते</w>
अद भुत</w>
कुं वारी</w>
दिखे ंगे</w>
बी ना</w>
एक् टि
मैन पुरी</w>
समा योजन</w>
बां धे</w>
स्वा र्थी</w>
सेल् फ</w>
राष्ट्र भाषा</w>
जु ड
ख डे</w>
सर् स</w>
छी ना</w>
/ 5</w>
गर् दी</w>
ि की</w>
स्त्र ियाँ</w>
ला र्ड</w>
वि व
गुज रे</w>
हस्ता ंतरण</w>
अभयार ण्य</w>
सी एल</w>
दी वारें</w>
पूं छ</w>
कबाड़ खाना</w>
न क़
ज् वाइन</w>
ए ज</w>
बं ता</w>
ध्य ेय</w>
पक्ष धर</w>
सा गर
राम प्यारी</w>
निर् ण
स्वा स्थ</w>
कु टु
जु ल्म</w>
मंग ेश
आपा तकालीन</w>
हर दम</w>
तौ लिए</w>
राठ ौर</w>
स्था पत्य</w>
नौ बत</w>
सा लगि
गि टार</w>
पडे गा</w>
नदि यां</w>
ंड ेंट</w>
मे धा</w>
धि र</w>
बे थ</w>
पठा र</w>
प्र बन्
ं ख
बू ढ़ी</w>
द क्ष</w>
मै थुन
शे खा
य ियों</w>
स् पून</w>
अविस् मरणीय</w>
7 50</w>
उत् कृष्
सु दृढ़</w>
मूल्य वान</w>
स्ट ारों</w>
रह िए</w>
त्र स्त</w>
दया नंद</w>
उ ब
डिवी जन</w>
ग प
मार्ग दर्शक</w>
नन् हें</w>
स ै</w>
के ंगे</w>
जे ड</w>
वि निर्माण</w>
छि प</w>
दे वा</w>
आ ड़े</w>
दर् य
कथा नक</w>
ओ बीसी</w>
स ट्
व् स</w>
द लाई</w>
साइ क्लो
ज मे</w>
आरा ध्य</w>
कर णीय</w>
अ नियंत्रित</w>
प्र वृति</w>
मा ँगा</w>
बाला जी</w>
प् लै
गह लोत</w>
बि ठा</w>
बैठ कों</w>
कार्बो हाइड्रेट</w>
ह नन</w>
कुर आन</w>
क ली
आर के</w>
स्ट्र ो</w>
पॉ डकास्ट</w>
एच डी</w>
प्र णय</w>
पो लो</w>
डकै ती</w>
डि पो</w>
ख त्‍म</w>
ह रिश्
ढ़ े
तो ड
अ संतोष</w>
भौ ं
कर तू
फा टक</w>
अनुप स्थिति</w>
दु नियाँ</w>
सम्बन् धों</w>
ता यें</w>
अंगू ठे</w>
मालि नी</w>
सा धारण
अख रोट</w>
व शी</w>
वा ती</w>
नि खिल</w>
चुनौ ती
शिक्षि का</w>
चु नें
पाय दान</w>
गि ने</w>
खिला ने</w>
जिम् मा</w>
फ ंसी</w>
पूर्वानु मान</w>
ची र</w>
सद स्‍य</w>
आनुवं शिक</w>
बो ले
जन संचार</w>
श्री मान</w>
प डो
रो कता</w>
खु बसूरत</w>
ध व</w>
पे ंटी</w>
न्यू यार्क</w>
ब्‍ लॉ
एलो वेरा</w>
छ ्
वा जि
हा फ</w>
बै कअप</w>
बार ूद</w>
लि खाई</w>
से रे
अ सुविधा</w>
ग ंगो
र स्म</w>
३ २</w>
अँ ग्रे
ढा ँ
बार् बी</w>
विश्व कर्मा</w>
दाहि ने</w>
पी ड
प्रोग्रा मिंग</w>
स्वि डिश</w>
खू ं
क्रो नर</w>
कस् बा</w>
स्‍ कार</w>
उपे क्षित</w>
पर्दा फाश</w>
क ष्ट
ज ह
माइ क्रो</w>
रा त्रि
वा लिया</w>
पी ली
स्फू र्ति</w>
लम् हों</w>
जरू रत
पा थ</w>
रंग ी
बु लेट</w>
बे ट</w>
रु कता</w>
सम सामयिक</w>
ऋष भ
भी गी</w>
ड ंडे</w>
हम में</w>
पढ ा</w>
क्ष ्
मधु बनी</w>
फाइ नेंस</w>
पौ ड़ी</w>
सॉ री</w>
शास्त्र ी
उ र
दा ओं</w>
शर् करा</w>
नै ना</w>
फा क</w>
पिक्स ल</w>
मि ल्क</w>
सि स्ट</w>
छद् म</w>
फि रते</w>
सम् मोहन</w>
उजा ले</w>
फोटोग्रा फर</w>
प्रोफ़े सर</w>
डि क्स</w>
स्व ै
स्काउ ट</w>
चला कर</w>
अन वर</w>
खो जना</w>
असम ंज
यू सु
2 23
सू री</w>
जल्दबा जी</w>
आठ वें</w>
चट र्जी</w>
1 20
मै ट्रिक</w>
तीर्थ ंकर</w>
जान की</w>
ओ ल</w>
वी सी</w>
छ ं
सा खी</w>
भाई यों</w>
अ सीमित</w>
पि ज्जा</w>
मि शेल</w>
आ ब
रि फ</w>
ब्र ू
कु ओं</w>
ता पूर्वक</w>
डे ला</w>
छि पाने</w>
मार ता</w>
सुप्री मो</w>
1 14</w>
सत् तार
पड़ ेंगे</w>
प्रदू षित</w>
नक्ष त्रों</w>
गुत् थी</w>
श म्
पोर्ट फो
ध न्
स पा
से मे
व्या कुल</w>
काल सर्प</w>
द ब</w>
हि ट्स</w>
20 20</w>
फू ंक</w>
परम्परा गत</w>
द श</w>
सर स</w>
भूमि गत</w>
ली बिया</w>
चुनौ तियां</w>
सी खिए</w>
अ था
चतु र</w>
गुस्ता खी</w>
अ भी
इज रायल</w>
जीवन साथी</w>
झ रना</w>
भ ृ
का जोल</w>
वो डा
कु रै
196 3</w>
्यू ज़
झार खंड
स् पाइ
अल ब
हटा ए</w>
शर्म सार</w>
बाज पेयी</w>
बि ख
धो खे
मृ तकों</w>
सक ारों</w>
साइट मैप</w>
जय न्ती</w>
11 9</w>
चि ए</w>
फि गर</w>
बल वान</w>
समलैंगि कों</w>
वि ला</w>
नही ँ</w>
जीवा णु</w>
पो लि
आ हिस्
भड़ काने
बै च</w>
य ंत्र
रवी ंद्र</w>
ग्रं थ
ले टे</w>
द रो
सी एस</w>
प गड
भु ज</w>
ये निया</w>
बंग लौर</w>
ध ारे</w>
कि शन
झा बुआ</w>
फ्रे श</w>
सेक्रे टरी</w>
तृ प्ति</w>
धन वान</w>
हा ने</w>
भ द्रा</w>
ज़ ू
हनुमान जी</w>
त्यो हारों</w>
स्‍मार् ट
ऑ डि
र् ट्स</w>
2009 व्यूस</w>
वर कर</w>
सेक् यु
गूँ ज</w>
कैथो लिक</w>
दर बारी</w>
इक बाल</w>
अभि शाप</w>
श्रे ष्‍ठ</w>
योग ेन्द्र</w>
बद ला
र न
ख़् वाब</w>
सुहा ग
द फा</w>
स ैंड
वि भू
उद् भव</w>
भाषा झूठा</w>
नाम आपत्ति</w>
अन्य आपकी</w>
आरोप किसी</w>
वाला अन्यआपकी</w>
भड़काने वालाअन्यआपकी</w>
पोर् न
सामान्य त</w>
ख़ामो शी</w>
ओ सामा</w>
को ठी</w>
उत्तर दायित्व</w>
19 0</w>
स् टा</w>
भार ते
ऍन ॰</w>
क् कत</w>
दिमा गी</w>
हफ् तों</w>
उपरा न्त</w>
कु म्
बु झ</w>
निर् दलीय</w>
न्यू ज़ी
प्रो पर्टीज</w>
मुआव जे</w>
नि यु
क् लू
परेशा नियां</w>
चि ली</w>
ताना शाह</w>
सह भा
लौ टी</w>
पठा नकोट</w>
ज ले
अ मूर्त</w>
कै प</w>
मैरि ज</w>
जो शी
14 5</w>
आई॰ ऍस
प्रतिभा शाली</w>
एडवो केट</w>
पि ट</w>
प्रे षक</w>
दीर् घ</w>
मंगेश कर</w>
धमा कों</w>
19 ,
चिं तक</w>
सु रों</w>
थ ्र
यू नान</w>
झ ट
ले फ्ट</w>
विकि ट्रैवल</w>
आई॰ऍस ॰बी॰
अग वा</w>
पढ़ें सितम्बर</w>
कोत वाल</w>
स् क्राइ
व सी
कार गिल</w>
स्ट्र क्चर</w>
ते जस्वी</w>
अ सल
अनु ज</w>
हे पेटाइटिस</w>
चढ़ा ने</w>
आ इस
री ता</w>
कैं डि
ट्यू शन</w>
पहुंच ता</w>
आई॰ऍस॰बी॰ ऍन॰</w>
1 13</w>
भ गा</w>
गण ेश
की वर्ड</w>
गुज रा</w>
वु ड
उड़ ते</w>
द्व ारे</w>
सालगि रह</w>
यम राज</w>
डी ज़</w>
ता जे</w>
ष् ठि
नि न्दा</w>
शि थि
संस्था एं</w>
एग् जाम</w>
न कार
ज्योति र्
रो न</w>
19 :
दावे दार</w>
19 49</w>
की पर</w>
कार्य क्षमता</w>
टाई म</w>
सोनी पत</w>
तड़ का</w>
उखा ड़</w>
साँ सों</w>
कार न</w>
रि टेल</w>
फ़ त</w>
आ हारों</w>
कि नार</w>
जाति वाद</w>
ले ट्स</w>
लो को
वॉ र्
ारी करण</w>
व मेंट</w>
पं खों</w>
तर त</w>
डि फें
जान कारियों</w>
नर् सरी</w>
ख त्री</w>
आ ल्
टू थ</w>
खंड ों</w>
च ें</w>
m o
आ शिया
कि सा
वर् तनी</w>
नियन्त्र ण</w>
हो मस्
स्‍ वयं</w>
बर् फ
डेमो क्रे
फी ड
ज ते</w>
साह सी</w>
बैंग नी</w>
उद्योग पति</w>
एन काउंटर</w>
17 ,
चाँ दी</w>
जे हा
अप ने
उप निवे
मौसम ी</w>
त ृष्
लि सा</w>
प्रैक् टिस</w>
वे त</w>
u m
रू ढ़
1 16</w>
पु लर</w>
फी ड</w>
विवर णिका</w>
समा योजित</w>
चट पटी</w>
ड च्</w>
सू द</w>
चु काने</w>
प्र शासक</w>
ज् ड</w>
भग दड़</w>
वय ि
17 5</w>
ड गर</w>
सा न्
बा तो</w>
स रोज</w>
गुरु जी</w>
साम्राज्य वाद</w>
म छुआ
वि ंग्स</w>
सह सा</w>
गिरा या</w>
मुहा वरे</w>
तर बू
ब्लो गिंग</w>
गो वर्धन</w>
बृ ज
थ ्
बे ताब</w>
सं पर्
सक ूं</w>
कं चन</w>
16 2</w>
अहम ्</w>
िय ेगा</w>
टिप्पण ियॉ</w>
रि पब्लि
नी चा</w>
कॉ मन</w>
प्रेरणा दायक</w>
सु प्रसिद्ध</w>
मै ट</w>
उ मा
अक्ष र
पि स्त
चू हों</w>
रा गी</w>
मुर् गी</w>
कि ल्
उठा ता</w>
नू ं</w>
ल म
पृष्‍ठ होटल</w>
वि स्‍
अध ो
वर् णों</w>
ली स</w>
जुड़ा व</w>
प्रति पक्ष</w>
डॉ ०</w>
गति शीलता</w>
ता क़त</w>
ष् ठा
ne ws
आ क्रा
र् ध</w>
लौ ग</w>
टो टके
ल ज्
छा ए</w>
छ न्द</w>
य क्रम</w>
इस्ती फे</w>
मुद् दीन</w>
बया न
मा त्रा
सॉ फ्ट
शू द्र</w>
जन ल</w>
खुश हाली</w>
मछ लियों</w>
बिस् मिल</w>
शहा बुद्दीन</w>
ना ही</w>
एस डी</w>
आं वला</w>
उर् वशी</w>
ललि तपुर</w>
ऎ से</w>
संदर्भ ित</w>
एम सी
द् दा</w>
अं धा</w>
ड़ ित</w>
वाय सराय</w>
पि शा
बर बाद</w>
कु सुम</w>
ली ला
ला यी</w>
था ...</w>
प्रोफे शनल</w>
अव ध
बर गद</w>
भ ण्ड
आत् माओं</w>
उदार वादी</w>
छ न</w>
र चा
मिर् ज़ा</w>
हा मिद</w>
कह ेगा</w>
प् लीज़</w>
र क</w>
रा इस</w>
कु म
पल ंग</w>
ख ियाँ</w>
गिर ता</w>
रौ शन</w>
मु न
ग ढ
होमस् टे</w>
टार गेट</w>
9 5
बु राइ
का मी</w>
ब्राह् मण
नां तर</w>
ड् ढा</w>
सु गम</w>
मिर् जापुर</w>
झ रने</w>
नि ‍
बे चे</w>
वि की</w>
कु ण्ड</w>
अनि वार्
विष् णु
फिलि पींस</w>
हा ला</w>
अ लगाव</w>
करें सी</w>
न्‍ य
क स
देव ों</w>
ज नित</w>
10 8
किन् हीं</w>
19 40</w>
ऎ सा</w>
घट ती</w>
जी ंद</w>
4 000</w>
हॉ लिवुड</w>
बा कायदा</w>
ग्र ै
तृ क</w>
आर एस</w>
शौ र्य</w>
वै शाली</w>
अप डे
सु लिन</w>
र मे
में शामिल</w>
डु बकी</w>
रक्षा बंधन</w>
जुड़ वा</w>
पोर्टफो लियो</w>
अथ ॉरिटी</w>
म् बी</w>
आप में</w>
जी डीपी</w>
मा नि
साइ प्रस</w>
मनोरं जक</w>
सु धर</w>
नॉ ट</w>
्रे स</w>
नवा जा</w>
औषध ियां</w>
स्वर् णिम</w>
ना भि
र ंगे</w>
या ज</w>
बे किंग</w>
जन वादी</w>
पौ ने</w>
मुन् नी</w>
ँ ट</w>
लगा यी</w>
रि ं
है री</w>
रि मोट</w>
पो जी
धो कर</w>
19 55</w>
वे श्या</w>
मुता बि
पॉ जि
प्राइ ज</w>
ओ ह
विं टेज</w>
वि नीत</w>
उठ ना</w>
सौर मंडल</w>
क ढ़ाई</w>
ग नी</w>
अमे ठी</w>
हु ं</w>
चि ट
फि रोज
ए लेक्
अनौ प
वा न्</w>
नि प
12 7</w>
24 .
डिस् कवरी</w>
इला य
आईबी एन</w>
ना टक
ग़ रीब</w>
र ंडी</w>
रवै ये</w>
क वयि
घु ल</w>
गन् ध</w>
ढ ल</w>
सो ई</w>
जोड़ ती</w>
ट्यू बर
र चे</w>
का ये</w>
पे ंच</w>
मांग ें</w>
शर ारत</w>
पि ला</w>
मंगल मय</w>
उदार ता</w>
जा ओं</w>
के स
मान देय</w>
परा ंत</w>
बद ्री
ज्ञान पीठ</w>
लि वर</w>
कार खाना</w>
खो ई</w>
असमंज स</w>
रो ज़ा</w>
असहम ति</w>
म सल</w>
व्य ो
चम कता</w>
नाट कीय</w>
के गी</w>
डी एसपी</w>
श्री संत</w>
ष्टा चार</w>
फ्लोरि डा</w>
लग ी
नो ं
तक दीर</w>
निभा ना</w>
विज्ञा नी</w>
गा व</w>
निका ह</w>
ह क़ी
चम कती</w>
जं तु</w>
रंग ो
वस्तु त</w>
अक् ल</w>
गे ट्स</w>
मुफ् ती</w>
छ प</w>
छेड़ खानी</w>
मि जो
बना नी</w>
स्‍ ते</w>
अ बे</w>
खर गोश</w>
बहु ता
अनि द्रा</w>
1/ 2
२०० ५</w>
प् सी</w>
फू ड्स</w>
खे लेंगे</w>
नुक् सान</w>
निपटा न</w>
ब सने</w>
हर् बल</w>
खल नायक</w>
ट्री टमेंट</w>
चिड़ िया
ना सिक</w>
घे राव</w>
ें स</w>
तश् तरी</w>
रि ज</w>
पि थौ
भाष ाई</w>
लि थे</w>
बढ े</w>
कै न
बता एगा</w>
मूंग फली</w>
ज कों</w>
लम् ब</w>
इ त
ग ई
द्वै त</w>
महि ंद्रा</w>
टा इल</w>
गो ं
निको बार</w>
अ नाथ</w>
दक्षि णा</w>
नन् हा</w>
घ सी
बू ते</w>
राम गोपाल</w>
अ मो
डि सार्
पार् क
अ सह
छ पने</w>
एसि डिटी</w>
ग ारों</w>
प्रति माह</w>
सम् बद्ध</w>
क टाई</w>
श् व</w>
डिसार् डर</w>
3 1,
लि पि
घु से</w>
्य र</w>
स्त ंभ
लद्दा ख</w>
गणि तीय</w>
मा डल</w>
उड़ न</w>
4 2
शिशु ओं</w>
चक्र व्यूह</w>
फ़ े</w>
एं बुलेंस</w>
दिग् ग
दि याँ</w>
फा दर</w>
ं मार</w>
नि हा
जू तों</w>
पो लियो</w>
मुख्‍य मंत्री</w>
ंद ू</w>
नफ़ रत</w>
बाल कों</w>
रिटा यर्ड</w>
फ टे</w>
वि दित</w>
खरा बी</w>
प् पे</w>
डॉ 0</w>
जान ो</w>
सम् मत</w>
अश्ली लता</w>
उठा एं</w>
वाई फ़ाई</w>
पट वारी</w>
अ टक</w>
मु कुल</w>
कथ ्य</w>
अन्य त्र</w>
टी के</w>
प्रे सि
दा एं</w>
दुष्य ंत</w>
कॉ र्ड</w>
बारा बं
खा लि
नियमा नुसार</w>
ब घे
का लिया</w>
तिहा ड़</w>
मूर् तियां</w>
रू खा</w>
टो ला</w>
टो करी</w>
ख ट्टा</w>
नौ टंकी</w>
मा नु
पु रो
ू ढ़</w>
ार ंभ</w>
6 3
ले बर</w>
बि ंग</w>
‍ ि
ख ंडी</w>
छ ु</w>
गु र</w>
सर ्रा
अम रि
स्‍ क्र
चू चे</w>
अ टूट</w>
बर तने</w>
क्यू ट</w>
भ गाने</w>
लखी मपुर</w>
वि पिन</w>
सा की</w>
व्यव हारिक</w>
दर ्रा</w>
बू ट</w>
दु खों</w>
ंग्रे स</w>
ज यी</w>
योग ्य
सी एस
पै तृक</w>
क़ त्
पार स्
म्म ल</w>
कि र्
निक लें</w>
रिपब्लि कन</w>
अधि कारी
प्र चालन</w>
धू मिल</w>
न के</w>
जी तना</w>
नी बू</w>
पुष् पा</w>
जु ल</w>
उ भरते</w>
लौ की</w>
ऑक् साइड</w>
इन्वेस्ट मेंट</w>
श्रीनि वासन</w>
मिजो रम</w>
भ ण्
भुग तना</w>
पैदा वार</w>
सम् बंध</w>
पुरु ष
ना स</w>
26 /
स्‍ कूल</w>
सह लाने</w>
आन ं
बढ ा</w>
स्टाइ लिश</w>
वृ द्धा
वीर भद्र</w>
सं डे</w>
बहु राष्ट्रीय</w>
हर्ष वर्धन</w>
डॉ क्‍टर</w>
ष न</w>
बह नें</w>
दिव ंगत</w>
दुर् घटनाओं</w>
आद मियों</w>
क तरा</w>
डी जे</w>
शम शेर</w>
ष् ठा</w>
सर ब
अत एव</w>
स नीय</w>
ड रे</w>
सम्‍ मान</w>
सा ह</w>
फि न</w>
अनुप स्थित</w>
चू म</w>
ियो ग</w>
इन् कार</w>
सि स
दा निक</w>
रो ं
रू द</w>
क्षी ण</w>
र वा</w>
सभ ्य
अ रूण</w>
टेक् स्ट</w>
मश क्कत</w>
पानी स</w>
घु मा</w>
गि ना</w>
र स्तो
फि सल</w>
बी पी</w>
अंतर जातीय</w>
रि कार्
सहभा गिता</w>
रि मांड</w>
ग् ले
जिय ेगा</w>
घ मा
थ र्मल</w>
दबद बा</w>
ऐ ड</w>
कै फे</w>
ज पानीस</w>
17 2</w>
झं झट</w>
का मो
कु चल</w>
मौ लवी</w>
गुरु ओं</w>
खीं ची</w>
ष् टों</w>
टेली विज़न</w>
दं पति</w>
दिमा ग़</w>
प्रशिक्ष ु</w>
ड स</w>
बा गी</w>
चिप का</w>
ब ग</w>
बा लन</w>
वर्ष गांठ</w>
सो फिया</w>
यथा संभव</w>
नाग ौर</w>
हार ने</w>
आ ज्ञा
जन तंत्र</w>
प ली</w>
उच्च तर</w>
पीयू ष</w>
दया नन्द</w>
नीदर लैंड</w>
हिन् दू
हर ्रम</w>
वा चस्
ना ंद
अनौप चारिक</w>
ह सीना</w>
क्यू बा</w>
अदि ति</w>
शाहज हां
ज्‍योति ष</w>
पर्न स्टारों</w>
रह ूँ</w>
मो ली</w>
घबरा हट</w>
गणि त
३ ६</w>
नि पु
योग ेंद्र</w>
पुष् कर</w>
बाइ बिल</w>
बगा वत</w>
सं ज्ञा
टे क्स</w>
पी टने</w>
मेगा वाट</w>
स गे</w>
मि श</w>
लूट पाट</w>
म ग्न</w>
न्याया लयों</w>
प्र फुल्
स्‍ टर</w>
19 51</w>
घू मना</w>
हौ सले</w>
यकी नन</w>
म दिरा</w>
सीता पुर</w>
प्रू फ</w>
आराम देह</w>
िया ल</w>
न दार
सेमे स्टर</w>
इमार तें</w>
साइ ना</w>
वाचस् पति</w>
कारो बारियों</w>
हाउ सिंग</w>
खिला डिय़ों</w>
ल यन</w>
बद ल
कै म्प</w>
सम र
ने की</w>
ण्‍ ड</w>
स्प्रि ंग</w>
पा दरी</w>
रू क</w>
कर ारी</w>
बता इये</w>
सी ज</w>
शा ट्स</w>
बं दू
अस् त्र</w>
३ ३</w>
ले टा</w>
20 :
२०० ४</w>
सत्य मेव</w>
हो ंडा</w>
मुशर्र फ</w>
k s
हि रण</w>
एस एससी</w>
इलाय ची</w>
जा ही</w>
ट्रा ंस</w>
चढ़ा या</w>
उ ग</w>
अकाद मिक</w>
अध र्म</w>
राइ च</w>
वी ना</w>
ग्रो वर</w>
मंह गाई</w>
मज़ ेदार</w>
हा जी</w>
बो त
अभिया ंत्रिकी</w>
अश् विनी</w>
क सा</w>
पीडी एफ</w>
राज नि
न दी
श्रा वण</w>
घटा ना</w>
वोडा फोन</w>
19 45</w>
इ यर</w>
नै दानिक</w>
यश वंत</w>
का तिल</w>
दिख ना</w>
विच ारा
कु बेर</w>
इश ारों</w>
कु णाल</w>
न् ट्स</w>
दु ल</w>
अधी न
मधे पुरा</w>
17 .
नाई ट</w>
मॉ री
शिला न्यास</w>
मी मां
पत् नियों</w>
18 00</w>
गृह प्रवास</w>
क सूर</w>
सन् ‌</w>
टर् मिनल</w>
अन पढ़</w>
लाभ ों</w>
कड ियाँ</w>
पा श</w>
वी केंड</w>
ब रखा</w>
आय ीं</w>
16 .
मूला ंक</w>
मौ र</w>
स्त नों</w>
काम काजी</w>
प्रतिनिधि मंडल</w>
एलि वेटर</w>
गप शप</w>
स्टॉ प</w>
वा च</w>
मा हे
तै रा
बज कर</w>
खो लता</w>
306 भाषा</w>
3 70</w>
मा स्को</w>
गिरि राज</w>
सट् टे
ख ड़</w>
विश्वा सों</w>
अनुया यियों</w>
u l
आश्र ित</w>
कार् मिक</w>
प ता
जग त्</w>
सम् भा
बद लाव
कुलो सिस</w>
हौ ले</w>
पाण् डे</w>
बर् मा</w>
वी रों</w>
मूल्‍ य</w>
पे रा</w>
शक्ति मान</w>
गेंद बाजों</w>
8 6
मि डिया</w>
चि पक</w>
खो लना</w>
पो लैंड</w>
झु काव</w>
तारी खों</w>
परम्परा ओं</w>
व स्‍
गृह स्थ</w>
च हे
अस हिष्णुता</w>
1 ,000</w>
मे कर</w>
अपना ई</w>
उ के
ब ि</w>
हंगा मे</w>
ने गा</w>
हे ल</w>
प्रतिष् ठा
स्क्राइ ब</w>
कर ना
सेले ब्रिटी</w>
हर कतों</w>
य ह
लो कों</w>
तो ड़े</w>
त जी</w>
राम राम</w>
वृत् त
तै से</w>
ज् र</w>
तु क</w>
मू लक</w>
साय ं</w>
२०० १</w>
अभियु क्त</w>
सुहाग रात</w>
स्ट ु
कला ओं</w>
शॉ वर</w>
कु शी
वाजि ब</w>
क्रू रता</w>
खे ज</w>
दे शा</w>
एस एल
पार्थ िव</w>
वित्‍ तीय</w>
कर प्शन</w>
उज् ज्
ख़ू न</w>
अ शांति</w>
प्रतिभा गी</w>
कुं ज</w>
उड़ ता</w>
बीएम आई</w>
उ ष्ण
ध रे</w>
बि ल्‍
महा नता</w>
चिं ताओं</w>
सं जीवनी</w>
मापद ंड</w>
सन सनी
ब वा
हा थियों</w>
मुख्य त</w>
फत ह</w>
मह फिल</w>
बारी की</w>
ले फ्
‍ स</w>
गण मान्य</w>
द ते</w>
सी वर</w>
अल् पना</w>
फैस लों</w>
७ ५</w>
सा दे</w>
मातर म्</w>
अ व्यवस्था</w>
छू टे</w>
अ प्रति
दिग्ग जों</w>
से ...</w>
ज़ निंग</w>
तु षा
गु ड़ी</w>
ट ं
बे मानी</w>
रह ूँगा</w>
यश करन</w>
बेच कर</w>
समाज सेवी</w>
जर् सी</w>
अनु नाद</w>
उर्वर क</w>
करें शेयर
1 18</w>
उत्कृष् टता</w>
4 जी</w>
मै दानी</w>
शिकं जा</w>
मन वेल्थ</w>
समन्व यक</w>
दिखा वा</w>
धी मा</w>
न्‍ तु</w>
8 5
आ इस</w>
सो या
बाज ार
एप् प</w>
बोर् ड
फटा फट</w>
7 59
न रों</w>
डी एस</w>
खर् चे</w>
युद्ध ों</w>
डू ंग
ट्यूबर कुलोसिस</w>
ड्र ग</w>
ज ु</w>
का या
स्वा ति</w>
25 0
बौ छार</w>
छ ल
म ख
शो ह
स त्कार</w>
घट कर</w>
घो ं
लि फा
गृह स्थी</w>
पिस्त ौल</w>
तर ंगों</w>
जन् मों</w>
चू ल्हे</w>
टि ंग
सुहा ना</w>
प लाश</w>
गे ज</w>
ना श्‍
डा ंट</w>
बद लेगा</w>
ण्ड ों</w>
ख मरी</w>
घि री</w>
ए टा</w>
दी पा</w>
एका ध</w>
आ ब</w>
बह ना</w>
सिक् कों</w>
लिखें नीचे</w>
आ बाद</w>
था ने
पन् नें</w>
शा हों</w>
ख ंडित</w>
आ यत</w>
ख् वाह</w>
देंहटाएं उत्तर
ष्ठि र</w>
मुताबि क़</w>
जी सी</w>
बचा ई</w>
ठ ण्ड</w>
शि पिंग</w>
सु शांत</w>
माल किन</w>
ह न्ना</w>
ऋषि केश</w>
षड्य ंत्र</w>
अन कही</w>
16 00</w>
मचा ने</w>
ड्र ॉप</w>
आख़ि री</w>
स टे</w>
चि ट</w>
सा वरकर</w>
ै या</w>
मुख ्
बच्च ियों</w>
वॉ य
णा धीन</w>
पीली भीत</w>
लाभा न्वित</w>
पे स</w>
ध नों</w>
ज् वल
राम विलास</w>
रिय त</w>
जै क्सन</w>
आई टी
विस्त ारित</w>
चौ बे</w>
धि का</w>
तलाश ने</w>
कल युग</w>
विन म्रता</w>
पेशा वर</w>
ओ गी</w>
र जा</w>
ल टक</w>
० १</w>
जा तियाँ</w>
तथ ्‍य</w>
लुटे रों</w>
चू ची</w>
19 54</w>
निर् धन</w>
खाद्या न्न</w>
मै से
भण् डार</w>
थ ियो
पशु पालन</w>
शब्‍ दों</w>
कार् ल</w>
दो हराया</w>
पै रवी</w>
्रि कर</w>
कुरै शी</w>
ड्रि ड</w>
खट ख
प्रा ध्यापक</w>
m a
र बी</w>
पा ली
इतिहा सकारों</w>
दर कार</w>
वस्तु एँ</w>
म्‍ स</w>
को नों</w>
गं धा</w>
सप्‍ ली
सि रोही</w>
मै नें</w>
धि कृत</w>
रे डि
बी एड</w>
इ फेक्ट</w>
फ रो
मार्क्स वादी</w>
सौ दों</w>
भाषा ओँ</w>
इं डेक्स</w>
फ़ॉ क्स</w>
क पुर</w>
अ मान्य</w>
मो शन</w>
लौ टा
कठिनाइ यों</w>
के न्‍द्र</w>
बे मिसाल</w>
पढ़ ती</w>
मह ज़</w>
वन स्प
किन ारों</w>
क्रा फ्ट</w>
कह लाने</w>
शराब बंदी</w>
13 8</w>
13 9</w>
अन्य ़</w>
कह ूँगा</w>
25 00</w>
बो लकर</w>
एंड रसन</w>
ज् वर</w>
विडं बना</w>
फाइ ड</w>
प् लो
हु वा</w>
फोटो शूट</w>
अन् दा
दिशा निर्देश</w>
च क्
द्वार का</w>
श ता</w>
नि ल</w>
फे रे</w>
खंड वा</w>
201 7
ग़ री
त्‍ या</w>
स्व र
अन ं
बढ़ो त्तरी</w>
चैले ंज</w>
ल ड़े</w>
सू नी</w>
औप निवे
1 31</w>
को टे</w>
पक वान</w>
नॉ लेज</w>
चर म
छुट् टियाँ</w>
बहुता यत</w>
इं सानी</w>
सी ए
उप कार</w>
बने ंगी</w>
ग् वा
22 ,
स्ता ना</w>
ग्री ष्म
दि श</w>
तारा मंडल</w>
मॉर् निंग</w>
वाकि फ</w>
प्रको ष्ठ</w>
राज कोट</w>
फु हार</w>
त्र िक</w>
म न्यु</w>
रेखा ओं</w>
वै क्
उप राष्ट्रपति</w>
19 42</w>
‌ र्
लघु कथाएँ</w>
निर् भ
उदा सी
न भ</w>
रण नीतिक</w>
यहू दियों</w>
शबन म</w>
ला जी</w>
सि लाई</w>
उल झा</w>
दु ग्ध</w>
न र्क</w>
बा उ
गु टों</w>
चौरा हा</w>
शर्मि ंदा</w>
त् स
पा लने</w>
दो गुना</w>
वाहि नी</w>
20 .
फ्र ू
भ त्ते</w>
मज़ बू
परि पत्र</w>
इ श्वर</w>
लि पट</w>
बी पीएल</w>
वायु मंडल</w>
साइक्लो पीडिया</w>
मातृ भूमि</w>
कौ श
मि लों</w>
मंड प</w>
शो धन</w>
कमि टी</w>
पै ग़
सिफारि शों</w>
द फ़्
वा टिकन</w>
खरीद ते</w>
अस्थ ि</w>
ह वस</w>
पत झड़</w>
पांच वीं</w>
अ विश्वसनीय</w>
द् दत</w>
रे वाड़ी</w>
था नों</w>
तरा ई</w>
मक बरा</w>
नियमा वली</w>
शुक्रा णु</w>
न सन</w>
सर्वि सेज</w>
कु दर
श्रा प</w>
७ ६</w>
नि जा
रि म</w>
वत् स</w>
ख जूर</w>
ठ ग</w>
घु मा
वे निस</w>
नो क</w>
डि ग</w>
बु लाते</w>
े न</w>
भो गी</w>
ग्री ष्म</w>
त बा</w>
र ही
सा इन
धा वा</w>
सी खे</w>
मुद्रा स्फीति</w>
पिरा मिड</w>
च म्‍
जु बानी</w>
स्ट्रे स</w>
चुभ ती</w>
प्रो स्टेट</w>
अलब त्ता</w>
गल तफ
क् टिव</w>
बल् स</w>
भाई जान</w>
सं कल
मुसी ब
क् ड</w>
अव रोध</w>
घमा सान</w>
करें 5</w>
न् स
जन जीवन</w>
दुर्घटना ग्रस्त</w>
सरब जीत</w>
ज ै</w>
दी प्ति</w>
b ac
ल हरी</w>
पाइ ज़निंग</w>
सं चरण</w>
ती ल</w>
गैलरी 1/2
शाहजहां पुर</w>
सोच िये</w>
प्रतिष् ठान</w>
द ारो
पारस् परिक</w>
मो ना
ना नुसार</w>
बंध ा</w>
नवा चार</w>
बर्फ बारी</w>
मै त्री</w>
ठे स</w>
चौकी दार</w>
t a
ऑर् गे
प्रो त</w>
ट्रांस पोर्ट</w>
फ टने</w>
क्र ु
बी ड़ी</w>
बै र</w>
ओ न</w>
च रल</w>
म्या ंमार</w>
कर िये</w>
सी क्
लग ढ़</w>
लौ ड़ा</w>
काय दे</w>
मॉनि टर</w>
ब ्यू</w>
12 9</w>
आहिस् ता</w>
धर्मे ंद्र</w>
चुम् बन</w>
खो जी</w>
इ नो
ू ँगी</w>
छुट् टियां</w>
एव ज</w>
अस भ
का क</w>
धर्मे न्द्र</w>
टॉ स</w>
बू ंदी</w>
प्रधान मन्त्री</w>
वर् मन</w>
जाय ज़</w>
स्टो रेज</w>
बहुसंख्य क</w>
अ ण्
अं धा
निपु ण</w>
त् म
सी ढ़
ंस ले</w>
अनै तिक</w>
15 3</w>
हे ल्‍थ</w>
संघर् षों</w>
आया मी</w>
काट जू</w>
न सों</w>
पूछ ती</w>
9 99</w>
पि लाने</w>
विशे षण</w>
आ शिक</w>
बाराबं की</w>
त्र ्
हमला वरों</w>
आ शं
रा हें</w>
डील ्यूज़
डील्यूज़ नल</w>
से दुनिया</w>
बल्ले बाजों</w>
चाइ ना</w>
बि खरा</w>
कठ पुतली</w>
टि ना</w>
नि श
पढ़ें दिसम्बर</w>
अपूर् व</w>
जा धव</w>
डि लि
दर किनार</w>
आन न</w>
ढा का</w>
सदा बहार</w>
सें चुरी</w>
ह ता</w>
सुन ती</w>
आंदोल न
प्रतिबिं बित</w>
विश्व कप</w>
अपना ना</w>
शॉ ट्स</w>
भीम राव</w>
बह राइच</w>
नि द्रा</w>
18 .
ढी ला</w>
सन् तान</w>
म यू
वे ने
छा न</w>
काउ ंस
स्‍ ता</w>
मिथि ला</w>
सं जी
बि कनी</w>
आयो जक</w>
राइ फल</w>
परा ं
मुहल् ले</w>
छ ि</w>
मसी हा</w>
ंगु ल</w>
उपन्या सों</w>
आवश्‍ य
ल्ड ो</w>
ना याब</w>
ब्लाउ ज</w>
लग ो
वे डिंग</w>
10 7
मॉरी शस</w>
मू ंग</w>
मरा ठा</w>
महा मारी</w>
इ च्‍
पो ते</w>
समा नांतर</w>
ज जों</w>
गुज ारा</w>
आत् मिक</w>
वे र</w>
लैंग िक</w>
जा वा</w>
जहा ज़</w>
रे ख
मना ना</w>
एच ओ</w>
ई सी</w>
ठ हा
ल् लू</w>
चू मने</w>
युधि ष्ठिर</w>
शास ना
चिन् हित</w>
ह ला
अर ब
बायो टिक</w>
डि स्ट्रि
प्रभा ष</w>
अंग िका</w>
का ं</w>
वी रा
महबू ब</w>
ध म</w>
धर्मां तरण</w>
जल् ‍द</w>
ह टने</w>
में ...</w>
कू ड़े</w>
शिव पुरी</w>
पि ंकी</w>
अन न्य</w>
तृष् णा</w>
नि केतन</w>
या तना</w>
इ फे
सुल् तानपुर</w>
अधि कता</w>
ॉ न</w>
सुन सान</w>
पिंज रे</w>
प ियों</w>
ख ते</w>
भू कम्प</w>
स जे</w>
० ९</w>
वर् टर</w>
हा उस
पो लिश</w>
फा यर
डै डी</w>
भ वानी</w>
जि एगा</w>
बीडी एसएम</w>
श्म शान</w>
गुरु द्वारा</w>
पुन र
ही रो
भि वानी</w>
समस्‍या ओं</w>
हो ल्
अमी रों</w>
रो हिणी</w>
उल् टे</w>
गि कता</w>
एक् स्
फ़ि लहाल</w>
गिरफ् त</w>
बज ने</w>
च लिये</w>
ना ज़
दौ ड़ा
23 75</w>
बा ज़
गो या</w>
भा स्
ौ दा</w>
टी आरपी</w>
प्रबंध कों</w>
च बू
बहा ली</w>
ण् डी
ब तिया
अन्न पूर्णा</w>
बु ढ़
वि घटन</w>
ना त</w>
रे णु</w>
दू ंगी</w>
शिव म्</w>
फर िया
कुकी ज़</w>
ज् जर</w>
वृ न्दा
उज् ज
सौ दा
द ंश</w>
मंड ली</w>
जज् बा</w>
टेक्नॉ लोजी</w>
का व
मू लत</w>
वै लेंटाइन</w>
च परा
दी दार</w>
सीख ते</w>
क ब्रि
13 4</w>
रा मेश्वर</w>
गा लों</w>
संवेद नाओं</w>
क पूर
तुषा र</w>
व्यवसा यों</w>
शख् सियत</w>
प्र सून</w>
आइ ना</w>
चला यें</w>
भे जता</w>
मूर् खता</w>
पटा खे</w>
पूर्व वर्ती</w>
इंग लैंड</w>
पर् ची</w>
जाल स्थल</w>
न ारों</w>
स ्र्
23 .
ई साइ
सब स्क्राइब</w>
रिय स</w>
ख़ू ब</w>
दु हाई</w>
चरि त
अ रि
शि ना
जु ग
घु मक्
कि धर</w>
भी ल
तड़ के</w>
आ णि</w>
जिंद ल</w>
स जाने</w>
लू क</w>
फ़ो टो
को ल
राज पू
ं य</w>
ट ंडन</w>
ख तम</w>
बु र
फा लतू</w>
रौ ली</w>
रा मे
उदा सीन</w>
आवश्यक ता
मै ला</w>
क्री ट</w>
ताम ह</w>
\\\\ \\\\
रे ंद्र</w>
गि स</w>
अट लां
गि राने</w>
ग ्या
ने श
छि लके</w>
वीरे न्द्र</w>
ॉ ल</w>
23 81</w>
तरबू ज</w>
2 2.
अ टक
गुल जार</w>
जय राम</w>
संवाद दाताओं</w>
दरो गा</w>
अ मू
हज ारी
व्यस्त ता</w>
अ ष्टमी</w>
हे रा
शत्रु ओं</w>
ति त
दादा जी</w>
त ियार</w>
डाउन लो
स्‍ ट
सर्वो परि</w>
जिं दाबाद</w>
इं चार्ज</w>
मि स्त्री</w>
मेमो रियल</w>
टेली कॉम</w>
कटो रा</w>
15 1</w>
द रख
या या
राष्ट्र िय</w>
ली ना</w>
राठौ ड़</w>
ब म
लो भ
28 ,
सीमा एं</w>
शी शा</w>
तर्क संगत</w>
u r
14 8</w>
व त
फै लता</w>
1 .0
विलिय म्स</w>
ना दान</w>
जो रों</w>
19 36</w>
रचना त्मकता</w>
रै म</w>
ज्ये ष्ठ</w>
ज्ञ ता</w>
स्वी डिश</w>
थ के</w>
कद् दू</w>
इ काइ
नि ं
हेल् पलाइन</w>
कि ता</w>
कौ म</w>
मश रूम</w>
ड्रै गन</w>
बी टा</w>
तग ड़ा</w>
सु भाष
सोया बीन</w>
धा गा</w>
इंड िया
से टेलाइट</w>
अल का</w>
जवाब देही</w>
लुटे रे</w>
क बीर
प्र गट</w>
ग ँ
बहादु री</w>
वर्ष ा
शिया र</w>
य मुना
मुस् करा
कमा ए</w>
च लों</w>
द्र ु
नज़ दीक</w>
राघ व</w>
क्ष णिक</w>
जू लियन</w>
चु नना</w>
रा बाद</w>
बां सुरी</w>
दे ष</w>
सर् फिंग</w>
ह् ह</w>
प्राप् तकर्ता</w>
फा गुन</w>
ख डी</w>
श मा</w>
चिल् लाने</w>
कोठ री</w>
कौ ड़ी</w>
महा पुरुषों</w>
विश्‍व विद्यालय</w>
ध केल</w>
श नर</w>
सि फ</w>
आई एल</w>
पो र</w>
छु पाने</w>
बि लिटी</w>
19 58</w>
वर्ड प्रेस</w>
जब से</w>
ओ पी</w>
उप वन</w>
भर मार</w>
पूंजी वादी</w>
बिर ंगी</w>
सुन हरी</w>
जज़् बात</w>
द स्ते</w>
चू ंच
दर्शा ती</w>
उ ल्‍
सं स</w>
जन् मा</w>
आम जन</w>
सि तम</w>
प योग</w>
क्र मिक</w>
पि क
ख ंगा
अप ी
पी तल</w>
फिल् मो</w>
तमा ला</w>
सि ने</w>
ंड री</w>
न्‍ स</w>
08 :00</w>
गुरू जी</w>
भेज ते</w>
री ल</w>
जे लों</w>
श य
छ पे</w>
त ते</w>
ल्यू शन</w>
खिल खिला
बो न</w>
13 3</w>
पि तामह</w>
महा संघ</w>
ऑ स्ट्रिया</w>
भू षा</w>
काय स्थ</w>
पहचा नें</w>
हिंद ी
1 12
अव रुद्ध</w>
6 58
9 3
ऊ ष्मा</w>
निर र्थक</w>
न् दु</w>
इं ट
शर् मिला</w>
रॉ न</w>
ह ड
यो नी</w>
अर्थ शास्त्री</w>
पत वार</w>
घ ृत</w>
छा ल</w>
एल ईडी</w>
क्ला र्क</w>
प्रो ड्यू
सि तार</w>
प्ला ज्
भ क्त
जे हन</w>
रसी द</w>
फ़ि स</w>
सद ृ
रत् ना
डी जीपी</w>
बवा सीर</w>
20 5</w>
को हरा</w>
रु कावट</w>
बो ध
जु ल्
म ु</w>
ना मा
शुभकामना ये</w>
ग ए
अरु ंध
दि ‍
हिन्दु त्व</w>
थू क</w>
स्‍मार्ट फोन</w>
टो कन</w>
बिल् लियों</w>
निर्दे शांक</w>
सम तल</w>
निक लेगा</w>
अल मारी</w>
28 0</w>
कि रन</w>
में ह
जा तकों</w>
बहु ल</w>
प्रो टे
सां प्रदायिकता</w>
होश ंगाबाद</w>
प ले</w>
आ ख्या
कमा ंडो</w>
औ लाद</w>
गि लानी</w>
म्प ू</w>
इज हार</w>
प्रवर् तक</w>
घा ई</w>
पुर्त गाल</w>
27 ,
विषय वस्तु</w>
छतर पुर</w>
मनु स्मृति</w>
ने टर</w>
कार नामा</w>
हर कतें</w>
म लता</w>
स्नै प
ब ब
लि मा</w>
व्य ता</w>
ऋष भ</w>
फाइ लों</w>
हेल मेट</w>
प्रच ंड</w>
बालि काओं</w>
प्र स्थ</w>
कु तिया</w>
फॉ क्स</w>
मंड लीय</w>
उ भार</w>
ए ड़ी</w>
बचा ते</w>
न ग्
पूर् णा
ज द्
आवा जाही</w>
टिक टों</w>
यो ग्‍
राज सम
25 ,
जाग्र त</w>
नि पटा</w>
ने स्को</w>
साबु त</w>
प्रता ड़ित</w>
मना ए</w>
भू मध्य</w>
लि ना</w>
कै रो
लख ण्ड</w>
हो गी
प्रौ ढ़</w>
ग़ज़ लों</w>
६ ५</w>
संस् करण
अनुप मा</w>
ल ज्जा</w>
स् क्वा
भग वन</w>
लियो नी</w>
म ियत</w>
ग्रा फिक</w>
25 .
ठे के</w>
भटक ते</w>
ॉ ं</w>
मर न</w>
कला पों</w>
का श्
जल् ‍दी</w>
1 36
कॉ फ़ी</w>
नज़ रें</w>
झो ं
मु गल
सह ने</w>
प्रश स्त</w>
खिं चाव</w>
परि णी
कला प</w>
त्वा कर्षण</w>
स्ट्रा र</w>
भौ तिक
शे ड</w>
लु टा
s e
चम ड़े</w>
पुस्‍ तक</w>
इकट् ठे</w>
परिवर् तक</w>
पी एच</w>
स्टे ड</w>
परो क्ष</w>
वा ड्रा</w>
बां स
सं कीर्ण</w>
कार्य पालिका</w>
जाग ते</w>
सोन भद्र</w>
वर न्</w>
फ्रां सिस्को</w>
उत्पाद कता</w>
इले वन</w>
कह िये</w>
नी स</w>
क़ ब्
दौड़ ते</w>
खा प</w>
फे व
राम बाण</w>
सं श्
तु च्छ</w>
ee d
अनु करण</w>
श कील</w>
ज़िम् मेदार</w>
च क्की</w>
बा धक</w>
रा हे</w>
गि ज़
बं टी</w>
bac k
बर ती</w>
पढ़ें नवेम्बर</w>
फा नन</w>
गा इ
दु आ
राज नांद
सद नों</w>
झा ंकी</w>
का म्
ho me
बा जू</w>
बार् सि
10 6
म्‍ बर</w>
व क्र</w>
सि टी
इच्छ ित</w>
मॉड लिंग</w>
प तित</w>
औपनिवे शिक</w>
ड़ ला</w>
ए सा</w>
य र्
काठ मांड
ही मो
न हिं</w>
ष् टि
ज़ ै
लै या</w>
गी तिका</w>
श्री कांत</w>
आन् तरिक</w>
मण ्यम</w>
सु ग
अपू र्ण</w>
रे ड
वो ट
23 25</w>
डेल् टा</w>
बास्के टबॉल</w>
29 ,
रे ट्स</w>
महा शक्ति</w>
स्‍मार् ट</w>
न र्म</w>
हा ंत</w>
ब् वे</w>
भर पाई</w>
स्थि तियां</w>
बे ची</w>
मै ँ</w>
शिय र</w>
मक् खियों</w>
रा धे
सक तीं</w>
26 ,
एह सान</w>
जा उ
पी पु
चु स्त</w>
जे न्द्र</w>
वं शा
बे बाक</w>
डी लर</w>
हनी मून</w>
ड रा
राम नगर</w>
16 5</w>
वाक्या ंश</w>
काउंस लिंग</w>
v e
23 ,
अजी बो
च्च ा</w>
भू ला</w>
में ट
डाइ निंग</w>
मे धा
समी क्षक</w>
भी ग</w>
पंडि तों</w>
अ स्थाई</w>
हस्त ियाँ</w>
जस वंत</w>
कार्य प्रणाली</w>
अपना कर</w>
हो शिय
आई डी
ड्र ीम</w>
कवयि त्री</w>
इ ज़्
देहा ंत</w>
पार्ट नर
मु कुट</w>
साक्षा त</w>
बि ष्ट</w>
करा यी</w>
बच ता</w>
रे लगाड़ी</w>
देश मुख</w>
साई किल</w>
काल जयी</w>
सो लन</w>
जन सभा</w>
चि प्स</w>
खो ना</w>
पुनर् निर्माण</w>
त्‍ कार</w>
16 7</w>
खी रा</w>
्य ो</w>
खु राना</w>
में टल</w>
अल् ट्रा
दहा ड़े</w>
मं द
ज द</w>
कार्य कर्
उदासी नता</w>
यू क्रेन</w>
क़ रार</w>
हिस् ट्री</w>
चाह ेगा</w>
बे घर</w>
चि स्तान</w>
री सेट</w>
गुणव त्ता
जै केट</w>
19 00</w>
राजन यिक</w>
खो जों</w>
लै क्
ख ड़ा
मो नो
सफ ारी</w>
रं दा
अधि शासी</w>
गो पी
रेश मी</w>
बहु गुणा</w>
चिट्ठा कार</w>
ना खू
चिट् ठों</w>
उम रिया</w>
बी एच
पु जारा</w>
माल दीव</w>
ठु करा</w>
अनुभव हीन</w>
सा ंग
न् ह</w>
अव स्था
[...]
