{"354</w>":49860,"प्रबंध</w>":20229,"वंश</w>":16968,"वेबकैम</w>":26488,"स्वर्णकार</w>":41868,"होने</w>":13188,"हर":13706,"मेडिटेशन</w>":42426,"ぎ":3188,"手</w>":9444,"灯":4336,"तिकी</w>":20913,"मलाई</w>":28663,"कामयाब</w>":20755,"प्रिं":20043,"बूढ़ा</w>":28351,"菜":4700,"05.":48443,"□":2647,"शिनी</w>":45438,"पीड़ितों</w>":24725,"तदनुसार</w>":41026,"हिंदू":37908,"🙇</w>":7963,"⏪":2556,"बागी</w>":32121,"‍ल्‍":49534,"4:":22845,"कलौ":45199,"राम":13783,"कहाँ</w>":14172,"震":5062,"उस्ता":23952,"बनाना</w>":16477,"ଇ":1257,"धिक</w>":14997,"曼</w>":12750,"1939</w>":30629,"ѫ</w>":12011,"मादा</w>":25512,"बिंदी</w>":40180,"सब्":15175,"कुटु":31120,"पौंड</w>":39840,"इनमे</w>":28443,"फ्फ</w>":49981,"उड़ा</w>":22365,"पकाने</w>":26366,"◊</w>":11618,"भुज":48306,"आईसीयू</w>":46315,"नवीनता</w>":41948,"लंगो":38124,"⊆</w>":10871,"</w>":8918,"阅":5020,"साक्षी</w>":22006,"महामंत्री</w>":27047,"ཛ":1772,"05:00</w>":39619,"नौसिख":39850,"छोड़ता</w>":34810,"नमकीन</w>":29405,"🐥</w>":10186,"गृहप्रवास</w>":32255,"ˀ</w>":11621,"स्फीति</w>":29187,"┘</w>":11052,"गुट":28184,"ὴ</w>":12634,"☜</w>":8759,"असामाजिक</w>":41189,"अलगाव</w>":31738,"घुमक्":33011,"पंक्तियां</w>":33697,"पाॅइन्ट":25700,"पचय</w>":39337,"हू</w>":18010,"🅸":6781,"बही</w>":34575,"ter":39287,"मेनन</w>":35287,"║</w>":9432,"":5888,"टीवी":27570,"敏":4071,"ꠇ":5185,"ग्लास":49843,"12/25</w>":43146,"त्तन</w>":34708,"टाँग</w>":46975,"प्रौढ़</w>":33310,"रामनवमी</w>":39673,"कॉक</w>":24719,"यात्रा":19492,"नपुं":30287,"अधिका":33553,"⠛</w>":12814,"समय":20637,"थू":25437,"腦":4645,"🔍</w>":12396,"ढके</w>":45751,"ي":710,"होगे</w>":23490,"समस्":13948,"बिंग</w>":31997,"ur":33082,"आत्मसम्मान</w>":41967,"अनुसरण</w>":24589,"फा":13217,"/08</w>":21332,"ंडई</w>":39121,"बेरुखी</w>":45082,"मेटिक</w>":30152,"रेखा":20530,"रेटेड</w>":29099,"रेला</w>":45963,"सुन्‍दर</w>":47634,"ᱝ":2157,"एडवां":44427,"कुश":21128,"स्वायत्त</w>":34418,"बोतलों</w>":41546,"हैकिंग</w>":45810,"मेजबान</w>":29169,"१९९६</w>":45531,"टमा":18790,"</w>":11523,"</w>":9329,"अफ़":17899,"रुककर</w>":48070,"बाब":38518,"मिडिया</w>":32305,"बिताना</w>":38240,"सद्दाम</w>":39135,"</w>":12193,"कौ":13347,"यब</w>":44759,"फिक्स्ड</w>":29917,"रियाँ</w>":35006,"":6127,"त्तम</w>":20363,"याम</w>":15930,"हां":20823,"गणतन्त्र</w>":43533,"इमान":34509,"टो</w>":13848,"ठौर</w>":41047,"तकिया</w>":35183,"पाण्ड":28851,"कठिन</w>":16627,"रशीद</w>":39787,"हस्तरेखा</w>":28996,"讯</w>":11690,"टाइटिस</w>":28879,"⋉":2514,"坙</w>":10830,"भोगने</w>":42563,"पक्ष</w>":14651,"मिज़ाज</w>":48099,"योगा":24188,"◆":2673,"पेज":44927,"पहुचा":43300,"ग़ु":26276,"⛰</w>":11718,"पारिश्रमिक</w>":39487,"मैट्री":26250,"हर्बल</w>":31890,"स्पो":36415,"पेटाइटिस</w>":30481,"नाहीं</w>":39837,"月</w>":8597,"सूक्ष्मदर्शी</w>":38347,"🎧</w>":8679,"चिट्ठा</w>":24203,"मैन्यु":35200,"आधे</w>":19518,"मौजूद</w>":14961,"कॉमेंटे":17538,"सतर्":27753,"हिन्‍":35666,"मिलते</w>":16210,"":6597,"निर्देशन</w>":21726,"सेरेना</w>":38695,"क्</w>":20759,"000000000000000000":49133,"मोरारजी</w>":50231,"सामुहिक</w>":49602,"स्पति</w>":19790,"इत्तेफाक</w>":46732,"प्रचार</w>":16151,"अंडरवर्ल्ड</w>":42857,"순":5387,"थर</w>":24394,"🌂</w>":11769,"अत्यधिक</w>":19418,"व्याख्या":21184,"मेंट्स</w>":20222,"🅷":6780,"▄▄":47983,"216</w>":40801,"परिसरों</w>":46914,"कैलंडर</w>":20531,"बोलबाला</w>":34756,"604</w>":40773,"ۓ":811,"片":4359,"नगरोटा</w>":45904,"खण्ड</w>":16786,"सोचते</w>":19004,"发</w>":12012,"🎊</w>":10030,"नवस</w>":49941,"निविदा</w>":23587,"पराक्रमी</w>":46290,"🐒":7050,"१९४५</w>":49200,"क्षण</w>":13519,"௱":1376,"प्रोत्साहित</w>":21830,"253</w>":40917,"फ्फर":21426,"डायना":34317,"संबद्धता</w>":41146,"अभिलेख</w>":25302,"समाविष्ट</w>":48347,"प्रतीक</w>":17482,"रिलेशन</w>":37724,"सेक्सऔर</w>":45542,"ंदे</w>":17371,"संस्था":17602,"01/04</w>":47242,"बंपर</w>":39608,"मृतकों</w>":31383,"⇁</w>":12526,"गिल":42630,"う":3182,"प्रोटो":25359,"片</w>":9880,"𑘙":6759,"ब्रिड</w>":37665,"यड</w>":20761,"आठ":21146,"संभावनाएं</w>":27583,"सकर</w>":17351,"सान</w>":13627,"सुध</w>":29511,"क्रियाएं</w>":25726,"हेलो</w>":30310,"उपलब्ध</w>":14070,"बुनियाद</w>":27580,"ώ":446,"ब्बर</w>":28658,"वधू</w>":30925,"मिटे</w>":46822,"मापा</w>":28814,"太</w>":9295,"爆":4355,"कब्‍ज</w>":44527,"ય":1219,"":6589,"दीनदयाल</w>":30598,"सम्बन्धीअद्यतननवीनतम</w>":49089,"😊":7374,"हाजि":23527,"तबादला</w>":29994,"गायिका</w>":28091,"पहुंचाता</w>":37968,"भरमार</w>":33157,"萧":4706,"तरफ</w>":14445,"":5724,"होनेवाले</w>":36713,"ۆ</w>":8593,"केशन":34246,"बाहु</w>":44126,"वातानुकूलित</w>":33779,"संस्कारों</w>":26032,"➽":3010,"膵":4654,"घ</w>":7837,"ğ</w>":9007,"मेहरबान</w>":35465,"或":3996,"語":4793,"दूर":16339,"":6167,"10,":25808,"117":35343,"ओझा</w>":27020,"काउंसिल</w>":26877,"ин":39618,"बूर</w>":41724,"आईबी":25407,"मोमिन</w>":48800,"वाकिंग</w>":48716,"वामन</w>":41232,"pho":47230,"凹</w>":11433,"診":4782,"":6103,"दीर्घा</w>":30962,"मुख्यालयों</w>":49281,"ल्हों</w>":44640,"序":3906,"आव":13710,"डिवाइ":39860,"खेद</w>":29028,"नटखट</w>":40674,"सत्रह</w>":37618,"दिलाता</w>":30384,"उमेश</w>":26486,"एंट</w>":34393,"व्याख्याता</w>":40512,"₤</w>":12610,"┘":2591,"सिरसा</w>":26236,"ⵏ":3129,"":6189,"मैली</w>":40315,"स्वी</w>":26230,"ंगल</w>":15583,"📎</w>":10144,"ѩ</w>":9054,"एसडीएम</w>":21984,"बॉयो":45596,"ऻ":971,"ė":162,"168</w>":34845,"ंकी</w>":18631,"कोशी</w>":45324,"अप्र":13786,"रायगढ़</w>":29818,"विवादास्पद</w>":28182,"बिस्मिल्":42678,"उपग्रह</w>":21801,"नवजात</w>":23217,"जेसीबी</w>":41939,"अतः</w>":17494,"अफगा":20752,"पता</w>":13565,"प्रभावों</w>":25823,"मोर्":18222,"शैली</w>":15851,"समेत</w>":16561,"ប":2069,"1400</w>":36109,"नेहा</w>":24412,"೨":1501,"कैट":21601,"℘":2374,"✂</w>":9699,"जीतकर</w>":27858,"फातिमा</w>":46612,"जिल्द</w>":41335,"feed":33747,"तन":15835,"गरिया":42287,"तरणों</w>":49796,"मच्छ":23461,"िकी</w>":31099,"मार्गदर्शक</w>":31158,"सितारे</w>":21468,"당":5261,"दर्ज़ा</w>":26547,"शोहरत</w>":36529,"":5809,"गह":20380,"मॉरी":32250,"रहस्य</w>":19227,"फैक्स</w>":27696,"एनकाउंटर</w>":31582,"悲":3980,"स्तूप</w>":33934,"जार्ज</w>":34869,"ट्रेनर</w>":37567,"प्रह":37575,"बोले</w>":15642,"रान</w>":13547,"वाष्प</w>":41767,"सम्मुख</w>":28323,"१४</w>":20476,"नेस":26065,"۬":827,"पुरजोर</w>":38327,"चोदा</w>":25484,"पैग़म्बर</w>":42323,"ᆬ":1921,"޶":900,"गोलिक</w>":23467,"滅":4313,"क्षणों</w>":24211,"खुद":19757,"जगहों</w>":20005,"ӓ":544,"轉":4888,"梁":4181,"बॉट</w>":40570,"जुट</w>":19860,"वैल":30553,"समृ":17794,"ֵ":611,"दीद</w>":38558,"។":2102,"에":5416,"〰</w>":8083,"✭":2890,"गनी</w>":31804,"चिकित्सकीय</w>":34268,"मार</w>":13434,"गुरु":14855,"पड़ोसन</w>":38791,"विशेषाधिकार</w>":19792,"ग्ला":29767,"मिलर</w>":38600,"गिरफ़्":45495,"ब्लौग</w>":48478,"मान्यताओं</w>":25732,"</w>":9103,"93":33203,"आपको</w>":13446,"जीवियों</w>":27703,"निर्":13166,"</w>":8142,"गिर":14123,"凤</w>":10705,"अर्जें":28527,"斑":4080,"थीन</w>":42957,"महत्वाकांक्षा</w>":38758,"जाती":35017,"ם</w>":7802,"दृष्टिगत</w>":42345,"नति</w>":19160,"</w>":9420,"मुख्":32491,"अन्धविश्वास</w>":46901,"毅":4233,"फिल्मी</w>":17964,"जल्दबाजी</w>":31314,"संवत</w>":18461,"10:5":43983,"ंटी</w>":15970,"चढ़ाए</w>":48229,"सिडी</w>":23160,"नामांकित</w>":33600,"</w>":8456,"स्वतः</w>":26083,"讖":4812,"":6447,"शुभ":15196,"७":1013,"शैली":39706,"पहुचे</w>":44022,"🦂</w>":12483,"क़र</w>":38482,"पिंडी</w>":50218,"निदेशा":24990,"सहभागिता</w>":32098,"मृदु":40284,"शरद</w>":19653,"साईं</w>":22224,"想</w>":11253,"आफ्":41765,"176</w>":36569,"चिंग":30628,"ट्टा</w>":22761,"भाई":19995,"ĩ</w>":8563,"अंगूठी</w>":30764,"सजल</w>":49562,"मैक्सवेल</w>":41478,"मौसी</w>":25107,"夏":3744,"🏦":7017,"ĥ":169,"ٱ</w>":10430,"☹":2754,"ल्या</w>":21462,"🤴":7524,"नामवर</w>":30873,"नर्म</w>":33425,"2007</w>":15939,"अमीरी</w>":41526,"करेंगे</w>":14319,"कारमय</w>":45427,"चुनते</w>":23567,"नीशियम</w>":38437,"पनडु":34876,"भिंड</w>":38407,"लत</w>":13795,"लाइफस्टाइल":47301,"लेडी</w>":25774,"्यूज़":31374,"मरना</w>":27759,"⊇</w>":11650,"🔫":7303,"मक़सद</w>":44246,"मुक़ाम</w>":40571,"/01</w>":21544,"बिलबोर्ड</w>":49923,"यथोचित</w>":41062,"324</w>":43030,"लिम</w>":15182,"तैयारियां</w>":26653,"ङा</w>":36384,"ज्योत</w>":46708,"वैश्":17961,"द्वितीयक</w>":48805,"s</w>":7707,"फिलिप</w>":37088,"बचपन</w>":15984,"आर्डर</w>":26806,"मैच":36141,"सिय":21872,"11/23</w>":46046,"हे</w>":13799,"ီ</w>":12066,"彬":3937,"अस्तित्व</w>":17516,"沈":4254,"郡</w>":12527,"६९</w>":39877,"醫":4958,"</w>":10209,"कैफे</w>":32106,"अनुज</w>":31508,"भेजा</w>":16526,"🌼</w>":8951,"लिबास</w>":36744,"น":1641,"रोलर</w>":44624,"</w>":9486,"ज्ञ</w>":15667,"🎆</w>":7999,"प्लेग</w>":49890,"साजन</w>":35802,"व्यक्त</w>":16413,"सैनिकों</w>":19306,"फ्रांस</w>":18898,"पत":16386,"मोदी</w>":13752,"सां</w>":40147,"पलाइन</w>":28945,"😐":7380,"वधि</w>":26986,"99":23595,"2.5</w>":27588,"ý</w>":8151,"त्‍या</w>":32594,"पूर्णतः</w>":28738,"वाहिनी</w>":32650,"जावा":35718,"गोरखपुर</w>":19779,"धूल</w>":20635,"शशि":29319,"किसानो</w>":34346,"गा</w>":12977,"च्ची</w>":47653,"599</w>":46368,"कुंभकर्क":22614,"करता</w>":13367,"पुकारे</w>":46772,"धर्मगुरु</w>":42925,"बंदे</w>":36666,"बढ़ा":14145,"ज़बरदस्ती</w>":45653,"प्रतिभाओं</w>":35125,"मुस्तै":40429,"फाल्गुन</w>":39551,"युवतियां</w>":42922,"रणनीतिक</w>":32635,"लित</w>":13924,"लॉन्":18231,"श्रेष्ठ</w>":15553,"齊":5164,"भग</w>":14281,"इष्ट</w>":36032,"लेडीज़</w>":48264,"निहारते</w>":49427,"मुखपृष्ठचौपाल":20615,"गौर</w>":19273,"शाहरुख़</w>":30879,"वेशभूषा</w>":37295,"क्रोध</w>":19768,"उठाना</w>":22468,"ఖ":1389,"344</w>":46374,"⟷</w>":12178,"दार्जि":34468,"आदरणी":34528,"सच":18515,"ʻ</w>":8499,"楊":4198,"</w>":10359,"ኪ":1987,"🕵</w>":9056,"ֿ":621,"एक्‍ट्रेस</w>":50010,"खोदकर</w>":48943,"दूँगा</w>":26157,"있":5450,"अधिकां":16451,"दंडा":42862,"大":3750,"मीत</w>":24512,"आंगन</w>":26603,"एसो":18298,"जलाओ</w>":46963,"पों</w>":16190,"अविनाशी</w>":44896,"柄":4160,"निंद":36242,"कलश</w>":24842,"अनियमि":29396,"ट्वे":34792,"निकट":28194,"पालन</w>":15705,"पत्थर</w>":16555,"मिथि":25916,"हरिया</w>":41721,"鼠":5162,"करानी</w>":26953,"अपे":16595,"":88,"अफीम</w>":35731,"बैठकर</w>":19763,"</w>":11219,"🌰</w>":10817,"शब्दसागर</w>":48230,"अंबेडकर</w>":24486,"सर्स</w>":31095,"उदासीन</w>":33029,"⇒</w>":8115,"कामाय":45100,"एन॰":49922,"♊":2771,"बेईमान</w>":33634,"जलपाईगुड़ी</w>":43973,"☋</w>":12332,"ⵏ</w>":11338,"पर्याय":40772,"सम्मे":16298,"सेंसेक्स</w>":20081,"कामुक</w>":22576,"प्रविष्टि्</w>":42331,"칫":5498,"षीय</w>":37173,"राहगीरों</w>":41501,"बैड":25546,"साझेदारी</w>":26888,"हुआ</w>":13172,"":6238,"साइट</w>":14127,"निर्भया</w>":35687,"</w>":12310,"कोरियाई</w>":27730,"लेय</w>":45782,"🛣":7500,"विद्यार्थियों</w>":19663,"अपार्टमेंट</w>":21325,"传":3435,"सर</w>":13234,"ट्रेडमार्क</w>":43097,"रहनी</w>":41250,"बनाता</w>":18170,"💭":7201,"संतान</w>":19236,"यकों</w>":39665,"🔢</w>":11019,"🕐</w>":11369,"यानी</w>":15298,"ন":1066,"😤":7400,"अनुपालन</w>":28652,"दृ":14652,"लुंगी</w>":45444,"स्वभाव</w>":18914,"इन्सा":48428,"ंत":23455,"😔</w>":8509,"ँगी</w>":19996,"कहलाता</w>":20739,"पारिभाषिक</w>":47458,"फ़ाई":50199,"चालकों</w>":27699,"वाल</w>":13634,"٢":728,"पत्थर":34344,"पंजा":14817,"रेश":22461,"6.":17262,"सुखा":34651,"दुधवा</w>":40460,"पठित</w>":24612,"यूजीसी</w>":36234,"व्ला":41207,"त्योहारों</w>":31420,"पीलापन</w>":48489,"😘</w>":8025,"मजबूती</w>":22813,"प्राग</w>":35774,"處</w>":12048,"प्राथ":16226,"✉</w>":10108,"📕</w>":10032,"परिवर्तक</w>":33348,"हाजी</w>":32223,"अहम</w>":17703,"गूढ़</w>":35213,"ঁ</w>":8291,"मिलिट्री</w>":39546,"ቡ":1961,"➸</w>":12242,"मजद</w>":30685,"कूवर</w>":41786,"खट्टा</w>":31989,"भदौ":37339,"रखनी</w>":27153,"पाव</w>":35792,"तमी</w>":47297,"पीता</w>":26252,"षकों</w>":27892,"सांप्रदायिक</w>":23272,"જ":1204,"ា</w>":12611,"일</w>":12684,"सफाई":42065,"रद्दआप</w>":39274,"ش":688,"पढें</w>":26819,"मारू":42589,"ए...</w>":48442,"रघुवंश</w>":47572,"नियत</w>":19826,"हसी":26484,"ួ</w>":12768,"डोमेन</w>":17981,"वातानु":23423,"倭</w>":10679,"転</w>":12477,"ठिकाना</w>":27422,"賞":4855,"":6268,"छमाही</w>":44601,"पसंद</w>":14202,"ই</w>":8067,"जॉनी</w>":38365,"डरना</w>":38296,"उपभोक्ता</w>":20178,"विचारक</w>":30179,"ሪ</w>":10961,"प्रीमियर</w>":24446,"कतरन</w>":44245,"चोदने</w>":26162,"जनक":49049,"पट</w>":17677,"सौजन्य</w>":30257,"ጥ":2017,"嗲</w>":10727,"🎑</w>":9584,"션</w>":9686,"</w>":9901,"ऽ":973,"संदर्भों</w>":33725,"जाइश</w>":29687,"करारी</w>":32195,"चालू</w>":19181,"जत्था</w>":47053,"अभिगमन</w>":23749,"निर्भी":34978,"क्रिश्च":39753,"नरगिस</w>":38806,"पीएफ</w>":22230,"प्रतिद्वंद्वि":44621,"बद्धता</w>":20397,"सोर्":35931,"8.2</w>":45306,"अकादेमी</w>":47761,"ต":1637,"बरसने</w>":48738,"咇":3660,"币</w>":11564,"武":4224,"विचित्र</w>":22581,"सॉफ्ट":31673,"च्छ</w>":17657,"बिखरे</w>":24905,"एगा</w>":16299,"जन्मों</w>":32444,"लान</w>":16547,"सुहागा</w>":50251,"स्कि":33753,"वास्तुकार</w>":47816,"</w>":8469,"उपद्र":43403,"ट्रांजेक्शन</w>":45951,"पहुचने</w>":45373,"तुम</w>":13562,"स्मा</w>":40900,"ऋतिक</w>":26292,"जोड़ी</w>":19074,"कमीन":22565,"அ</w>":12050,"ഗ":1520,"भागकर</w>":37248,"":6069,"बेचकर</w>":32398,"✟</w>":12614,"मशी":15681,"सपाटा</w>":44655,"ठिठ":36134,"हिस्‍सा</w>":36464,"拝</w>":11986,"দ</w>":7864,"प्रलेखन</w>":42083,"इन</w>":13087,"बदल":32187,"बोधि":36119,"पंजे</w>":40557,"समाचार</w>":14195,"सहर</w>":35120,"᥆":2125,"_</w>":10122,"ヒ</w>":12072,"入":3506,"</w>":12325,"拙</w>":12844,"संबद्ध</w>":22926,"戶":4001,"प्रविष्":17258,"टेलाइट</w>":26751,"धड़ी</w>":26258,"ψ":441,"सगी</w>":44166,"बॉय</w>":28834,"बिजनस</w>":46614,"गर्भाशय</w>":29199,"ை":1361,"अभिभाषण</w>":39425,"शम्मी</w>":49160,"क्लै":39967,"शिथिलता</w>":49844,"⁑</w>":9626,"रिंकू</w>":47070,"चेस्टर</w>":30201,"पेस्‍ट</w>":43682,"ۆ":799,"》</w>":8719,"करेंरजिस्टर</w>":34172,"मनमाने</w>":41952,"डिटे":35082,"रद्":17180,"सर्वत्र</w>":29469,"सानिध्य</w>":38202,"야":5408,"":6569,"पिक्चर्स</w>":40505,"हानी</w>":27895,"सोई</w>":31826,"वफादारी</w>":43933,"ही":12915,"1880</w>":47427,"➽</w>":8296,"नेट</w>":14369,"🎌</w>":9994,"👐":7109,"बलवान</w>":31390,"":6608,"लामी</w>":39373,"💢":7190,"͠":403,"सभी</w>":13182,"झमाझम</w>":49274,"करवा</w>":18077,"घु":14091,"छंद</w>":22386,"एण्ड</w>":24326,"खौफ":35579,"न्यूटन</w>":36324,"गोल्ड</w>":20455,"मार्को</w>":46166,"բ":573,"प्रिंटिंग</w>":38966,"जौ":18825,"दत्ता":39882,"@":33,"दास्तां</w>":38596,"मिनिस्ट्री</w>":37447,"मुरलीधर</w>":47320,"पन्":15177,"लघु":19321,"लाइफ</w>":17376,"संध्या</w>":21003,"फाटक</w>":31204,"सम्भवतः</w>":45394,"हिंदू</w>":16367,"ያ</w>":9403,"⠂":3028,"खबरों</w>":19949,"縏</w>":10008,"प्रोडक्शन</w>":30132,"院</w>":8576,"हल्द्वानी</w>":30983,"कोंग्रेस</w>":46271,"तेज़ी</w>":25038,"</w>":12606,"पीड़ा</w>":19215,"ब्रजभाषा</w>":38885,"":6462,"":6583,"सुनी</w>":19316,"बूढ़ी</w>":31140,"उतारना</w>":39792,"विचारकों</w>":38334,"ἢ</w>":10441,"राय</w>":14687,"सकारा":18148,"अर्थात्‌</w>":44548,"वीरांगना</w>":41447,"संदेशों</w>":30423,"कुशीनगर</w>":33855,"2.68":35967,"":6404,"नीरव</w>":40323,"उतारू</w>":40739,"चित्रकार</w>":26583,"लाठी":35454,"஡":1335,"निःशुल्क</w>":21555,"험":5551,"कँ":36087,"प्रशस्त</w>":33335,"":6218,"मुकेश</w>":19969,"ミ":3304,"छापें</w>":43126,"अक्सर</w>":14825,"गुत्थी</w>":31343,"पेड</w>":23919,"आउट</w>":15852,"हॉलिवुड</w>":31751,"एका":16087,"झू":14986,"आशिकी</w>":37650,"कामवाली</w>":49410,"भाई</w>":13952,"班</w>":9719,"</w>":9461,"चैंपियन</w>":25908,"जेड</w>":31162,"代</w>":11771,"किस्त</w>":36712,"1997</w>":24496,"ज</w>":7723,"चिस</w>":39253,"फंडिंग</w>":45581,"ब्राउज़</w>":37408,"सेंगर</w>":40368,"ंदर":47665,"फैक्":19915,"िज</w>":18403,"ആ":1511,"󾀠":7544,"नांक</w>":44373,"निम्न":15145,"भी...</w>":44615,"मनौ":49509,"पहनाने</w>":45475,"य":959,"गुलि":36420,"आयी</w>":17936,"प्रोड":20916,"आर्थ":14624,"गामी</w>":26265,"ग्यान</w>":40509,"रानीखेत</w>":45599,"रैकेट</w>":30220,"士":3736,"و":708,"पकड़ने</w>":21849,"ι":426,"त्रिकोण</w>":36349,"सेहतमंद</w>":24259,"聚":4617,"遠":4931,"दुकान</w>":16612,"":6256,"ष्य":24501,"环":4384,"शहरयार</w>":45268,"िता</w>":15675,"۶":834,"अल्जाइमर</w>":44766,"भार्गव</w>":31071,"लेबल</w>":17001,"धर्मनिरपेक्ष</w>":28811,"":6440,"सानिया</w>":25112,"ደ":2004,"ग्रेट</w>":20044,"念":3960,"अंगी":38484,"防":5024,"ईमे":19902,"मुस्‍":37068,"टाइटे":45152,"ह</w>":7720,"हड्डी</w>":22437,"आनुवांशिक</w>":47987,"कॉरपोरेशन</w>":38131,"पका</w>":25641,"ị</w>":9333,"बॅ":35061,"गुआम</w>":48412,"擒</w>":8180,"":93,"केयर</w>":24136,"⇖</w>":9036,"गुलाटी</w>":47632,"𑘲":6765,"बिच्छू</w>":42248,"ʎ":301,"2.2</w>":44697,"पृथ्":15496,"बग्":47440,"":6048,"स्थायि":41089,"केन्या</w>":40534,"रोपड़</w>":37696,"˫":341,"101</w>":24762,"बमबारी</w>":43332,"जन":13158,"सकोगे</w>":45272,"ठोकर</w>":30765,"मुह</w>":25893,"इन्द्र</w>":26288,"420</w>":37474,"गंजापन</w>":49797,"बेकाबू</w>":35305,"राजनांदगांव</w>":34496,"वेबसाइटें</w>":41873,"":5735,"भूपेंद्र</w>":36092,"कैल":19533,"दर्शनीय</w>":24588,"दशा":30697,"ड्री</w>":23998,"मुठ्":33866,"म्रता</w>":27412,"आईएसआईएस</w>":34981,"टाइल्स</w>":46721,"हॅ":38275,"k":50,"हण</w>":29312,"讖</w>":10390,"परिवर्तनसमाज</w>":26309,"":5972,"दफनाया</w>":45660,"जन्तु</w>":46385,"कैरियर</w>":19639,"फ्रै":37265,"अपेक्षाओं</w>":39676,"आगया</w>":50147,"डेविस</w>":39459,"अमेज़न</w>":39203,"गोलार्ध</w>":47825,"तरह</w>":13202,"ؒ</w>":12418,"ल्लू</w>":32883,"सुरीली</w>":47529,"हँसी</w>":23102,"उठी</w>":20306,"हस्तक्षेप</w>":21397,"कवी</w>":46029,"क्तियाँ</w>":19020,"फ़ॉन्ट</w>":29453,"फ्लॉपट्रेलरविडियोफोटोगैलरीआप</w>":47535,"मुखमैथुन":42771,"राजस्‍थान</w>":28066,"लिखित</w>":14649,"जुदा</w>":26016,"दरजा</w>":42023,"फाइ":16192,"तरि</w>":48523,"विद्युत</w>":17265,"स्वयंसेवकों</w>":37774,"हैदर</w>":28603,"ṇ":2203,"मौला</w>":34275,"活":4275,"↷</w>":11325,"編":4572,"चिकने</w>":38610,"न्त्र</w>":26438,"समकक्ष</w>":25568,"खिल</w>":22597,"साहेब</w>":22074,"</w>":8235,"रुद्र</w>":38643,"खिलाने</w>":31221,"</w>":8930,"🕊":7322,"􀈹</w>":10769,"":6677,"ű":203,"कम्पनियां</w>":49799,"फैलोशिप</w>":50194,"सोल</w>":27976,"ꦮ":5201,"भंडा":36539,"जिले</w>":14605,"रत्नों</w>":30927,"वक़्":17320,"गलतियों</w>":27143,"विडियोफैशन":24048,"सुजान":44705,"रक्त</w>":16887,"ंब</w>":40389,"हैंग":39117,"柿":4165,"점":5461,"":6531,"तोड़कर</w>":25263,"विहीन</w>":25559,"央":3754,"👊</w>":8432,"सजावट</w>":28139,"लास</w>":15739,"у":468,"ग्रैंड</w>":28348,"मेरि":25199,"एनडी":23469,"आया":22167,"供":3458,"अड":30177,"शिवराज</w>":22079,"इंद्र":22287,"टीं</w>":36918,"रेल्":37886,"फेंकना</w>":47416,"华</w>":9109,"निव":20315,"बच्चे</w>":14113,"बदा":26618,"प्रथा</w>":20713,"ሪ":1943,"दिखा</w>":16888,"鑊":4986,"निभा</w>":23877,"धारे</w>":31409,"":5713,"🎉</w>":9318,"🙀":7428,"🤣</w>":8315,"आशीर्वाद</w>":20160,"पीआर</w>":36042,"हटके</w>":23905,"ູ":1719,"智</w>":11711,"बनाते</w>":17744,"शर्ते</w>":18306,"ज़र":22241,"ठन</w>":29192,"10</w>":13372,"मिने":44516,"साँचे</w>":34646,"आयोग</w>":15331,"館":5098,"🐉":7042,"उबाल</w>":28949,"ेंने</w>":36553,"परावर्तन</w>":45315,"洲":4274,"झोपड़ी</w>":33932,"तड़प</w>":27031,"莽":4698,"संस्":13517,"साहे":21642,"निवेद":20878,"पोलियो</w>":31953,"फंस</w>":23322,"पढते</w>":36516,"ka":43501,"कतरा":35922,"शुक्रिया":27975,"सोवि":23784,"替":4127,"":5811,"गुणवत्ता":33507,"श्र":13068,"了":3391,"अधि":13238,"क्रियाओं</w>":21538,"टल</w>":13598,"ֻ":617,"ध्यान":25235,"कमबख्त</w>":22245,"प्रार":14777,"内":3519,"শ":1075,"मंत्रों</w>":30655,"🖊":7341,"नार्वे":39639,"१९९९</w>":42048,"योग्य</w>":15948,"ম":1071,"शिलान्यास</w>":32251,"उठो</w>":29193,"लांग</w>":38530,"ạ":2216,"🐆":7039,"टेलीफोन</w>":24665,"कुटीर</w>":42868,"ř":191,"जन्नत</w>":26658,"दफ":30072,"लौटती</w>":47956,"स्केप</w>":34283,"⬋</w>":8902,"भव्य</w>":21194,"यं":15636,"सीनेट</w>":39649,"व्‍यवहार</w>":38270,"</w>":8020,"योग्‍":33296,"आगजनी</w>":39815,"कंड":29653,"कर्ल</w>":49536,"छात्रा":17714,"धिकारी</w>":16651,"धन्यबाद</w>":30047,"यशकरन</w>":32397,"विचलित</w>":27891,"एक्स्प्रेस</w>":45119,"कम्युनिकेशन</w>":38256,"संचयन</w>":38146,"ડ</w>":10417,"कोशि":14075,"मैटर</w>":46232,"ईको</w>":49691,"र्थियों</w>":17002,"൬":1569,"咔</w>":11957,"टाप</w>":44568,"":5717,"स्टैं":37955,"</w>":11201,"दारा":36601,"":6194,"प्लीज़</w>":31709,"🅛</w>":12282,"आकुल</w>":50209,"संसाध":42275,"भण्डार</w>":32523,"लिप्य":44082,"इंडोनेशिया</w>":23451,"组</w>":10621,"रूठ</w>":34169,"욕":5430,"तत्वा":27016,"त्रयोदशी</w>":50132,"􀇒":7643,"चुकी</w>":15012,"मानव":16457,"⇅":2416,"1923</w>":40436,"पर्य</w>":25242,"प्रदाताओं</w>":44720,"🐸":7085,"ི</w>":11142,"હ":1227,"मैम</w>":44852,"पहचानें</w>":33198,"निय</w>":45274,"नमूनों</w>":40253,"ंगिया</w>":49801,"वंदे</w>":34514,"१९६०</w>":44204,"किंग</w>":14212,"वदं":39612,"</w>":11224,"चलिये</w>":32943,"</w>":8269,"पुनर्जीवित</w>":40032,"काफि":27233,"जर्नल</w>":27368,"डेक्कन</w>":49145,"पैगम्बर</w>":37453,"प्रकोप</w>":27303,"地</w>":12286,"लता":21510,"토":5522,"सिलसिला</w>":20678,"अस्थिर</w>":34570,"डकै":24118,"शब्दो</w>":42510,"2010व्यूस</w>":23633,"212":35037,"जन्मी</w>":34256,"तरीके":48570,"दैन्यं</w>":44011,"</w>":9868,"नलि":49216,"विहार</w>":21423,"":5939,"समस्ती":35959,"ठे":16719,"चोर</w>":18547,"तुम्‍हारे</w>":39092,"❀</w>":9326,"घिनौना</w>":28209,"नाचने</w>":36374,"वाँ":47547,"जैने":44751,"ंगे":18140,"आईसी</w>":24040,"दावे":26715,"34,":41365,"5.5</w>":37492,"लूसी</w>":41985,"संपूर्ण</w>":19591,"군</w>":11186,"गणित":32151,"ᄒ</w>":9271,"440</w>":40516,"झूल</w>":38191,"नौवहन</w>":50165,"जाकिर</w>":28952,"प्रणालियों</w>":27984,"राईट</w>":33761,"छांव</w>":38074,"पुर्तगाल</w>":33266,"केंचु":46668,"๐":1679,"両</w>":8558,"矣":4462,"आपाधापी</w>":40122,"मंजू</w>":35266,"ag":24834,"निर्देशांक</w>":33245,"छोड़तीं</w>":35545,"प्रजापति</w>":26398,"बुलडो":48436,"भाया</w>":39859,"भूमि":21044,"":6134,"अमीरों</w>":32935,"असमंज":31310,"विश्वभर</w>":39697,"इनायत</w>":45762,"कुंदन</w>":41836,"कीर्ण</w>":27685,"屋</w>":12345,"∷":2482,"氣":4244,"हनन</w>":31186,"⇜</w>":11279,"कोको</w>":49386,"पूजे</w>":48464,"ऍं</w>":44365,"ब्दी</w>":49510,"ü":148,"चुकाने</w>":31603,"आयें</w>":26555,"❅":2913,"आलसी</w>":30124,"":5774,"क्तियों</w>":15702,"鐨":4983,"</w>":8507,"":6387,"उधार</w>":23834,"थिक</w>":28875,"डोरी</w>":40744,"फ़ें":44131,"मौ":13222,"宝</w>":8726,"ँक</w>":28917,"लनी</w>":23435,"यहॉ</w>":46188,"पार्क</w>":16427,"मोटापा</w>":20077,"🗝</w>":9763,"इंडी":48825,"शरा":19797,"पड़ा":23681,"आर्यिकाशिरोमणि</w>":41893,"लालगंज</w>":47159,"截":3999,"ྔ":1794,"ईन्":39793,"हिन्दुओ</w>":41714,"कंगा":36919,"गायक</w>":20310,"नास्तिक</w>":29677,"हड़बड़ी</w>":44772,"잡":5453,"कर्म</w>":15699,"ड्राफ्ट</w>":29711,"णिम</w>":30191,"ज्वैलरी</w>":44980,"उगते</w>":37984,"मैरीकोम</w>":49291,"ర":1409,"पवार</w>":25218,"हरु</w>":25448,"┃":2579,"कांड":47298,"प्रस्‍तुति</w>":41025,"":5690,"दूतावास</w>":18151,"चयन</w>":15342,"</w>":8774,"🍉":6883,"लाहट</w>":42350,"16:00</w>":49964,"वैलरी</w>":41904,"説</w>":9338,"गारंटी":26150,"ɦ":269,"ँकि</w>":18832,"परवेज</w>":36237,"पत्रों</w>":19178,"甘":4407,"बैंकिंग</w>":19887,"अश्वगंधा</w>":43434,"परांत</w>":31840,"अंतरात्मा</w>":42109,"瞳</w>":9160,"अनुप":18277,"देंहटाएं":15519,"आजतक</w>":28044,"बिता":19514,"ब्ली":42763,"माताओं</w>":28962,"goo":25447,"संग्राम</w>":21614,"ari":49346,"कुर्":16755,"闻":5018,"ंस":15505,"द्वी":16178,"🏚</w>":12776,"12:00</w>":30184,"नूर</w>":22109,"बाड़":21007,"स्टेटमेंट</w>":41051,"ान</w>":42470,"َ":714,"भोजना":36356,"रचनात्मकता</w>":33091,"ट्यूबलाइट</w>":44157,"निपटारा</w>":39621,"🏢":7013,"क्‍":13506,"🔺</w>":10118,"००</w>":16553,"प्रबंध":25333,"cir":43855,"फर्":16747,"कुपोषण</w>":29013,"गवाह</w>":23636,"जानकारियाँ</w>":29007,"सूत्र":23939,"लेट":39057,"ठाकुर":38183,"बदलने</w>":17394,"बिल्‍":32364,"सौदा":32969,"亦":3404,"गोला":27405,"耕":4613,"प्लैटिनम</w>":49001,"bi":43594,"🌱":6859,"विदेश</w>":15834,"वालिया</w>":31268,"ན</w>":9558,"अनंत":40579,"गरीबों</w>":20085,"टित</w>":22561,"दौरे</w>":19372,"यात्रासंस्मरण</w>":45007,"स्कर्ट</w>":29307,"司</w>":9647,"एमआई</w>":34848,"कोलाहल</w>":37729,"फियों</w>":50022,"बढ़े</w>":21787,"􁳶":7688,"ዮ</w>":8999,"कलक्":44143,"कृपा":33661,"ती</w>":12924,"मंत्रा</w>":44137,"सजा</w>":16115,"दिग्गजों</w>":32389,"पारस्परिक</w>":32741,"जनमानस</w>":30749,"⇉</w>":10035,"「</w>":8200,"💟":7187,"फ़ॉक्स</w>":32556,"काई</w>":17029,"बाली</w>":22647,"सरो":18211,"हिरण":39622,"📓":7233,"斌</w>":9769,"स्तम्भ</w>":25951,"닐":5257,"फाक</w>":31294,"":6284,"भगाया</w>":46270,"वेटिव</w>":44670,"उले":41460,"गेशन</w>":23354,"面":5070,"冀</w>":11090,"麿</w>":11527,"विंडो</w>":25874,"08:00</w>":33181,"रियाल</w>":44061,"5/5.0</w>":41256,"रॉस</w>":48025,"दास्तान</w>":30576,"96</w>":20749,"त्रु":17433,"देशद्रोही</w>":34170,"रुपै":45480,"03:00</w>":44954,"लेनी</w>":22687,"करि":21771,"देशनामा</w>":50212,"जुड़ीं</w>":44252,"टिफिन</w>":45918,"परिचितों</w>":49476,"नवाज़</w>":34733,"मांगें</w>":31832,"मौजूदा</w>":17368,"उसूल</w>":48479,"अक":16431,"ɸ":284,"लायी</w>":31696,"गाता</w>":29239,"चते</w>":40704,"उठाएंगे</w>":42898,"लोटस</w>":42046,"विनि":22814,"समलैंगि":28075,"―":2301,"虾":4734,"ता...</w>":42616,"राजदीप</w>":45809,"高":5117,"드</w>":10658,"ѱ":503,"द्ध":14566,"🍠</w>":10993,"कबाड़ी</w>":47556,"तिरंगा</w>":26562,"೬</w>":9572,"후":5558,"पड़ेगी</w>":22684,"रहकर</w>":20078,"राउंडर</w>":43952,"􀈣":7645,"इबार":36284,"एड</w>":20683,"उद्देश्यों</w>":28783,"ज़ेशन</w>":39795,"डाउन":15088,"दोलित</w>":47930,"तोड":31200,"स्विस</w>":27017,"军</w>":8255,"姬":3778,"続":4567,"ả":2217,"हौसले</w>":32171,"झुल":27477,"श्रेष्ठतम</w>":48664,"show":36391,"अस्वीकरण</w>":17882,"ढूंढ</w>":25248,"਼":1164,"岛</w>":8176,"":6145,"रेन्स</w>":36877,"जुड़ी</w>":16768,"🍅</w>":11866,"482</w>":46535,"ȣ</w>":7981,"आँ</w>":29778,"ڏ":764,"ड़वा</w>":44390,"सेलि":22980,"डोला</w>":45501,"हज्ज</w>":38534,"लैण्ड</w>":21524,"जल्":14089,"इलेक्ट्रॉ":19878,"अष्ट</w>":44094,"कन्‍":37299,"खुलेआम</w>":29356,"ំ":2094,"🔭":7305,"प्रिया</w>":23448,"ट्रिब्यू":36187,"स्टु":32343,"󾌳":7564,"φ</w>":8853,"सितंबर</w>":14585,"पूर्वानु":29636,"रुकी</w>":28927,"जीप</w>":26752,"शुभार":20664,"स्थायित्व</w>":41795,"काँ":18768,"बीमार":16540,"फ्रू":32652,"द्रिक</w>":34176,"११":36947,"लिखती</w>":26655,"ट्राली</w>":39108,"लाकि</w>":43907,"番":4425,"</w>":8908,"पुरवा</w>":36313,"प्रभाष</w>":32892,"ख़त</w>":27875,"रबी</w>":32536,"धीमे</w>":30723,"कुल":17153,"⺗":3145,"धरोहर</w>":23667,"ंधी</w>":43380,"𑘠":6760,"ይ</w>":11714,"⟵</w>":11202,"ĥ</w>":10214,"</w>":8087,"🐢</w>":11434,"पैकेजिंग</w>":34233,"काग़":35858,"🙃</w>":8783,"ईण्":45864,"कच":19571,"श्रद्धांज":42445,"सूचना</w>":14043,"नुस्‍":19994,"७६</w>":32688,"संस्तुति</w>":44801,"हादसा</w>":22685,"अण्णा</w>":37152,"कागजात</w>":33713,"महापर्व</w>":38133,"यूरोप</w>":17605,"वारंटी</w>":34511,"धिर</w>":31135,"द्रविड़</w>":27996,"रेसिपीज</w>":38070,"ब्बत</w>":17054,"वित्त":27286,"सुल्":19456,"हवें</w>":42838,"हिष्णुता</w>":26100,"मूर्तियों</w>":28435,"203</w>":38632,"【</w>":8196,"साइटों</w>":22015,"浙":4282,"쌈":5398,"उसमें</w>":15215,"🌯":6857,"विक्रमी</w>":36199,"0.00":39555,"मित्रो</w>":27770,"व्यंजन":38547,"🔀</w>":12264,"हममें</w>":31282,"➝</w>":11997,"":6523,"तीय</w>":13256,"रस</w>":15357,"कैंडिडेट</w>":36570,"बिजनेस":43028,"षष्ठी</w>":46959,"</w>":10947,"🐒</w>":11824,"गंगानगर</w>":29548,"गमन</w>":18649,"厄":3606,"</w>":11969,"घृत</w>":33214,"सड":23645,"कडा</w>":37906,"रथ</w>":20266,"सौहार्द</w>":36759,"८५</w>":39458,"村":4146,"観</w>":12144,"</w>":9960,"एनएच</w>":37229,"आत":36905,"अनुरक्षण":39785,"आमन्":36595,"चाहती</w>":15790,"यूनिटी</w>":47456,"伦":3438,"स्‍त्र</w>":41191,"界</w>":11928,"😖":7386,"दबाने</w>":23828,"बैसाखी</w>":35868,"हनुमानगढ़</w>":36598,"अट्ठ":47328,"向":3636,"礙</w>":10972,"बुराइयों</w>":36257,"ց":598,"2015</w>":14315,"खैर</w>":18340,"उल्लिखित</w>":35817,"दली":37025,"🛤":7501,"लहर":24431,"┆":2580,"भविष्य":17821,"अपमानित</w>":29661,"बंदरगाहों</w>":49621,"भारती</w>":17698,"सर्टिफिकेट</w>":26829,"􁳙</w>":10033,"ढू":15950,"कहेगा</w>":31708,"325":26544,"":5817,"झुलस</w>":35538,"रोजाना</w>":20674,"ग़ज़लें</w>":27242,"माइक्रोफोन</w>":41254,"बना":13146,"माफिया</w>":26297,"रज्":44148,"":5782,"ˎ</w>":11248,"शरारती</w>":29853,"域</w>":12232,"4.3/5.0</w>":45721,"ब्‍लॉ":31237,"आशियाना</w>":37149,"ारीकरण</w>":31556,"महराजगंज</w>":42415,"शोभ":26897,"धमकी</w>":18885,"बेस</w>":20017,"महापुरुषों</w>":33143,"स्पून</w>":31145,"होत्रा</w>":29348,"्रम</w>":29826,"會":4129,"":6059,"240</w>":30999,"ా</w>":8802,"फ़िर</w>":16860,"恶":3974,"</w>":11825,"भान</w>":27311,"ंगीं</w>":38421,"सर्वस्व</w>":40321,"धनतेरस</w>":29516,"त्तेजक</w>":36482,"पाकि":14096,"फ्लू":44168,"मच्छ</w>":36024,"सिद्धान्त</w>":23716,"弥":3928,"⇨":2441,"那":4940,"ऊंट</w>":34087,"संभव":45450,"🆗":6796,"तहस</w>":45335,"फेड":26035,"🌤</w>":9989,"≦":2494,"󾓭</w>":9852,"चौरासी</w>":43824,"आवरण</w>":26342,"夫</w>":8354,"छंदों</w>":43141,"मुक्केबाज</w>":49141,"कंडो":24784,"जान":13128,"विशवास</w>":45871,"सागरीय</w>":43048,"कटक</w>":34606,"रविवार</w>":15270,"सर्वविदित</w>":50213,"पिल":44057,"‚</w>":7937,"मुग्ध</w>":27161,"गोरख":18732,"सतत</w>":23713,"ቲ":1969,"✡":2879,"आश्रय</w>":27539,"पकती</w>":45657,"लगी</w>":14005,"闋</w>":11806,"इन्टरनेट</w>":24161,"कील</w>":17688,"ंटी":24850,"छपने</w>":31925,"तबके</w>":30569,"मुख":13230,"सुपौल</w>":46611,"爾":4358,"पंहु":28940,"":5668,"जवान</w>":16549,"नज़्":41681,"ʁ":290,"पि":13125,"</w>":9545,"प्रगा":39481,"۵":833,"जलि</w>":17440,"नक़ल</w>":38489,"严":3359,"बिगड़</w>":25146,"नशा":42663,"19वीं</w>":34583,"मधुर</w>":19913,"स्‍कूल</w>":32049,"शायर</w>":20794,"पैदा":27471,"엔":5417,"शाहजहाँपुर</w>":45939,"악":5401,"सीखे</w>":32706,"ӟ":549,"किंगफिशर</w>":33816,"बुलेटिन</w>":21367,"चाय</w>":16056,"राजनीतिज्ञ</w>":28974,"":6593,"जाऊं</w>":25150,"डंडा</w>":29650,"निर्माण</w>":13992,"獣</w>":11376,"話</w>":8647,"্</w>":8037,"ʺ":319,"सुधार":19373,"μ</w>":7878,"爾</w>":9707,"माहिर</w>":28155,"5</w>":7696,"टिंग</w>":13864,"लिंकों</w>":49761,"ऋषभ":31279,"xt|":12882,"खर":18799,"वाद्य":35186,"संस्मरण</w>":19944,"5.0":44327,"सेक्‍सी</w>":46913,"वसीम</w>":39461,"":6374,"ፍ":2022,"≧":2495,"0/":48352,"बुलाकर</w>":28086,"改":4064,"संस्‍":26156,"गाय":16046,"टिंग":32446,"कपुर</w>":32557,"लेप</w>":29881,"समापन</w>":21364,"सेक्रे":29068,"डाल</w>":15461,"൯</w>":8208,"सुन्दरता</w>":29153,"कीर्":19673,"भवन</w>":15826,"दबाया</w>":34011,"":6332,"":6058,"पीना</w>":21385,"फूलों</w>":19117,"द्राक्ष</w>":24722,"ग्राफ</w>":18136,"अभियो":27324,"माध":22142,"अविश्वसनीय</w>":32676,"जनाब</w>":23374,"रहनेवाले</w>":41386,"पंजाब":34681,"सूचियाँ</w>":36729,"दह</w>":25243,"धा":12995,"फौरन</w>":29951,"उत्थान</w>":25795,"कड़ी":46230,"ग्यू":44145,"तलब</w>":18622,"मंडलीय</w>":33287,"अफ़सोस</w>":28148,"ट्रै":15849,"बिगाड़</w>":29077,"उष्णकटिबंधीय</w>":36733,"खोई</w>":31845,"हिमा":15798,"आलोचक</w>":24954,"एसयूवी</w>":39277,"म्युनि":49861,"सलामी</w>":30524,"ॱ</w>":8579,"┬</w>":10312,"🎖</w>":10233,"आह्वान</w>":22662,"छाँव</w>":30583,"ھ</w>":7960,"अचानक</w>":16090,"✵":2897,"कमज़ो":34436,"猴":4375,"पितृ</w>":29555,"प्रतिष्ठान</w>":32739,"ड़ित</w>":31690,"निहायत</w>":36381,"ྃ":1791,"स्फो":37346,"कते</w>":17598,"ۇ</w>":11506,"मटोल</w>":40149,"नज्म</w>":47636,"❷":2950,"बुद्":17134,"複":4760,"06/21</w>":45812,"गैलरी":24260,"306भाषा</w>":32280,"कुण्डली</w>":28684,"जमशेदपुर</w>":27828,"ईमेल्ड":23044,"चंद्र</w>":17421,"डू</w>":20666,"झें":48811,"मायाजाल</w>":49498,"☪</w>":11853,"जानी</w>":17814,"शिव":14945,"तरजीह</w>":37892,"❝":2935,"愛":3985,"आच्छादित</w>":44702,"चहक</w>":42911,"सूर</w>":19871,"ı</w>":8892,"अनुभ":20439,"गिरीश</w>":28356,"बस्त":26643,"लानी</w>":20911,"⇗":2430,"蘭</w>":9358,"豪</w>":11890,"保":3467,"ب</w>":7836,"पत्नि</w>":37933,"을":5443,"बढ़कर</w>":19776,"":5564,"۰</w>":9632,"प्रसि":17927,"लडाई</w>":35486,"दादाजी</w>":33059,"कोना</w>":23151,"बीएसपी</w>":30116,"मड़":43313,"खंड</w>":14386,"拝":4029,"फिजिकल</w>":43209,"":6246,"</w>":11415,"🔝</w>":11296,"139</w>":32572,"पुरे</w>":23732,"पूर्वो":24006,"शमी</w>":26209,"117</w>":29869,"फ़ैसले</w>":40374,"गुज़ार</w>":46323,"मज़दूरों</w>":33837,"राजनीतिज्ञों</w>":37511,"हेयर":37462,"</w>":9576,"26,":33436,"खापन</w>":39549,"कराल</w>":35316,"बटोर</w>":39301,"पंप</w>":22448,"प्रादेशिक</w>":26594,"चाकू</w>":24542,"दहाड़</w>":47470,"परिभ्रमण</w>":17609,"उपयो":22792,"रंगो":31868,"सांप्रदायिकता</w>":33255,"फ़र्ज़</w>":40091,"인</w>":12774,"कर्तव्यों</w>":28218,"बॉर्":28297,"देनी</w>":21523,"बिशप</w>":38928,"सर्वाइकल</w>":37153,"ईस्ट</w>":22349,"↔":2381,"कल्लू</w>":42092,"लगाता</w>":26222,"सम्":13204,"स्ली":30824,"1925</w>":41003,"":73,"कृषि</w>":15683,"朋":4132,"मकों</w>":42849,"युगीन</w>":34850,"चुनावी</w>":18507,"राजु":45332,"सेटिंग</w>":19736,"३७</w>":35620,"⇧</w>":8628,"दाय":15073,"नक्सलियों</w>":21952,"रवीश</w>":27727,"अकू":45846,"आसरा</w>":44386,"पन्न</w>":14705,"ஜ":1331,"ល":2075,"浆</w>":9781,"पैसा</w>":15521,"虾</w>":11098,"नगदी</w>":34466,"सवे":23506,"૩</w>":10806,"स्पीच</w>":40336,"नित</w>":15222,"बि":13007,"वीरवार</w>":34823,"ओम्</w>":48601,"︎</w>":8921,"मेश्वर</w>":17573,"हार्वर्ड</w>":40263,"月":4130,"问</w>":11977,"挙":4037,"👕":7114,"ग्रांट</w>":43736,"眞":4456,"सविधाओं</w>":45767,"ደ</w>":9502,"भ्रष्टा":15688,"डीए":30615,"भगो":34753,"सुजान</w>":49558,"बुर्जुआ</w>":45118,"ब्लोगिंग</w>":31621,"ヱ</w>":10631,"👇":7100,"क्षा</w>":13175,"":6193,"धर्माव":44662,"वेदी</w>":16834,"용":5431,"贾":4864,"फ़ारसी</w>":26798,"गुनगुनाते</w>":47423,"बीएमआई</w>":32361,"♒":2779,"चलकर</w>":21347,"झंडा</w>":24558,"􀈸</w>":12138,"गांठ</w>":24031,"थॉ":24354,"कैमरे</w>":19818,"पथिक</w>":34120,"मियत</w>":33319,"शॉपिंग</w>":24410,"</w>":8640,"अख़बारों</w>":36164,"पीर</w>":27183,"छूना</w>":41518,"मुल्क</w>":23962,"प्रदायक</w>":25857,"⠒":3040,"हौसला</w>":24307,"间</w>":10130,"दिलचस्प</w>":18776,"बहर</w>":36455,"्यु":14775,"नतीजे</w>":22191,"कोहली</w>":19199,"अभि":13608,"देखना</w>":16180,"प्रतिभावान</w>":42130,"स्टूडेंट</w>":24712,"शिद्दत</w>":33691,"अंडमान</w>":28994,"ਮ":1157,"226</w>":43358,"≦</w>":8086,"स्वीकारा</w>":43217,"典":3517,"寒":3825,"ओंमें</w>":42711,"फ्रॅन्स</w>":37837,"溫":4311,"स्थ":12982,"</w>":9384,"</w>":11151,"🇮":6808,"जिम्मा</w>":31222,"用":4412,"टेस्टिंग</w>":47085,"गृहिणी</w>":34819,"नेत्रों</w>":36627,"यदि</w>":13643,"जुटता</w>":36160,"याद":14178,"श्यक</w>":25603,"अनूप</w>":23376,"कैंपेन</w>":43049,"पकाया</w>":39284,"":6342,"जावा</w>":32876,"प्टर</w>":21053,"मुन्ना</w>":28789,"भरम</w>":45103,"माहौल</w>":17534,"匹":3581,"":6357,"谧</w>":11417,"संतु":15582,"題</w>":12378,"वाकर</w>":23880,"पूरन</w>":48045,"려":5294,"जिनकी</w>":18025,"൱":1574,"🤷":7526,"8.4</w>":48880,"चो":13845,"ज़म</w>":45426,"उत्कीर्ण</w>":42561,"दिखे":21909,"ۧ</w>":12522,"आईसी":21145,"इना":42008,"टेगी</w>":30050,"महाशय</w>":34319,"तमिल</w>":20607,"💦":7194,"♨":2801,"नैतिक</w>":16208,"⤀":3076,"आसक्ति</w>":39979,"एनए</w>":24545,"नियम":34101,"कोषीय</w>":42532,"ग़ज़ल":47482,"कनी</w>":20813,"बीयन</w>":42807,"मसौदे</w>":46652,"लाला</w>":23353,"ज्योति":15051,"वितरक</w>":41482,"नोबल</w>":33597,"सुपुत्र</w>":48787,"वश्यक</w>":25963,"स्सा</w>":42713,"हंगामा</w>":19197,"":5831,"असलियत</w>":29720,"मौली</w>":38338,"डेटाबेस</w>":25695,"जंग":18359,"बरसा</w>":36205,"ậ":2221,"</w>":8335,"":6511,"कल्पित</w>":30539,"ढाका</w>":32825,"मान्":35729,"सेवानि":21890,"":6559,"￷":6740,"अबू</w>":29219,"𐭃":6752,"उमा":31639,"शपथ</w>":19235,"。</w>":8256,"जेलों</w>":33185,"संकर</w>":38500,"सांई</w>":40451,"407</w>":48296,"चलेगा</w>":19891,"दिखावा</w>":32411,"प्रकाशित</w>":14695,"प्रेर":16094,"बांके</w>":47503,"बिताते</w>":43452,"घुमाने</w>":38561,"एमेच्योर</w>":21948,"कईं</w>":48152,"त्थान</w>":38665,"आस्तीन</w>":40678,"द्रव्यमान</w>":30469,"पूरब</w>":30300,"जुड़कर</w>":43274,"1900</w>":33509,"प्रोत्सा":17729,"रासलीला</w>":49300,"221</w>":41101,"बजाय</w>":16956,"वाईसी</w>":46808,"सेकसी</w>":36626,"पिथौरागढ़</w>":33632,"मजबूरी</w>":22031,"सोचेंगे</w>":39134,"ந":1339,"運":4927,"तार्किक</w>":28630,"":5664,"लैस</w>":24598,"🎎</w>":10143,"🡡":7503,"नाक</w>":15656,"हिता</w>":19003,"011</w>":38906,"नाथजी</w>":42421,"❧</w>":9768,"파":5529,"वितरण</w>":17856,"स्वामी":25897,"feedback":33940,"as":30064,"ma":32535,"म्मा</w>":35035,"पोजिशन</w>":42959,"रुको</w>":37635,"इंडियन</w>":16884,"परमहंस</w>":37051,"आजमी</w>":42116,"मुहं</w>":26321,"छुट्टियां</w>":32775,"चारिक</w>":18906,"दिखावे</w>":36907,"बापू":42403,"बिल्‍कुल</w>":37868,"रेड</w>":19857,"रातों</w>":18577,"मचल</w>":36004,"रब्":44952,"लेषण</w>":27219,"लाइन्स</w>":35447,"सफ़ाई</w>":30828,"ਰ</w>":8012,"":6416,"अन</w>":27915,"एका</w>":44703,"पलकें</w>":34153,"तई</w>":46694,"께</w>":11087,"岩":3865,"स्टार</w>":16185,"439</w>":46663,"प्रोटोकॉल</w>":30997,"दवार</w>":41201,"ੇ":1170,"फ़ेयर</w>":40995,"खाएंगे</w>":46676,"ग्लेन</w>":48628,"मेल":25114,"मुझमें</w>":28279,"हाना</w>":23479,"आबंटन</w>":40222,"हिरा":20188,"रवियर</w>":33689,"नासिर</w>":42360,"滑</w>":9799,"식":5394,"टूटता</w>":36715,"नंबरों</w>":43714,"सर्कुलर</w>":47074,"ᾶ":2285,"有":4131,"पॉप</w>":26307,"150</w>":20060,"प्या":13789,"तपन</w>":39251,"</w>":12085,"बेब्सऔर</w>":24359,"糍</w>":12027,"प्रायोगिक</w>":35965,"पैकेज</w>":21915,"गार्डन</w>":22634,"घोंसले</w>":45046,"प्रथम</w>":14434,"छत्‍तीस":37263,"৫":1106,"छूटे</w>":32387,"मीकि</w>":25900,"नीचे</w>":14201,"फंदे</w>":37976,"फैज़</w>":49723,"नामक</w>":15929,"तहलका</w>":30535,"महत्‍व</w>":35658,"चकमा</w>":44307,"फैलाने</w>":25047,"बेदार</w>":34190,"गिक</w>":16601,"पल्ले</w>":47504,"ङ</w>":8047,"राओं</w>":44780,"विंडों</w>":45787,"विकल्प</w>":16082,"स्थानान्तरण</w>":38207,"स्वामीजी</w>":34123,"ेगी</w>":14062,"02/12</w>":43436,"दुखों</w>":32016,"मेंस</w>":26301,"ణ":1397,"लट्":49484,"दिखेगी</w>":39452,"╛":2610,"⠯</w>":12576,"सोलहवीं</w>":43953,"⧭</w>":7990,"୨</w>":12766,"":6300,"नाभिक</w>":48177,"रेवती</w>":44302,"स‌":48695,"〔":3168,"ラ</w>":11109,"⚔":2819,"":5822,"礙":4472,"":5612,"多":3747,"":6683,"ƨ":215,"ऊल</w>":47928,"दिल्लगी</w>":49056,"सूँ":49625,"⊆":2502,"पेशे</w>":25252,"भेजें</w>":16074,"╔":2604,"゚":3244,"⧢":3088,"🎳</w>":9877,"साइन":32704,"डॉ</w>":14374,"➖":2976,"ब्लॉगों</w>":40457,"ओन</w>":32758,"सामुदायिक</w>":24055,"थ्":31624,"खुजली</w>":22527,"ठहाके</w>":45554,"हंसता</w>":47405,"स्किल</w>":40013,"ൾ</w>":9430,"एनबीटी":29376,"⬜":3105,"01–":45677,"শ</w>":8128,"गिनने</w>":49578,"रोमांचित</w>":38650,"स्राव</w>":28284,"ి</w>":8183,"05/10</w>":48026,"चुरी</w>":28112,"नारी":28177,"परसों</w>":34525,"डेल्ही</w>":41956,"ᮓ</w>":10536,"🔞":7293,"आर्टिकल</w>":20270,"टहल</w>":42041,"फू":13984,"वस्‍":32312,"जिया":20526,"ഊ":1514,"खराबी</w>":31961,"龍":5170,"बाबु</w>":41675,"लेबलों</w>":38367,"":6415,"चार्टर्ड</w>":39707,"कूल्हे</w>":46938,"चर्म</w>":37957,"कियाँ</w>":21868,"बंडल</w>":49461,"वेलफेयर</w>":37416,"हैरतअंगेज":24044,"सरसाइज</w>":21672,"झुं":29395,"ᄄ":1903,"नॉर्वे</w>":33580,"ੀ":1167,"❆":2914,"बिरयानी</w>":37647,"स्टैंड":20869,"रंडी</w>":31820,"औलाद</w>":33260,"2350</w>":41747,"ቀ":1955,"137</w>":33930,"हरदोई</w>":30837,"ዞ":1999,"बोगी</w>":41183,"विजयाद":44330,"सुप्रीम</w>":16707,"當":4426,"हॉर्":28355,"इंट</w>":17913,"胡</w>":8943,"":5693,"मायूसी</w>":41041,"द्व":13157,"मयंक</w>":20473,"र्स</w>":13780,"逐</w>":12668,"बनवा":34929,"कुर्ता</w>":35171,"अटकलों</w>":49944,"बर्स</w>":39078,"沸":4261,"ॼ</w>":10886,"🍂":6876,"सबला</w>":49593,"अघोषित</w>":34272,"प्रधाना":23296,"जिन्ना</w>":30122,"माँगे</w>":45800,"ः</w>":7732,"अंकुर</w>":28916,"҇":513,"जीडीपी</w>":31769,"नियन्":44809,"दुरुपयोग</w>":26523,"विश्लेषणात्मक</w>":41273,"सहमा</w>":42916,"भिक्षु":39568,"᭨":2144,"तड़का":48812,"परमा":16066,"शिवहर</w>":41568,"मॉर्":23729,"ৌ":1092,"कटर</w>":48167,"डेवेलपर्स</w>":20923,"गतिविधि</w>":22008,"उत्‍पादन</w>":40010,"रेपो</w>":43809,"लेश्वर</w>":28453,"ʟ":314,"अनजाने</w>":23619,"अंतः":30830,"मृत्य":15324,"हला":32888,"परास्":42923,"":6153,"करेंशेयरx</w>":36867,"व्रत</w>":16982,"म्युचुअल</w>":37354,"कीड़े</w>":27701,"गरमा":46279,"गुरूवार</w>":28637,"ჱ":1898,"臺</w>":10531,"करवाते</w>":30736,"̈</w>":9874,"जनसंघ</w>":40294,"यो":12972,"બ":1216,"꣬":5198,"दै":15487,"पेनिसि":47611,"↧":2393,"</w>":9914,"....":14137,"महासमुंद</w>":41535,"मिथुन</w>":23306,"लाई</w>":13640,"लोदी</w>":43590,"दुग्ध</w>":32641,"टिप्स</w>":17721,"सीखे":43882,"हवास</w>":44125,"🌄</w>":10414,";</w>":9222,"˩</w>":11438,"नू":15381,"मूल्य</w>":14475,"गठरी</w>":36170,"ळा</w>":46406,"याददाश्त</w>":37607,"ỉ":2234,"⊱":2510,"सबेरे</w>":40000,"ह्यु":45204,"🍒":6892,"आभारी</w>":25073,"😰":7412,"अभिमान</w>":28152,"प्रतियोगिता</w>":16732,"वित्तीय</w>":16980,"え":3183,"मना</w>":16558,"भागीय</w>":21269,"ओडि":22745,"महत्‍वपूर्ण</w>":28660,"समोसा</w>":47270,"मांगनी</w>":46969,"̒</w>":12271,"ध्रुव</w>":26029,"मैत्री</w>":32747,"रामायण</w>":20394,"26/":32048,"टिप्पणियाँकोई</w>":27710,"संसद</w>":15565,"は</w>":8445,"औपनिवे":32601,"उछला</w>":47603,"ब्य":23922,"भलाई</w>":25660,"剣":3558,"屏</w>":10923,"अनुमो":24248,"इंटर</w>":21947,"काठमांडू</w>":35715,"णिकता</w>":47849,"कैदी</w>":25812,"क्वेस्ट</w>":36458,"̆</w>":11180,"खे":13218,"स्वच्छ":21470,"हाइकू</w>":43892,"कच्छ</w>":36872,"नागरिक</w>":16746,"बाराबं":31979,"तौलिया</w>":42744,"ब्वॉय":39653,"लता</w>":13792,"तंग</w>":21556,"हाशिये</w>":36245,"िनी</w>":42299,"ੋ":1172,"ר</w>":7989,"पुरा":13708,"♣":2796,"❖</w>":10015,"➩":2993,"廓</w>":12265,"बारम्":46273,"ख़ाने</w>":46464,"नि</w>":13841,"मेष</w>":21926,"लखनवी</w>":46373,"ӧ":553,"कायस्थ</w>":33197,"चुदा":30130,"कुठ":44341,"त</w>":7706,"मिंटन</w>":26832,"विषयानुसार</w>":44474,"लौटकर</w>":29266,"इंजिनियरिंग</w>":27929,"डीजी</w>":43073,"बारियों</w>":29942,"क्लीन</w>":29313,"रूपेण</w>":48411,"मारा":34957,"कोला</w>":30459,"लखन</w>":39419,"साइडबार</w>":47055,"ंगा</w>":13817,"गोपा":34355,"बूँदें</w>":39409,"नक्सलवाद</w>":30568,"बटवारे</w>":49361,"ณ":1635,"歳</w>":10670,"🎮":6971,"उलझन</w>":27482,"बताया</w>":13703,"ंश</w>":17466,"घरा</w>":36830,"नेगेटिव</w>":39702,"掛":4044,"正":4222,"अनंत</w>":20646,"निगरानी</w>":20559,"संकल्प":38661,"पीटीए</w>":46175,"हर्षोल्लास</w>":45680,"च्‍":14900,"जिलाधिकारी</w>":21181,"मिलान</w>":24107,"೦":1499,"भीग</w>":33460,"൦</w>":9876,"कलाकारों</w>":20387,"🔱":7309,"आख़ि":22207,"पुनीत</w>":35708,"आई॰ऍस॰बी॰":31498,"रिक्शा</w>":25988,"वजहें</w>":40349,"ߋ":903,"प्रवचन":21185,"🍤</w>":11658,"关":3515,"एड्":49557,"◠</w>":11212,"ʩ":317,"ग":935,"मध्ययुगीन</w>":43407,"◀":2670,"नूनी</w>":33757,"बाँध":30286,"गाबा</w>":49960,"धर्मशास्त्र</w>":39834,"बांबे</w>":47253,"सोये</w>":33913,"ం":1381,"</w>":12148,"소":5381,"몽":5327,"दामोदर</w>":36636,"पट्टे</w>":30232,"वयस्क":50207,"पाठ":14025,"जनों</w>":15791,"बंधन</w>":14679,"यात्रियों</w>":17863,"☮":2747,"घुड़सवारी</w>":36494,"जोंग</w>":44984,"पंच</w>":19693,"परिणामों</w>":24010,"सलू":29995,"🗻":7360,"करेंपिछली</w>":37205,"स्थि":13534,"आत्मिक</w>":32873,"दिव्य":39097,"":6091,"असिस्टेंट</w>":25829,"दाई</w>":15410,"राजद</w>":29583,"钟":4989,"स्पति":22590,"संशोधित</w>":21799,"गज</w>":21310,"141516":41444,"उद्वे":40805,"बाद</w>":13039,"ल्सी</w>":50034,"रोने</w>":21365,"मारी":39772,"कार्यक":48788,"परछा":33639,"त्रिगुट</w>":33582,"आना</w>":16142,"विश्वकर्मा</w>":31253,"षणात्मक</w>":39948,"कौल</w>":29622,"टाइ":14086,"वाओं</w>":15909,"डिफेंस</w>":34204,"स्मारकों</w>":42984,"जन्में</w>":40642,"शिंगटन</w>":22905,"तन्हाई</w>":28910,"फाउंडेशन</w>":23945,"􀉍":7653,"रोहि":36751,"उन्ही</w>":25202,"ᄈ</w>":10859,"न्ड":41485,"株":4169,"अपनापन</w>":34785,"मण":17586,"धू</w>":23785,"नम":22221,"जरा":39177,"विश्रा":21895,"लक्ष्यों</w>":29882,"खोजों</w>":33511,"सासों</w>":33703,"94":24978,"उबालकर</w>":46068,"दंश</w>":32970,"देंहटाएंउत्तर":32470,"</w>":10480,"ब्‍ला":43985,"लगीं</w>":21871,"red":43423,"लिश</w>":16143,"为</w>":11088,"會</w>":9575,"레":5292,"रोष</w>":26382,"वैरि":47748,"जौहरी</w>":43577,"अद्य":16952,"मुकुट</w>":33474,"कविताओं</w>":18927,"हिंदु</w>":39324,"ݽ":866,"जातीं</w>":29349,"मशक्कत</w>":32089,"चाणक्य</w>":23897,"⚇":2813,"लाईट</w>":28938,"वर्त्तमान</w>":43923,"रईस</w>":26886,"दर्दी</w>":34724,"पंचकूला</w>":35713,"अजवाइन</w>":43185,"04/12</w>":45251,"डाक्टरों</w>":29035,"बकौल</w>":38867,"महिमा</w>":21039,"माउंटेन</w>":42133,"यक़ी":48154,"वाहन</w>":16776,"नहा":19874,"हार्ड":22696,"२६</w>":22237,"मधारी</w>":30470,"ᳯ":2181,"सोमालिया</w>":44628,"कनेक्टिविटी</w>":37794,"निभाएंगे</w>":49541,"6,":18085,"कस्":18352,"आईएस":20846,"居":3852,"🇭":6807,"पटाप</w>":45269,"बसर</w>":37785,"जयते</w>":30316,"257</w>":42064,"अश्रु</w>":38433,"उतरता</w>":36121,"एमपी":34904,"कस्ट":25500,"नासवा":43121,"पाद":26541,"बड़ों</w>":29250,"लगाएगा</w>":45712,"詳":4790,"रोलिंग</w>":43208,"ǐ</w>":10028,"߶":904,"बचेंगे</w>":47641,"सुनता</w>":25283,"゚</w>":9328,"छूटने</w>":36161,"लैक्स</w>":47047,"क्लासिक</w>":23991,"चरम</w>":21030,"पूर्णा</w>":30242,"किये</w>":14500,"ᕿ":2048,"दफन</w>":35471,"खुशन":47260,"उर</w>":25458,"ᕗ":2047,"संगठनों</w>":18548,"ṁ":2200,"पत्ती</w>":27930,"":6578,"रह</w>":13959,"दार्जिलिंग</w>":34730,"महाभ":36457,"मार्गों</w>":27721,"☍</w>":10669,"डिय़":24369,"देवेश</w>":48173,"ɟ</w>":11881,"ज़हन</w>":41607,"पलकों</w>":27802,"宁":3805,"राब</w>":14607,"क्लाउड</w>":37193,"₠</w>":10872,"मेटाबॉ":45988,"सिंह</w>":13334,"च्या</w>":24994,"मदद":21205,"तब्दील</w>":24642,"मूव</w>":40588,"रंगनाथ</w>":48838,"ָ</w>":12389,"समस्‍या</w>":20582,"स्मिता</w>":40407,"अलग":40538,"๗</w>":10999,"辽":4899,"들":5275,"षेक</w>":18703,"शराबी</w>":24611,"ଂ</w>":11709,"घूर्":36605,"श्रद्धा":17062,"家</w>":10097,"🗿</w>":9668,"झूले</w>":35149,"":5957,"पुरोहित</w>":24155,"शनों</w>":18819,"शरीर</w>":14002,"౯":1439,"देखें</w>":13746,"व्हाइट</w>":25717,"फार्मा</w>":35274,"पाइन</w>":48666,"ْ":718,"परिचर्चा</w>":29325,"◇</w>":12769,"बताईये</w>":41476,"60</w>":15635,"मणिपुर</w>":23388,"रिश्":14413,"൴":1577,"साइमन</w>":34404,"परफॉर्":34219,"सलामत</w>":33984,"律</w>":11390,"खोपड़ी</w>":36148,"कोला":29466,"बिछु":38760,"प्रकाशनों</w>":44936,"📶</w>":12635,"😁</w>":8214,"आहु":28251,"सूना</w>":33925,"🏤":7015,"급</w>":12060,"परफ्यू":47468,"अण्ड":45051,"📀</w>":12680,"राइडिंग</w>":49976,"=":30,"जा":12893,"टॉपलेस</w>":40695,"294</w>":43181,"330</w>":37224,"दृष्टि":15288,"रियत</w>":32501,"भड़का</w>":40244,"सञ्":37978,"सार्थ":17597,"गेंदबाजी</w>":26907,"पूर्वा":16895,"cti":45570,"खींचती</w>":47545,"जुअल</w>":36928,"सांग":33530,"</w>":12718,"नग्":33291,"वस्त्र</w>":19633,"सप्तम</w>":28646,")</w>":8508,"अश्व</w>":44554,"कुनबा</w>":48915,"प्रतीकों</w>":33849,"बवंडर</w>":44802,"माण</w>":13796,"स्तर</w>":13977,"ऍस":30857,"गीतांजलि</w>":50028,"गणक</w>":33749,"नाराजगी</w>":25121,"⋯</w>":11963,"मीमां":32252,"दौड़ा</w>":30751,"☟</w>":10908,"घोर</w>":21694,"·</w>":7811,"बिकता</w>":39444,"मृणाल</w>":47924,"रचनाकारों</w>":25102,"फ़ुटबॉल</w>":47005,"":6337,"":6670,"ږ</w>":11900,"अंकु":30426,"तारीख़ें</w>":23480,"सुरंग</w>":27797,"लेखों</w>":20115,"पुरूषों</w>":23406,"कल्पिक</w>":19175,"रोहतास</w>":47784,"禮</w>":9005,"दस्":23130,"रूपरे":27184,"2.45":42242,"ロ</w>":9996,"एनओसी</w>":49388,"एंग्":41925,"निखारें</w>":44479,"पढ़ेंसितम्बर</w>":31500,"आईएएनएस</w>":36512,"बाहु":19960,"वहन</w>":17503,"समूचे</w>":27559,"ஆ":1317,"♑":2778,"":6660,"जीये</w>":49820,"टैब</w>":26993,"इन्वे":44122,"ස</w>":10075,"कार्र":15388,"रिटायर":26548,"蘭":4729,"धड़क</w>":41930,"먼":5316,"ถ</w>":10685,"पैसावसूल</w>":24019,"टिकाऊ</w>":35284,"साक्षरता</w>":24576,"————":19334,"पैगाम</w>":34628,"明":4100,"रियम</w>":29905,"फ़ीड</w>":23615,"नांकित</w>":46006,"←":2377,"अधिकांश</w>":16657,"काज</w>":20425,"टिनम</w>":38635,"परामर्श":43540,"बनानी</w>":31876,"म्रपान</w>":18473,"व्यो":31850,"󾌰":7562,"दृष्ट</w>":45783,"ΐ":412,"चूना</w>":30660,"लिए":19104,"»</w>":7872,"215</w>":36221,"जो":13176,"गांगुली</w>":28272,"1.84":45305,"डाकघरों</w>":45764,"ध्व":15943,"क्रियेटिव</w>":18660,"राष्ट्रिय</w>":33073,"कैमरों</w>":36012,"पच्च":25300,"पिशा":31692,"ब्रिस्":46410,"काबिले</w>":40485,"आगाज</w>":29943,"कॉन्":18087,"इतरा":35594,"निको":23411,"उबले</w>":41213,"पांडा</w>":48018,"बिजलीघर</w>":46889,"दिल्":23589,"मुझे":39469,"1011":36537,"राजस्थान</w>":14996,"सुहाने</w>":50079,"252</w>":39963,"शर्मि":25276,"स्नेह":43443,"आरओ</w>":34213,"कॉपर</w>":43444,"डिय":13345,"श्रमिक</w>":24007,"वका":24936,"6":23,"प्लग</w>":36408,"नेदरलॅंड्स</w>":35467,"सनसनीखेज</w>":34181,"स्ट्रक्शन</w>":40426,"ड़ियां</w>":23441,"निविदा":30746,"कीटनाशकों</w>":42058,"डंठल</w>":48430,"प्रतिकृति</w>":42343,"नाका</w>":44445,"राजसमन्द</w>":40873,"दमदार</w>":26766,"सामान्यत</w>":31449,"नसीरुद्दीन</w>":45250,"सेक्रेटरी</w>":31413,"किशो":14995,"रमा":26447,"पूछिये</w>":49496,"डियन</w>":16344,"स्वयं</w>":14815,"स्‍मार्":25640,"हनीमून</w>":33445,"स्वयंभू</w>":42128,"िम</w>":23157,"्यांक</w>":47721,"ظ</w>":8157,"ே</w>":11461,"ἷ":2269,"सूझ</w>":37348,"渾":4303,"एमी</w>":39970,"字</w>":8638,"अनपढ़</w>":32259,"इम्तिया":39968,"हिप</w>":30092,"證":4805,"गैसों</w>":35024,"ʘ":310,"एकाधिक</w>":29801,"टमाटर</w>":18956,"तरता</w>":33550,"भूमिका</w>":15229,"मिजाज</w>":27963,"मेंशिया</w>":35547,"°</w>":7814,"उपयोगकर्ताओं</w>":18232,"तस्वीर</w>":16198,"शवों</w>":35460,"स्क्वै":39640,"हठ":41720,"ॣ":1003,"চ</w>":9302,"👲</w>":8517,"काश्मीर</w>":43738,"अछूता</w>":40211,"आइना</w>":32990,"320</w>":36904,"ད</w>":10208,"मले</w>":41161,"उधे":35216,"🍼":6931,"दुश्‍":25961,"ض</w>":7978,"सीडी</w>":19599,"फ्राँसिस</w>":42787,"१९७३</w>":48891,"उंगलियाँ</w>":46991,"प्रतापगढ़</w>":26144,"दूरगामी</w>":41731,"राह</w>":16153,"🙏":7443,"绷":4592,"":6633,"पर्ण</w>":46002,"∠":2472,"😹</w>":9266,"अवश्य</w>":16721,"बांधे</w>":31089,"毀":4232,"हिमां":25935,"मालगाड़ी</w>":35552,"लौकी</w>":32037,"कुलकर्णी</w>":39319,"मुस्तफा</w>":48456,"जैकेट</w>":33508,"चुनाव</w>":13806,"गुजारी</w>":44035,"ईश्वर":26440,"बनने</w>":15043,"बैटिंग</w>":41184,"別</w>":12176,"":5691,"माल्यार्पण</w>":44364,"गाई</w>":20001,"陰":5036,"मेरे":42192,"</w>":9017,"फोबिया</w>":41330,"स्‍ता</w>":32845,"":6605,"अंडे</w>":21971,"कारीगर</w>":37393,"तिर्":44015,"टोंक</w>":41870,"मोबाइ":45470,"बाधाओं</w>":28548,"रिन</w>":27203,"निश्‍चित</w>":26170,"फैलते</w>":49539,"भूगोल</w>":21314,"</w>":8809,"दुर्घटनाओं</w>":32063,"२०१":15962,"जापानी":49167,"ब्‍लॉगिंग</w>":47181,"1800</w>":32254,"मिलकर</w>":16441,"129":46923,"आप</w>":13057,"गृहस्थ</w>":32313,"नेश</w>":19578,"पैसो</w>":47676,"भावनायें</w>":35110,"अर्पण</w>":34459,"कैरेट</w>":44678,"आवश्यक</w>":15063,"टेक्नोलॉजी</w>":20512,"जब्":21744,"नॅ":28134,"फ्राँ":40970,"आईएनएस</w>":46340,"फ्रो":41367,"यिता</w>":27658,"रा</w>":12990,"रियाज</w>":48484,"द्रा":17901,"लड़कों</w>":20351,"वन्य</w>":25841,"जीक्यूटिव</w>":34506,"विज्ञान</w>":14196,"मुस":27550,"सैनी</w>":27342,"वॉल":20357,"सॉस</w>":35422,"नंगा</w>":23001,"जाँ":23795,"वि":12873,"स्‍वास्थ्‍य</w>":34843,"吻</w>":12506,"चलता</w>":15719,"कॉलम</w>":26293,"गंवाने</w>":47795,"पोस्टरों</w>":49618,"बैक्टीरियल</w>":48813,"जयंती</w>":19052,"बूझकर</w>":27004,"संकोच</w>":25960,"⇦":2439,"गाउन</w>":37296,"अँ":17784,"अल्पसंख्य":20213,"आहिस्":31396,"ǧ":232,"धुँध":47309,"बनि":38878,"मेलबॉक्स</w>":46767,"स्थाई</w>":23402,"प्रमाणपत्र</w>":22884,"০</w>":9190,"उच्‍":24468,"◽":2702,"मरीज़</w>":37842,"模":4210,"ي</w>":7850,"</w>":7938,"खडे</w>":31094,"":6322,"":6536,"झु":15143,"पक्के</w>":30228,"3.6":46543,"सम्वाद</w>":45823,"鋨":4973,"铁</w>":9315,"कुर":21607,"कीरत</w>":38680,"අ":1585,"</w>":12599,"परदेश</w>":45258,"प्रत्येक</w>":15166,"न्ति</w>":18218,"म्‌</w>":44733,"दुश्मनी</w>":29698,"फ्लाईओवर</w>":45862,"पचा</w>":40441,"नेहरु</w>":27483,"बिकाऊ</w>":46529,"अजें":41565,"गुनहगार</w>":43903,"युव":17061,"सेट्स</w>":36037,"कांग्रेसी</w>":22747,"नाली</w>":24715,"हफ्":17529,"ತ":1467,"ཨ":1783,"":5823,"झूठा</w>":22463,"निजामुद्दीन</w>":44397,"तानाशाह</w>":31472,"💫</w>":8804,"पीजी</w>":25110,"आविर्भाव</w>":50114,"भीम</w>":24796,"कब":23252,"पली</w>":32132,"ト":3281,"강":5209,"</w>":10203,"आरके</w>":31189,"長":5003,"हाथा":29134,"➪":2994,"सेबू</w>":35385,"चुना</w>":18724,"हेरफेर</w>":46874,"एग्":22645,"कश्":14748,"टाई</w>":17720,"दीक्षित</w>":21360,"हैरत</w>":29861,"आठवां</w>":40618,"सद्भाव</w>":33720,"</w>":10949,"कम्‍प्‍यूटर</w>":47097,"🚷":7488,"एक्सेंट</w>":24334,"हैपी</w>":34799,"संक्षिप्त</w>":21180,"इश्वर</w>":32656,"灸":4337,"</w>":11858,"अभिव्‍यक्ति</w>":45573,"विचार":16525,"जोद":46416,"ख़ुद":50167,"జ":1393,"त्‍वचा</w>":21161,"098":48710,"इम्यू":40885,"क्वी":35109,"सलिल</w>":26892,"ザ":3266,"हजार":48071,"रायल</w>":27689,"乓":3380,"ľ":181,"दिवसों</w>":49268,"情":3981,"ゞ":3245,"रक्षा":23836,"लाईव</w>":49197,"ᱸ":2176,"无":4092,"445</w>":47373,"उद्ध":18625,"तिक":28937,"ट्टर</w>":29947,"ज्येष्ठ</w>":33093,"ताई</w>":22302,"5,":20342,"🚈":7452,"बर्मा</w>":32298,"🐷</w>":10689,"चुकानी</w>":39390,"पीडी</w>":35782,"译</w>":12518,"शारीरिक</w>":17069,"":5838,"✎":2865,"₪</w>":8573,"कोसा</w>":46948,"":6580,"कीट</w>":27603,"त्रिपुरा</w>":27232,"सुनाए</w>":42581,"</w>":7877,"एडम</w>":42972,"क्रीम</w>":20791,"वर्कआउट</w>":21250,"निर्वस्त्र</w>":42191,"शहीद</w>":17585,"</w>":8822,"अनिश्चितता</w>":38997,"कुआँ</w>":47073,"तस":24820,"उड़ा":16666,"უ":1890,"⋆":2513,"🌎</w>":10396,"瀬</w>":10937,"ެ</w>":11297,"័":2100,"馬":5104,"सहमे</w>":41682,"बॉक्सर</w>":45484,"शर्तों</w>":20241,"पिल्ल":46219,"🐣":7065,"आबनूसी</w>":43770,"ट्रॉफी</w>":26804,"과</w>":10160,"आलस्य</w>":36247,"इस</w>":12959,"न्ग</w>":30543,"भरने</w>":18581,"राजकीय</w>":20284,"विद्रोही</w>":28687,"ឝ":2077,"पड़ाव</w>":25385,"ۊ":803,"पाकिस्‍तान</w>":28678,"उलटे</w>":38499,"जिला":17904,"छांट</w>":46133,"चिल्लाने</w>":33140,"ち":3205,"词</w>":12377,"तरह":33969,"":6200,"ፊ":2020,"विहित</w>":45977,"脏":4639,"":6573,"जीरो</w>":31016,"к</w>":7867,"फई</w>":45347,"वाड़</w>":20035,"फ</w>":7778,"पला</w>":31070,"हार्डी</w>":45741,"जरी</w>":17515,"हुमा":37164,"藩":4726,"म्ब":19983,"प्लगइन</w>":29360,"शामली</w>":43415,"仝</w>":12272,"407":48504,"09,":48482,"भत्स</w>":41158,"भुग":15740,"सरं":41187,"दबाए</w>":43083,"टें</w>":16463,"देशानुसार</w>":47851,"➟":2983,"सैलॉन":49225,"हूर</w>":17968,"लाऊँ</w>":47860,"赣</w>":12243,"त्रैमासिक</w>":40507,"अहिल्या</w>":44924,"कतिपय</w>":36277,"गीता":29498,"होनेवाला</w>":46361,"♅":2766,"5.":16025,"ര":1541,"झाला</w>":45469,"䄌":3334,"मासूमों</w>":43930,"कार्यवाहियों</w>":47845,"󾮟":7601,"ഠ":1527,"ڈ</w>":8641,"बिगड़ा</w>":41992,"०१</w>":32514,"रही":32703,"प्रया":14246,"रेपन</w>":46571,"जसवंत</w>":33464,"औरंगजेब</w>":28229,"ఀ":1380,"":5791,"कारोबारियों</w>":32183,"</w>":8766,"एचआईवी</w>":28195,"रिसो":25553,"मुख्‍य</w>":21305,"鲁":5134,"उबर</w>":35093,"ढेरों</w>":22833,"कुलर</w>":24214,"完</w>":12778,"漢":4320,"ख़्वा":36572,"आनंदित</w>":40128,"एप्":18543,"इंतजार</w>":17118,"जातियां</w>":36638,"ढक्कन</w>":37314,"तत्त्व</w>":28236,"पोलैंड</w>":32308,"௹</w>":9997,"💍</w>":10796,"ʕ":307,"घूम</w>":20295,"पहनाना</w>":40519,"कृपालु</w>":40680,"चप्पल</w>":29213,"प्राचल</w>":45586,"सस्ता</w>":21696,"प्रतिरोधक</w>":33612,"/10/":27354,"तृ":14471,"चुड़":41797,"भक्त":33221,"💉</w>":11165,"वरी":24543,"</w>":8218,"🚋":7455,"ҝ</w>":12400,"हीमोग्लोबिन</w>":41398,"गांधीनगर</w>":37681,"पेशाब</w>":24694,"":5990,"駐":5105,"ठहाका</w>":46228,"ಬ":1474,"濡</w>":11953,"कश्मीर</w>":15189,"韍":5073,"아</w>":10407,"जाइम</w>":37020,"बुर":33025,"टपक</w>":42428,"चंगुल</w>":34134,"पक्षता</w>":39855,"आकाश</w>":17378,"भरो":16769,"91</w>":18704,"ܲ":858,"मसल</w>":31849,"ರ":1478,"ⲙ</w>":11150,"叙":3620,"":6616,"원":5435,"":6508,"右":3626,"੠":1177,"कॉम्":25479,"न्यून</w>":49540,"वर्गीकृत</w>":25770,"उन्नति</w>":22198,"समझता</w>":21207,"पलायन</w>":24184,"शत</w>":14594,"दिशा":19854,"उभरता</w>":40061,"एडमिट</w>":40987,"मल्टीप्लेक्स</w>":36099,"पागल":26681,"पोस्टमार्टम</w>":23873,"з":456,"ଯ":1283,"सहला</w>":36575,"कथाकार</w>":27732,"रेटिंग":45884,"रसोई":26911,"၆":1864,"दुल्हन</w>":20159,"फुट</w>":20133,"स्कै":22380,"↜":2388,"ंकि</w>":13444,"गूंज</w>":26246,"चिंताएं</w>":41462,"पड</w>":26506,"यीशु</w>":21609,"शपथ":48115,"सुरे":17271,"┃</w>":11872,"चार</w>":13149,"ङ":937,"चलते</w>":14740,"त्यों</w>":24785,"ंडर":34203,"खिड़कियों</w>":37717,"प्रा</w>":27357,"भामाशाह</w>":49047,"वारे</w>":21606,"एलए</w>":27747,"विप्रो</w>":46560,"乡</w>":12815,"왕":5428,"</w>":10260,"😵":7417,"ڨ":775,"भु":13968,"रामेश्वरम</w>":44335,"वचनों</w>":37673,"ڠ</w>":11598,"कूड़े</w>":32902,"आंचलिक</w>":44414,"पठान</w>":30680,"शल</w>":14370,"洞":4271,"पीड़ित</w>":17689,"कड़ों</w>":16548,"नैया</w>":40064,"अत":27205,"अद्यतन</w>":17380,"बवासीर</w>":33228,"गुड्डू</w>":42358,"वालियर</w>":20583,"्या":12963,"सोचिये</w>":32738,"泉</w>":9004,"隠":5045,"島</w>":8350,"麪":5150,"🚉</w>":12291,"न्यायाधीशों</w>":33776,"कंस्ट्रक्शन</w>":43152,"पहाड़ियों</w>":29957,"⌡":2535,"आर्यिका</w>":49943,"आटो</w>":36418,"पीछ":14133,"सोया</w>":25876,"↴</w>":10347,"खरीफ</w>":39460,"तूफान</w>":22068,"लॉट</w>":26745,"चिं":14642,"आलोच":22953,"फंसा</w>":28065,"沧":4258,"लोना</w>":29381,"🥁</w>":12795,"󾬢":7592,"ბ":1877,"por":50238,"सिरदर्द</w>":26657,"सिसक</w>":47395,"🥈":7532,"खान":22535,"धन":16474,"परह":17049,"मौलिकता</w>":41999,"संख्याओं</w>":37397,"आरो":13974,"रात्री</w>":42402,"काठ":27355,"सीढ़ियाँ</w>":48438,"⬊</w>":11213,"जने</w>":16554,"స":1416,"जाला</w>":43068,"304</w>":39693,"टेली</w>":30884,"उट</w>":25077,"कठिनाई":49431,"कुञ्":47453,"योगेश</w>":30566,"विवेचन</w>":28700,"तेल":23194,"वाकई</w>":19596,"ट्विंकल</w>":43134,"ण्डा":37063,"स्थानांतरण</w>":21729,"चेतक</w>":39023,"टैक्स":42872,"县</w>":8136,"वकों</w>":49180,"सांस</w>":18484,"होई</w>":35175,"↵":2406,"ג":629,"୨":1305,"जैक्शन</w>":48386,"अंतराष्ट्रीय</w>":43790,"पायी</w>":21928,"लैंस</w>":41554,"센</w>":10820,"":6360,"हताश</w>":33603,"नूर":38936,"आवा":14286,"फा</w>":14889,"उरी</w>":34980,"जल्‍दी</w>":33328,"प्‍लान</w>":28004,"बुद्धि</w>":17776,"87</w>":22063,"261</w>":43485,"安":3807,"कंघी</w>":38466,"मुहब्बत</w>":22603,"भीम":24375,"प्रभार":44573,"गाईड</w>":45710,"बाइबल</w>":29528,"हालातों</w>":33709,"➵</w>":11993,"लिखा":36684,"समो":27824,"</w>":11522,"चेक</w>":15682,"छुट्टी</w>":18320,"फ़िरदौस</w>":48566,"अंग":15256,"उन्नत</w>":20857,"तरक्की</w>":23318,"बीटेक</w>":40416,"⓸":2570,"गणपति</w>":25831,"बौख":38751,"एडिशन</w>":44804,"मँ":27959,"हस्‍त":48764,"क्षित":44351,"ов":44285,"टुकड़ों</w>":26458,"ܢ</w>":9724,"त्रिवे":26977,"07:00</w>":40716,"🔔</w>":9631,"कमसिन</w>":49399,"सूली</w>":44536,"बगल</w>":21457,"करनाल</w>":29649,"":5938,"қ</w>":8455,"हारा":43344,"शुभारंभ</w>":22765,"चीज़ें</w>":20859,"ඨ":1591,"गश्ती</w>":50154,"129</w>":32768,"٦</w>":9186,"रिट</w>":42478,"हार्डवेयर</w>":27821,"अफेयर</w>":30203,"रफ्तार</w>":20802,"होटल्‍सका</w>":44380,"स्टे</w>":41278,"直":4450,"":5768,"हरिवंश":45047,"􁭭":7662,"⏑</w>":10657,"सिटी":33396,"տ":596,"🚈</w>":11492,"ш</w>":8103,"इनपर</w>":47557,"अधीन":32246,"कैले":18463,"शिल्प":43451,"सार":15954,"</w>":12182,"द्वानी</w>":30540,"रंजू</w>":40843,"126":46418,"ó":139,"अंशु</w>":49779,"ब्रिगेड</w>":30804,"ນ":1700,"कनिष्ठ</w>":33949,"गद्दार</w>":38372,"आवं":19139,"":6128,"ຫ":1709,"၀":1858,"":5998,"दिखी</w>":25649,"व्हा":21338,"स्वराज</w>":22339,"नौजवानों</w>":31052,"बचाएँ</w>":35646,"⇫":2444,"कलाकार</w>":17943,"</w>":11176,"इस्लाम</w>":16708,"जीव</w>":14851,"स्टर</w>":14325,"🗡":7357,"लालबत्ती</w>":44841,"टेम्पलेट</w>":27750,"आमेचर</w>":38704,"फैंसी</w>":48798,"नज़रों</w>":28057,"बकाया</w>":25797,"माल":16480,"攻":4065,"एला</w>":30806,"अखाड़े</w>":35152,"ه":707,"वजी":39012,"कायम</w>":19136,"點":5160,"लेख":13567,"ᄂ</w>":12198,"चरित्रों</w>":37813,"霖":5064,"󾁏":7546,"8.3</w>":46207,"चंदा</w>":26198,"208</w>":38388,":56</w>":27325,"अकादे":46709,"तिहासिक</w>":16815,"लैन</w>":29816,"ா</w>":9832,"❑":2924,"मद्":21219,"138":48700,"영":5423,"चारिकता</w>":35088,"दृष्टिकोण</w>":15634,"संचा":15524,"क्ष":12936,"ැ":1612,"हमारे</w>":13447,"ሮ":1946,"ങ":1522,"अक्षरधाम</w>":42335,"पहल</w>":17923,"बल्ला</w>":41923,"जवाहरलाल</w>":24914,"नाश्":17951,"हलके</w>":29270,"ቻ</w>":12469,"柔":4162,"點</w>":11115,"괴":5223,"🙇":7435,"अभ्यु":50078,"":6667,"जनजीवन</w>":32726,"उबाऊ</w>":49319,"श्रीनिवास</w>":38907,"斯":4084,"दिक्":16257,"गन":29357,"बेतहा":39720,"फ़िल्म</w>":15942,"फैगी</w>":28567,"मूवी</w>":16244,"⓻":2573,"擒":4062,"उड़</w>":20507,"बज":15153,"ब्रह":45529,"ബ":1537,"ศ":1654,"校</w>":10867,"ट्रम्प</w>":30871,"स्वाग":50245,"ड्रामा</w>":26393,"्री</w>":20372,"農":4898,"मुखपृष्ठनिर्वाचित</w>":20658,"गंतव्य</w>":26151,"मम्मों</w>":46819,"वासी</w>":14600,"ौरी</w>":34235,"इतिहा":13978,"संचय</w>":33728,"ੰ</w>":10776,"颧":5090,"":6614,"":5952,"बहादुरी</w>":33118,"फिल्मो</w>":33176,"बौछारें</w>":42297,"":6486,"旅":4088,"दागे</w>":48401,"गंभी":14964,"फर्म</w>":25250,"</w>":8091,"ॐ</w>":7918,"ंडर्स</w>":45611,"मर्रा</w>":25561,"झिल्ली</w>":36370,"अमरकंटक</w>":46193,"देंहटाएं</w>":17003,"२४</w>":21594,"डील":19609,"चलिए</w>":23128,"देश":13424,"कोटा</w>":20329,"शेखा":31143,"∥":2473,"नियोक्ता</w>":34550,"":5759,"कानूनों</w>":25345,"सालगि":31129,"🌪</w>":11617,"निध्य</w>":30614,"फिलॉ":46700,"उभरते</w>":32036,".06.":39914,"ध्य</w>":18801,"मित्रों</w>":17021,"अरसे</w>":30479,"ཧ":1782,"प्रथ":39700,"नहींएक</w>":27555,"❍</w>":11633,"86</w>":21345,"एड़ी</w>":33289,"vie":39655,"लुत्फ</w>":39193,"ỹ</w>":11856,"ол":49210,"":6135,"याँ</w>":14488,"बेफिक्र</w>":44374,"स्लो":24043,"เ":1668,"करणीय</w>":31176,"यश":20316,"एंटो":43504,"बरकत</w>":48203,"रोटरी</w>":43742,"निष्ठु":45925,"गात्मक</w>":37523,"桶</w>":9170,"राष्ट्रवादी</w>":26610,"फाइटर</w>":44387,"राजनांद":33386,"ईमान</w>":22834,"किनके</w>":49324,"∪</w>":8622,"विश्वामित्र</w>":36000,"खस्ता</w>":37995,"हेडलाइंस</w>":40921,"गंजे</w>":42388,"ग्रीष्म</w>":32701,"📯":7254,"केदारनाथ</w>":23760,"युक्तियाँ</w>":25138,"तीर्थयात्रियों</w>":43938,"कहोगे</w>":47473,"कुकिंग</w>":45038,"मुहँ</w>":47957,"記</w>":9473,"":5627,"पहुंचाना</w>":35829,"ढलने</w>":44130,"फोनों</w>":42778,"⦅</w>":8769,"झटकों</w>":47606,"टन":41841,"पकार</w>":27786,"लफ्ज़</w>":37719,"ル":3316,"कामदेव</w>":37435,"🐈":7041,"📆</w>":10330,"दीर्घकालिक</w>":35936,"ब्लोगर्स</w>":41879,"↮":2399,"昼":4106,"🚑":7461,"":6399,"पास्ता</w>":43032,"नजदीक</w>":21620,"निग</w>":45768,"戸":4003,"</w>":10306,"अनु</w>":26175,"श्या":15468,"ज़ोन</w>":36879,"थल":48044,"मीणा</w>":27860,"साइकि":35410,"◘</w>":10772,"पांच</w>":14460,"जिसकी</w>":15906,"अवि":18817,"ईडन</w>":45930,"143</w>":34106,"नाजायज</w>":40446,"ଵ":1287,"ổ":2239,"पैरामीटर</w>":44007,"कैडर</w>":39797,"चरितार्थ</w>":42591,"अनुमोदन</w>":27991,"तरु</w>":39241,"पूर्णकालिक</w>":40272,"रेस्टोरेंट</w>":24046,"सके</w>":14735,"৶</w>":12359,"ឥ":2081,"✙":2875,"लेबर</w>":31996,"अक्षमता</w>":48024,"एक्टिवि":39687,"बदलावों</w>":36949,"अगर":35661,"᥈":2127,"भरा</w>":16181,"रोनाल्डो</w>":43689,"🍛":6901,"गई":31909,"😇":7371,"यूनि":15843,"ठहर</w>":26680,"तनहा</w>":36343,"ह्न</w>":16020,"स्तंभों</w>":40608,"ಇ":1451,"क्वे":25428,"11/15</w>":41702,"कतारें</w>":41670,"✊":2861,"機":4215,"贿":4865,"पंजीकृत</w>":22130,"बढ़ेगा</w>":26300,"ब्राह्":16856,"※":2328,"ज़ो":20392,"तुषा":32392,"देखभाल":46836,"♉</w>":12495,"ंडरी</w>":33179,"यद्य":19837,"तप</w>":24284,"रच":14375,"जानती</w>":20184,"मारे</w>":17084,"पीके</w>":24701,"डिंपल</w>":37436,"अप्रत्यक्ष</w>":30721,"┓":2588,"भगवान":45523,"2351</w>":46485,"ї":488,"आईएसआई</w>":33905,"जना":15619,"तैराकी</w>":33727,"प्रेरक</w>":21660,"मॉडल्स</w>":34480,"क्रियाएँ</w>":23773,"ֶ</w>":9588,"सागरों</w>":36299,"ग्राउण्ड</w>":49532,"ण":947,"शौच</w>":30221,"ईमानदारी</w>":20974,"औऱ</w>":28922,"니":5256,"बीकानेर</w>":22887,"मनिका</w>":43581,"ɪ":272,"एटम</w>":49812,"+</w>":9325,"सदाचार</w>":38038,"जरूरतमंद</w>":37017,"हथौड़ा</w>":48503,"पं</w>":22308,"➴":3002,"":6162,"ܒ":842,"कीज</w>":36475,"समायोजित</w>":31599,"चिया</w>":44652,"蜑":4738,"ă</w>":9163,"40</w>":14832,"कअप</w>":18099,"ǃ":224,"एचपी</w>":41755,"खेड़े</w>":39298,"पंक्ति</w>":20807,"पीओ":35941,"मरी</w>":19491,"लाश</w>":17696,"शहनाई</w>":36940,"सिनी</w>":36186,"टेक्निकल</w>":35238,"हाउसफुल</w>":43541,"प्रीति</w>":23739,"खोजें":45688,"ັ":1713,"ὰ</w>":11134,"◭":2698,"‒</w>":7822,"उपभो":17068,"नरसंहार</w>":30513,"浸":4288,"जिन्‍होंने</w>":47438,"न्‍":14604,"🌛":6843,"शिकायती</w>":48485,"🍧":6911,"टीन</w>":17016,"बाँहों</w>":36546,"👸</w>":11050,"कब्र</w>":25821,"जॉन</w>":19214,"😸":7420,"सबने</w>":24539,"🚁":7445,"स्टर्":28719,"ခ":1813,"टेस</w>":41997,"हाशिए</w>":37725,"अपराह्न</w>":19012,"耕</w>":9789,"दस्ता":17405,"वालो</w>":22335,"रुक":35308,"जागी</w>":38584,"श्वेत</w>":25030,"समंदर</w>":24972,"राष्‍":20174,"गणों</w>":39951,"पीयूष</w>":32134,"से":12989,"┻</w>":11042,"समतल</w>":33246,"200</w>":16824,"板":4153,"चढ़":15445,"र्म</w>":13455,"सृजन":34713,"दूध":41962,"फंस":29736,"ཕ":1767,"कुमु":45865,"बृज":31623,"?":32,"सत्कार</w>":32437,"౩</w>":8263,"एयर":16411,"प्रेसी":47147,"पराठे</w>":47672,"⛸</w>":10793,"🔢":7296,"😀</w>":7909,"😍</w>":7860,"चस्":16030,"कारपोरेट</w>":28320,"ଇ</w>":9793,"उत्पीडन</w>":48851,"</w>":12051,"宗":3811,"🚪":7479,"ाराम</w>":17855,"जर्सी</w>":32400,"⏩</w>":8421,"ंको</w>":30329,"कुण्डलियाँ</w>":45743,"बंधा</w>":32744,"हथियार</w>":18322,"ੱ":1189,"गुरुद्वारा</w>":32929,"डीजी":47854,"दुल":26721,"मजिस्ट्रेट</w>":25560,"सखी</w>":26329,"💾</w>":11221,"1922</w>":37395,"पैठ</w>":24065,"पैनी</w>":38876,"शालीनता</w>":40863,"स्क्रि":19378,"गौरव</w>":19075,"":6324,"गों</w>":13185,"मृत</w>":20068,"सिले":19554,"हुकूमत</w>":30434,"🙋</w>":8583,"अब्बास</w>":29512,"बुरी</w>":16837,"मुद्दत</w>":45125,"कोत्सव</w>":36063,"निकास</w>":40546,"ब्लास्ट</w>":26707,"456":38229,"प्रदाता</w>":28890,"रेस्त्रा":29361,"शंका</w>":18336,"ैव</w>":20170,"जिले":37332,"遺":4934,"नगरों</w>":24853,"शरी":13882,"सचिवालय</w>":25344,"度":3912,"":90,"कॉर्न</w>":38188,"देशीय</w>":41118,"व्र":15925,"हिंद":16054,"์</w>":9140,"👟":7123,"􁳞":7680,"भानु":41851,"अनियमित":40227,"ᱺ":2178,"कार्यवाहक</w>":40865,"कोंडा</w>":47558,"गुरदासपुर</w>":39280,"ۻ":839,"तोह":22133,"152</w>":34139,"मंगा":33692,"अनशन</w>":21357,"साधने</w>":35352,"ত</w>":7947,"🏝</w>":11775,"नासिक</w>":31894,"पोटा":37261,"अनुपस्थिति</w>":31205,"क़ात</w>":25474,"गुस्साए</w>":34729,"नीर</w>":20826,"पोते</w>":32869,"गढ़</w>":14095,"गौर":16281,"मेर</w>":17437,"वर्षा":33119,"509</w>":45423,"जीलैंड</w>":22456,"तकाल</w>":24618,"su":44542,"भीड़</w>":16282,"बागेश्वर</w>":35727,"शक्":22646,"सहबद्ध</w>":42748,"गांठ":42180,"सुसज्जित</w>":25905,"सौराष्ट्र</w>":42999,"48</w>":16876,"फुटपाथ</w>":34572,"शायर्स</w>":44591,"कांत</w>":18897,"पुराणों</w>":26171,"बनायी</w>":25594,"सखि</w>":46116,"फाह":38166,"मीरा":35005,"यूरोपीय</w>":18638,"&</w>":9090,"पूल":47090,"रोग</w>":14918,"अंतरजातीय</w>":32096,"स्टाइलिश</w>":32053,"पैदल</w>":20051,"टीज़</w>":22530,"स्टेटस</w>":29509,"स्पंदन</w>":35827,"अध्यात्म</w>":21414,"अनमोल</w>":20620,"ॆं</w>":40019,"वांग</w>":48780,"खतरा</w>":16784,"खतर":17195,"होंगें</w>":35429,"ཁ":1752,"究":4499,"/5.0</w>":20011,"እ":1985,"결":5216,"":6318,"मचा":20271,"लेखक</w>":14404,"स्‍था</w>":18537,"浙</w>":12789,"ろ</w>":12116,"锁":4998,"💓</w>":9381,"</w>":10700,"🕙":7332,"ᗅ</w>":12641,"जाप</w>":25677,"🚲":7483,"पुराने</w>":15124,"🍽":6932,"प्रयोग":17617,"अनुप्रेषित</w>":28353,"७</w>":7827,"न्त्र":24454,"网</w>":8978,"ताक़":49495,"":5738,"अरब":32889,"🚹</w>":12235,"नारीवादी</w>":37845,"青</w>":10290,"価":3461,"तोड़े</w>":32331,"दहलीज</w>":40607,"बिट्स</w>":41414,"क्रिसमस</w>":21701,"विमुख</w>":41362,"भिन्नता</w>":28587,"☩</w>":10304,"":6139,"दंभ</w>":39535,"♟":2792,"डिप्लोमा</w>":23325,"धूम":25714,"प्रदेशझारखंडबिहार":40717,"नन्दा</w>":44708,"जसपाल</w>":48470,"नाट्य</w>":27115,"उठीं</w>":46005,"ज़ूर</w>":35446,"बिजली</w>":15074,"समूहों</w>":21327,"कुशी":32346,"आसीन</w>":37965,"संज्ञानात्मक</w>":42785,"इलाह":46799,"कोमल</w>":20611,"":6475,"बिस्":22282,"个</w>":10179,"कॉमेंटेड":23036,"महापंचायत</w>":50253,"豐</w>":11540,"欧":4218,"तक</w>":13036,"हुए</w>":13129,"बदली</w>":22151,"णी":18876,"प्रिये</w>":34152,"नेंट</w>":25523,"खोल</w>":17647,"182</w>":34517,"संजीदा</w>":40365,"संचार":37501,"कुला":37953,"सर्जित</w>":34294,"मेयर</w>":26592,"कसी</w>":25101,"हिन्द</w>":22102,"टिप्":13493,"चीत</w>":15910,"禧":4482,"":5686,"</w>":8145,"🌥":6850,"ईर्ष्या</w>":29914,"विलेन</w>":37805,"ईमेल</w>":15590,"णीत</w>":45277,"गुलजार</w>":33048,"गुच्छ":40734,"तरजी":37056,"ङी</w>":35288,"डोगरा</w>":45433,"ध्याय</w>":20838,"बहाने</w>":18809,"रोला</w>":37245,"लड़की</w>":14592,"लौंग</w>":21757,"सप्त":26869,"रेडि":32548,"목":5323,"🙁</w>":8207,"जाँचें</w>":46126,"सीज</w>":32197,"सुलह</w>":36834,"फिरोजपुर</w>":38858,"साइट":27673,"文</w>":8670,"श्ती</w>":21879,"मैरी":34080,"बंदियों</w>":36333,"सुनाकर</w>":45000,"पैकेट</w>":29599,"एनडीटीवी</w>":26117,"एमपी</w>":20910,"दगी</w>":14944,"वस्":44404,"05,":47752,"384</w>":48364,"गुजरात</w>":15497,"पढ़ेंगे</w>":44707,"फुरसत</w>":29589,"समेकित</w>":33762,"ᓗ":2045,"⊕</w>":8873,"ω":442,"监":4444,"측":5494,"अलावे</w>":47608,"🌜":6844,"":6724,"कमोबेश</w>":36631,"आग्रह</w>":20132,"गंगा</w>":15664,"</w>":9993,"बाहर</w>":13772,"एग्जाम</w>":31533,"कम</w>":13301,"कद्दू":46898,"भूलते</w>":39731,"रंगभेद</w>":49798,"झड़प</w>":34953,"ɉ":247,"ঈ":1038,"प्रियंकर</w>":41524,"द्धि</w>":14529,"पाउंड</w>":28069,"मेक्सिको</w>":26282,"सपा</w>":16135,"सामयिक</w>":22452,"सीएसएस</w>":35399,"स्‍ते</w>":31877,"चिकनगुनिया</w>":38294,"ો</w>":8812,"घडी</w>":34342,"₣</w>":9205,"┼":2600,"⛴</w>":10293,"致":4660,"वेलियन</w>":41036,"और...</w>":42148,"̴":383,"खींचकर</w>":35648,"लेखागार</w>":24571,"</w>":9552,"कायनात</w>":40221,"🇫":6805,"📱":7256,"ಐ":1455,"to":38790,"छूटें</w>":26494,"20,":26093,"खाँ":49980,"एट":28332,"उपरोक्त</w>":21348,"ޭ":896,"希":3885,"लोका":25409,"छोड़ा</w>":20513,"यूएस</w>":26871,"श्वेता</w>":28254,"आश्":15914,"ዚ":1996,"अखा":26395,"坡</w>":12203,"📲":7257,"वेब":14613,"न्यायाधिकरण</w>":50175,"ग्रि":23673,"दृष्य</w>":43023,"गुलाबी</w>":21153,"किए</w>":13956,"अपच</w>":44686,"आवेदकों</w>":29985,"कराएंगे</w>":36887,"बिहारी</w>":18857,"⁂</w>":11470,"=</w>":11628,"۰":828,"किंग":21766,"सुबूत</w>":44594,"प्रिन्ट</w>":37256,"/05</w>":21917,"і</w>":8184,"उद्यमियों</w>":34767,"जल</w>":14021,"ज्ञानपीठ</w>":31842,"औरत":46456,"जयशंकर</w>":36054,"बांसवाड़ा</w>":37667,"व्‍यय</w>":45243,"ျ":1854,"</w>":9080,"56":16717,"🖒":7346,"आदम":42847,"पाप":37991,"मास्टर":43229,"घटनास्थल</w>":29920,"सेक्सऐसे</w>":49169,"</w>":9661,"䄌</w>":12052,"खंडित</w>":32467,"क्षणिकाएं</w>":40929,"तांता</w>":41034,"वशि":28338,"储":3488,"菜</w>":11565,"कुमारों</w>":49262,"फंसाया</w>":44074,"跃":4877,"वेल्स</w>":27416,"कित":43787,"मुहीम</w>":47650,"व्यूह</w>":28864,"लला</w>":48263,"॰॰":36838,"祜":4476,"डिक्":20961,"</w>":8054,"৳</w>":11397,"पोख":36555,"अदाएं</w>":42353,"दार":16863,"झाडू</w>":36524,"प॰</w>":47940,"⬉":3100,"यूटीसी</w>":37027,"मापने</w>":27951,"दिनेश":35206,"प्रू":25842,"්</w>":8403,"आसमा":24374,"केलकर</w>":48679,"ウ":3251,"मुस्":14341,"लें</w>":13654,"कीं</w>":21845,"कछ":45854,"क्रिश्चियन</w>":41014,"नी":13038,"मदर्स</w>":46343,"इरि":42950,"गेटवे</w>":47857,"इब्रा":26090,"पवित्र":43942,"बढ़ाए</w>":33575,"वेदान्त</w>":39189,"स्पाइ":31376,"लगवा</w>":36741,"बित</w>":15252,"राजनीती</w>":28454,"चारु":47455,"हीर</w>":21912,"चांदी</w>":20134,"♈":2769,"प्रतिभा":20725,"मायो":44665,"研":4468,"वेव</w>":25731,"शालीन</w>":38311,"हड":33210,"ื":1665,"बेरोज़":49413,"वेलि":48693,"आये":33534,"शक्तिपीठ</w>":41341,"अनुबंध</w>":22677,"क्रासिंग</w>":44538,"प्रतिक्रिया":19387,"समाहित</w>":28321,"चाइ":20231,"एडोब</w>":47237,"डॉक्टर</w>":16176,"ंत्र</w>":30611,"ढ़ने</w>":34644,"नाटी</w>":50243,"19.":33742,"निवाला</w>":48596,"पुष्ट</w>":30345,"प्रोटे":33254,"संजू</w>":38230,"सिखा":34079,"निपटने</w>":20837,"नेशन</w>":24818,"स्‍मार्ट":31421,"ল":1074,"ທ":1699,"፡":2027,"तंतु</w>":48136,"आस्था":37251,"मऊ</w>":29477,"तरण":37161,"पादु":25644,"वैशे":50164,"왕</w>":10164,"":5971,"</w>":11418,"ɮ":276,"लेफ्":32376,"साप्ता":19997,"गुटबाजी</w>":45691,"नुस्":18101,"वेडिंग</w>":32862,"公</w>":10887,"कार्तिक</w>":24709,"गेल</w>":25970,"इत्":36287,"फर्क</w>":18803,"कांग्रेसियों</w>":33592,"भूमंड":39744,"लूट":27979,"8:":21376,"अमरूद</w>":33935,"विहिप</w>":38563,"军":3521,"चोद</w>":24047,"क्रमिक</w>":33171,"ख्य</w>":23730,"ୱ</w>":10622,"圧":3710,"उपेन्द्र</w>":46784,"ć":155,"विकल्पी</w>":41235,"नाचती</w>":48790,"एस्टो":38033,"मेरे</w>":13328,"ਬ":1155,"कार्यपालिका</w>":33355,"लियां":41317,"रूपा</w>":28525,"120":31317,"封":3835,"</w>":9855,"":6408,"🎢</w>":12571,"अगले</w>":15241,"🙃":7431,"पीडीएफ़</w>":35497,"信</w>":11710,"󾍇":7574,"इब्ने</w>":36549,"ເ":1723,"≪":2496,"इश्":17862,"अज़ी":34299,"ग्रस्त</w>":18036,"कटेल</w>":38179,"प्लेन</w>":28188,"ट्रो</w>":17777,"पहले</w>":13141,"वर्ड":27136,"߿</w>":10058,"⋎":2515,"恶</w>":9785,"मसूड़ों</w>":42028,"निहार":27220,"मुंगेर</w>":36938,"सतना</w>":39703,"22</w>":14278,"ओपि":48145,"क्षणि":27107,"भंड":21169,"अजी</w>":34127,"मायने</w>":20456,"व्या":13509,"श्यामल</w>":39529,"":5562,"ट्रांसफॉर्मर</w>":45995,"आश्चर्यजनक</w>":23824,"ɦ</w>":9527,"एसोसिए":18774,"टूक</w>":33719,"भइया</w>":29902,"तोल</w>":41092,"एजुकेशन</w>":25520,"लास्ट</w>":30796,"इंते":44394,"सबका</w>":18816,"":5703,"उड़ीसा</w>":23846,"🙆":7434,"दंते":33861,"बीट</w>":27825,"प्राइज</w>":31797,"एफएम</w>":39064,"예</w>":12791,"पाकिस्तानी</w>":17952,"षी":43509,"सि‍":44315,"</w>":10540,"깍":5239,"क्रिये":18524,"अज्ञेय</w>":28521,"कटे":37172,"टीस</w>":34450,"🌹":6867,"जहरीला</w>":38468,"नौजवान</w>":24121,"सिन्हा":47049,"1943</w>":37945,"प्रेशन</w>":20625,"पटें</w>":46268,"समझाए</w>":45224,"आनुवंशिक</w>":31227,"सेल्‍":26691,"":6247,"अपनायें</w>":35567,"ईसवी</w>":33648,"नियन्त्रित</w>":45816,"डिसार्":31922,"फ्यूचर</w>":21539,"च्छा</w>":23957,"रिक्तियां</w>":47331,"व्याप":26988,"साइडर</w>":40558,"14:":29733,"कमीने</w>":41329,"बहल</w>":44345,"ร</w>":10268,"1979</w>":28817,"׆":626,"किशोर":41689,"报</w>":9625,"":5613,"👿</w>":8423,"नानुसार</w>":32743,"कुलभूषण</w>":39816,"":5698,"माफ</w>":22490,"":6651,"बहुवचन</w>":46034,"पेक</w>":49248,"उतरना</w>":35135,"लम्‍":38781,"एन":14004,"۝</w>":11864,"दबंग</w>":23728,"आर्यों</w>":36110,"पारिस्थि":25746,"एंड्रयू</w>":45271,"झ</w>":7773,"नवजोत</w>":35883,"07/17</w>":45826,"शाकाहार</w>":34055,"ें</w>":12853,"၀</w>":9078,"鰯":5130,"अनुभू":29000,"पोस्टकार्ड</w>":49825,"तर्ज</w>":24779,"👴":7144,"घरलेखमांसपेशियों</w>":42657,"치":5496,"ंडु":29581,"खत्म</w>":15469,"युवावस्था</w>":38195,"मानवीय</w>":19588,"社</w>":8618,"पशुधन</w>":43008,"पीएम":38384,"बूंदी</w>":32781,"संतो</w>":44968,"हिन्दी":30180,"台</w>":9746,"मवेशियों</w>":43293,"भद्रा":44332,"कलयुग</w>":32508,"⇰":2446,"":5956,"रितिक</w>":26868,"अप्लाई</w>":40958,"डेंट्स</w>":24227,"दामन</w>":24874,"चर्चित</w>":18917,"4.0</w>":48037,"◦":2696,"🕴":7336,"गैंग</w>":23311,"पंचवर्षीय</w>":23976,"षि</w>":14684,"पाये</w>":19441,"स्वादिष्ट</w>":22023,"癘":4435,"粁":4536,"🕵":7337,"संगी":35234,"सर्कल</w>":34751,"朗</w>":12239,"😶":7418,"जिम्‍मेदारी</w>":49992,"बसूरत</w>":23942,"मय</w>":16209,"हिंदु":16870,"मोति":46408,"अनधिकृत</w>":46233,"सड़क</w>":15035,"्री":19910,"शिक्षा</w>":13930,"</w>":12414,"जिओ</w>":40868,"᮪</w>":8458,"परम्परागत</w>":31355,"शुभकामना":15653,"श्रेय</w>":21483,"डलहौ":42227,"07/18</w>":49972,"संदर्भ</w>":16165,"पल्स</w>":27398,"्राइटिस</w>":42661,"नयापन</w>":43786,"मॉस</w>":46966,"जोड़ा</w>":14988,"ਆ":1127,"章":4504,"🆈</w>":9633,"🎸":6979,"土</w>":9141,"इच्छुक</w>":23585,"हराने</w>":30041,"⬀":3095,"🍧</w>":8827,"कें":21767,"पढ़ता</w>":26771,"शिल्पा</w>":27381,"क्ष्":31284,"यासीन</w>":41434,"उपरा":21954,"नागर</w>":22700,"经":4587,"ट्रायल</w>":28224,"संधू</w>":48083,"🖤":7349,"किंतु</w>":17390,"बछड़े</w>":43911,"रचित</w>":24179,"मसल":38333,"सूक्तियाँ</w>":44892,"बेवजह</w>":27814,"</w>":8373,"⊱</w>":11519,"ཾ</w>":12417,"賓</w>":9648,"በ</w>":11610,"ย":1649,"ख़ाना</w>":44499,"एसएसपी</w>":27538,"खिताब</w>":21712,"जीपुर</w>":25534,"एचआर</w>":48749,"प्रबंधन</w>":15716,"विकसित</w>":15720,"善</w>":12564,"魯":5125,"ब्लॉगजगत</w>":38706,"बताये</w>":22584,"मू":13211,"ग़ैर</w>":26022,"आरक्षण</w>":17088,"</w>":10766,"जाग्र":30460,"सैद्धांतिक</w>":26754,"लकड़ी</w>":19463,"</w>":12749,"कारणों</w>":17011,"चूं</w>":44765,"जन</w>":13160,"北</w>":10253,"क्षेम</w>":49408,"खेलना</w>":24885,"बाड़ी</w>":22898,"हर्षित</w>":33710,"खान</w>":14394,"संगमर":36678,"दिलाये</w>":49897,"समझें</w>":23014,"पचौरी</w>":47452,"फ्री</w>":17311,"खिलता</w>":45775,"८०</w>":27585,"₵</w>":10698,"पुस्तका":19129,"होकर</w>":14388,"ब्ले":24039,"🌻":6869,"⌂</w>":9537,"t</w>":7785,"ट्विस्ट</w>":49325,"किरणों</w>":26915,"छुए</w>":30609,"छोड़":14577,"जद्दोजहद</w>":36543,"पण</w>":15501,"य्या":41532,"↼</w>":10933,"भाईयों</w>":31325,"तूहल</w>":45177,"मुख्यधारा</w>":29798,"लिंगु":45674,"वात्स":39588,"परिपूर्ण</w>":26906,"तरकी":25098,"आर्य":25788,"नशे</w>":20205,"फ्राइ":43702,"ᄇ":1906,"वोट":33417,"इंद्राणी</w>":44795,"रितेश</w>":34070,"ऑर्":19665,"नोटों</w>":20986,"माम":13602,"खुश":15473,"खोना</w>":33486,"रखें</w>":15057,"सीताम":40862,"बेत":36071,"ॵ</w>":9003,"मिडकै":46895,"सीबी</w>":27601,"झुर्रियां</w>":46032,"ถ":1638,"रचे</w>":31829,"『":3162,"पन</w>":13568,"फ़ायदा</w>":30856,"कैल्शियम</w>":26660,"文":4077,"段</w>":11331,"江":4250,"एलसीडी</w>":41069,"किशोरों</w>":25609,"चचेरे</w>":37180,"फिरोज</w>":39809,"यथा":17487,"爸</w>":10398,"ग्र</w>":17493,"इंद्रा":37426,"लेखपाल</w>":38794,"ॶ</w>":10335,"बाब्वे</w>":35077,"बढ़ावा</w>":18552,"बढ़ाया</w>":21480,"कैम्पस</w>":29692,"कालिक</w>":20981,"सेकंड</w>":16242,"मुश्कि":22526,"बोला":47151,"लोको":31554,"संवर्धन</w>":28105,"ਦ</w>":8784,"楽":4204,"":6341,"":6036,"</w>":10645,"🙉":7437,"扈</w>":9861,"ंसले</w>":32792,"त्‍व":19335,"पहनावे</w>":47154,"21वीं</w>":38429,"बढ़ती</w>":17181,"दरबान</w>":34432,"प्रतिब":45399,"आयोजनों</w>":35404,"सिद्धू</w>":27424,"ឌ</w>":9682,"為</w>":11468,"स्‍थापना</w>":34794,"युग":35356,"राइड</w>":19541,"जयसिंह</w>":33585,"त्सव</w>":17691,"ঃ</w>":8604,"𑘭":6763,"🏨</w>":11702,"😑</w>":8041,"૦</w>":9020,"अटूट</w>":32006,"खेड़ी</w>":48746,"चौड़ाई</w>":29172,"त्रिक</w>":32624,"निर्माणाधीन</w>":33883,"पढा</w>":31283,"हरण</w>":15064,"————————————————":38798,"डरते</w>":25206,"लगर्":43138,"म्बे</w>":25802,"स्नातको":24630,"127":48865,"समालोचना</w>":46666,"चिकित्":14714,"अभद्र</w>":26037,"काजू</w>":30720,"चेरी</w>":26838,"示":4473,"":6232,"दिश</w>":32617,"काबिज</w>":34602,"तेंडुलकर</w>":34890,"ग़ा":19264,"➡</w>":8284,"बीएड</w>":32549,"शर्लिन</w>":41711,"गर्दी</w>":31098,"बिस्त":29015,"शब्दावली</w>":24963,"दन":25607,"तश्":29435,"पेंटी</w>":31235,"फेंक</w>":21082,"भराव</w>":39231,"सुरी</w>":25723,"⠧</w>":12099,"啓</w>":11207,"अड्डों</w>":35220,"सन्":14126,"बांहों</w>":47057,"ණ":1593,"":6646,"��</w>":24447,"क्‍या</w>":15291,"निरपेक्ष</w>":23313,"नुस्खों</w>":43120,"चरि":16608,"कांटे</w>":30557,"लोनी</w>":19424,"सई</w>":44234,"——":16304,"ग्रन्थ</w>":20729,"तिराहे</w>":45451,"मच्छरों</w>":36241,"स्टील</w>":22378,"सं०</w>":35513,"葬</w>":9203,"餑":5097,"विरोधों</w>":43998,"पार्टी":30144,"सीएनएन</w>":46525,"क्तीकरण</w>":40806,"2006</w>":17120,"318भाषा</w>":23936,"त्वना</w>":35377,"नॉलेज</w>":32605,"शिमला</w>":20706,"हित</w>":13771,"हेम</w>":41708,"टूर</w>":24930,"प्रमोशन</w>":23390,"⚰":2832,"題":5082,"जाये":24664,"जस्टिन</w>":44794,"프":5539,"स्वयम</w>":47067,"":6621,"ंभ":16886,"01/02</w>":49204,"է":578,"0000</w>":39674,"जैमिनी</w>":47347,"ठेके</w>":33322,"कोटला</w>":36095,"देखूँ</w>":46830,"जिस</w>":13919,"नून</w>":18588,"फॉण्ट</w>":37737,"लेक</w>":27714,"गांधीजी</w>":24325,"प्रजाति</w>":23671,"सुम</w>":26059,"᥇":2126,"區</w>":10331,"à":120,"女</w>":12147,"朝":4135,"बँटवारे</w>":47156,"":5881,"राशिफलमेषसिंहधनुवृषभकन्यामकर":22610,"सास</w>":15589,"डाला</w>":16600,"\\\\\\\\\\\\\\\\\\\\\\\\\\\\\\\\":43182,"प्रतिनिधित्व</w>":19743,"खिलाड़ीबिज़नेसफिल्मी</w>":45913,"階":5042,"13:":28385,"खबरे</w>":28438,"खड्":40397,"विद्यार्थी</w>":19495,"१९६१</w>":49772,"पोलिंग</w>":42212,"चोदता</w>":44728,"अवा":35739,"रखैल</w>":44160,"वेदर</w>":50101,"तिल</w>":18719,"सैयद</w>":28064,"सोचती</w>":24849,"फिक्स</w>":22509,"史":3625,"𐤁":6749,"07/05</w>":46737,"अनुशासन</w>":23403,"बांधकर</w>":31027,"विद्यालयों</w>":18628,"पट्ट</w>":46389,"ґ":515,"नीयता</w>":16003,"पर्स</w>":18201,"ブ</w>":11307,"जानबूझ</w>":34712,"կ</w>":11845,"टर्":17956,"लाजी</w>":32638,"􀆴</w>":9917,"ಲ":1479,"उठा</w>":15764,"कहल":47117,"क्टिव</w>":32716,"पहुंच</w>":15336,"यादृ":17596,"ਠ":1144,"तरही</w>":34376,"⋐</w>":8338,"बांग्लादेशी</w>":41151,"傈":3486,"":6172,"➧</w>":11114,"कहिन</w>":40889,"ट्रल</w>":21087,"तीकरण</w>":24746,"प्रदर्शनकारियों</w>":29136,"ڇ</w>":9551,"बेचने</w>":19222,"मैने":17916,"सुखदेव</w>":30915,"990</w>":42948,"कूक</w>":49310,"सौहार्द्र</w>":39195,"होल</w>":25412,"बलडन</w>":38507,"":6576,"👼":7152,"20:":32203,"लटका</w>":26148,"भारतकोश</w>":28206,"चेहरे</w>":15465,"सोट</w>":45965,"संकीर्ण</w>":33354,"काली":25223,"महिलाओ</w>":35813,"वर्किंग</w>":41522,"साह</w>":32074,"ताह</w>":33640,"📍</w>":9770,"रहती</w>":14842,"x</w>":7971,"बेहतरीन</w>":16195,"लू":13859,"杰":4149,"अलगाव":27431,"प्राव":28847,"फर्मों</w>":48281,"興</w>":11452,"選":4933,"ਵ":1161,"बाबू":22651,"ו":632,"आयेगा</w>":23601,"मिल":13357,"गरमी</w>":30716,"अपार</w>":25493,"ڻ":790,"पेन</w>":19926,"सुषमा</w>":21743,"घड़":41314,"तोड़ना</w>":34918,"नेवी</w>":38318,"रत्ना":33226,"किरी":49919,"पीओ</w>":27190,"02/01</w>":47030,"प्रेस":36015,"रेखा</w>":16328,"चराइ":40114,"💰":7204,"सीधी</w>":19788,"चिट्ठी</w>":21705,"नजी":43901,"मनप्रीत</w>":46427,"समाज":19555,"खाया</w>":18665,"जेने":25483,"जालस्थल</w>":32998,"परिष्":26598,"ब्लेक</w>":43527,"ʎ</w>":10805,"कॉन्फ्रेंस</w>":30466,"कृष</w>":49865,"ख्‍याल</w>":40657,"पास</w>":13353,"सेदो":45735,"क्रिए":26535,"साहार</w>":35992,"ल्स":47668,"नामांकन</w>":18374,"ץ</w>":8113,"बोर्डिंग</w>":42153,"शक्तिकरण</w>":28535,"180</w>":25710,"ड्राय":46807,"वास्तुकला</w>":27451,"इक्विटी</w>":29157,"सिंह":17918,"अवार्ड</w>":20675,"बरसो</w>":48084,"स्कैन</w>":29600,"ᱟ</w>":10633,"किलो":16511,"भक्तो</w>":48124,"टाइल</w>":31912,"दृश्य</w>":15447,"चिकित्सकों</w>":24405,"县":3612,"拙":4027,"तसिंह</w>":30954,"धर":14984,"ठियाँ</w>":40583,"वासन</w>":19308,"सावधा":28307,"雄":5050,"ʤ":315,"⠱":3063,"ג</w>":7933,"💕":7177,"प्रतिबिंब</w>":39109,"जाओ</w>":16229,"05":15401,"नॉर्":26251,"मोटा":18248,"逐":4919,"फार":17162,"भिजवाया</w>":33917,"इंस</w>":18459,"स्टो</w>":43422,"361</w>":44058,"कार्यक्रम</w>":14143,"गईं</w>":16631,"ଶ</w>":11185,"पोस्टल</w>":45316,"⬱</w>":12523,"इज़":26123,"मैल</w>":38958,"馆</w>":12823,"जुला</w>":34600,"":5632,"मन्द":49195,"1928</w>":38828,"बुआ</w>":22081,"</w>":12425,"🐤":7066,"मदन":35786,"प्रागैतिहासिक</w>":47586,"डॉ०</w>":31656,"आकार</w>":15671,"बई</w>":14308,"मिलावट</w>":30597,"चीख</w>":24080,"मून</w>":26079,"राजमहल</w>":38830,"":82,"07/26</w>":46023,"ड्राई</w>":27874,"बैचल":43940,"अध्यन</w>":48613,"पुरी</w>":15466,"म्ह":27302,"वर्षो</w>":25056,"वामा</w>":45256,"अक्ष":15139,"क्रमा":20502,"हज</w>":27461,"परिवर्तनों</w>":30234,"चेष्टा</w>":29891,"माओ":20232,"ढ़ों</w>":41754,"शिर</w>":35000,"स्टेबल</w>":25230,"राजपथ</w>":39798,"ଜ":1267,"౽":1445,"ೈ</w>":12163,"▤</w>":11634,"कमलनाथ</w>":49567,"प्रकाशन</w>":16943,"屯</w>":8095,"कपड़":20789,"δ</w>":8233,"</w>":8447,"</w>":9556,"स्‍वी":21077,"":6451,"火":4335,"होस्ट</w>":28125,"ஸ</w>":10889,"प्रयत्न</w>":22307,"⬱":3106,"अर्थव्यवस्था</w>":17982,"खोला</w>":20334,"बूंद</w>":25069,"水</w>":9870,"बेंगलु":23214,"अनौपचारिक</w>":32141,"19,":31490,"ى":709,"¬":109,"फीट</w>":21709,"मायावी</w>":45678,"ftext|":12883,"梆":4183,"द्रोपदी</w>":47667,"कार्यकाल</w>":20478,"सेटअप</w>":33850,"겨":5214,"क्लब</w>":17507,"भाँति</w>":24349,"इंसानियत</w>":25814,"शिष्यों</w>":30928,"शेरो</w>":45867,"मुखर्जी</w>":20193,"आजाद</w>":19161,"संग्रहालय</w>":20175,"革":5071,"ईरानी</w>":23588,"सेक्स":24151,"େ</w>":8614,"850</w>":45288,"ंग्स</w>":17710,"є</w>":8178,"खींचना</w>":44693,"ख्या</w>":13672,"गज":23815,"कपा":44822,"जहाज</w>":20616,"नागा</w>":35417,"निर्दिष्ट</w>":21452,"ज्ञा</w>":16752,"मुसलमानो</w>":50129,"गौ":14564,"⛎":2839,"गाँ":14328,"07.":50166,"बर्बर</w>":34068,"त्तरी</w>":22498,"आंशिक</w>":21406,"आइपॉड</w>":48733,"कम्यूनिकेशन</w>":40238,"ി</w>":8101,"डब्बा</w>":48175,"सनसनी</w>":28460,"चढ़ना</w>":42866,"":6473,"धनुष</w>":22974,"bac":32731,"दर्शन":30547,"डील्स</w>":46516,"निवासी</w>":15752,"जिय":22932,"श्रेणी":37275,"ष्टों</w>":32115,"</w>":9182,"राख</w>":23531,"विंड</w>":47996,"ѧ":499,"द्वाज</w>":24550,"अब्दुल्लाह</w>":48533,"मिलीलीटर</w>":35414,"प्रविष्टि":38460,"बसें</w>":28109,"पिकनिक</w>":35905,"⊡</w>":10998,"я</w>":7738,"विकारों</w>":30269,"ṋ":2204,"☖":2725,"अभिन्न</w>":27850,"समझते</w>":18198,"पांचवे</w>":41376,"डुबो":47050,"प्रांतों</w>":33794,"अंदाज</w>":17996,"☏":2719,"श्रीमद":45489,"":5844,"૩":1245,"🍭</w>":9714,"प्रोमो</w>":44208,"चुनौतियां</w>":31360,"तैमूर</w>":39690,"कैटर":49107,"थैले</w>":40883,"धर्मांतरण</w>":32898,"उदयपुर</w>":21684,"अखंड</w>":29175,"अनार</w>":29464,"सीना</w>":19508,"ҵ":533,"वर्ज़न</w>":43312,"36,":47831,"श्य</w>":14034,"मृदु</w>":43950,"ஓ":1326,"गोलियाँ</w>":37135,"崽":3873,"अख़्":42885,"फिलिपींस</w>":31736,"梁</w>":12077,"खेलो</w>":34989,"मात्रा</w>":15645,"लड":18119,"आच्छा":36862,"ट्री</w>":16402,"प्रतीका":35928,"तुंगी</w>":41054,"☥</w>":9137,"璠":4404,"छोड़ो</w>":25657,"󾍁":7570,"amबहुत</w>":27427,"नुकसानदेह</w>":30077,"केप</w>":39217,"भारतेंदु</w>":40810,"25,":33298,"युक्ति</w>":17270,"शुभकामनायें</w>":20406,"खरीदा</w>":23392,"नहार</w>":30070,"शैम्पू</w>":38170,"अनुभव":28520,"बंधक</w>":17077,"उच्‍च</w>":25589,"संदे":47947,"सिन्धु</w>":27370,"शोएब</w>":38747,"彊</w>":10092,"紗":4552,"</w>":10152,"क्लिक</w>":14468,"नौत</w>":43191,"लाड":39159,"京":3406,"दर्दनाक</w>":26713,"बैक्‍":46837,"व्हीलर</w>":50215,"ળ":1222,"й</w>":7810,"ईश":48545,"तिलक</w>":21817,"धारण":29375,"फिल्मे</w>":41869,"मासप":43226,"संस्था</w>":16829,"अत</w>":18401,"๔</w>":9982,"प्रशास":18405,"๕</w>":12624,"◑</w>":11728,"हत्याकांड</w>":24888,"佞":3451,"少":3843,"􀆤":7635,"त्रुटि</w>":21113,"कम्प":15695,"यका":46123,"नासूर</w>":45769,"रिजेक्ट</w>":40142,"अंपायरवेबसाइट</w>":25382,"पुलिया</w>":33569,"ハ</w>":9084,"🌅":6826,"🚆":7450,"चस्पा</w>":48081,"坡":3719,"खोज":21253,"सद</w>":14324,"विडियो</w>":17544,"समीक्षाएँ</w>":16616,"लगेगा</w>":18909,"惜":3982,"骑":5113,"नन्हीं</w>":36061,"एहतियात</w>":49263,"तोते</w>":35775,"न्तरित</w>":40232,"भारत":16403,"लिहाज़</w>":41557,"एसएम</w>":27230,"विता</w>":26057,"ᄈ":1907,"03/22</w>":46263,"󾰛":7603,":48</w>":27337,"पोर्ट</w>":14060,"स्टल</w>":19208,"भेदन</w>":49477,"〼":3178,"˅":326,"मुमताज</w>":44960,"फैटी</w>":37796,"फ्रेंसिंग</w>":46817,"राशिफलमेषसिंहधनु":22607,"購":4859,"हाशिम</w>":46888,"नाच":26419,"धमत":38071,"ސ":880,"बन्ध</w>":21445,"147</w>":35187,"सादर</w>":18172,"स्‍क</w>":20718,"╬</w>":9957,"कुछ</w>":13042,"रोप":45957,"ऑफिसर</w>":24976,"♀</w>":9110,"दफ्तरों</w>":35569,"दुर्भाग्य":29125,"":6582,"न्याय</w>":16835,"नियन्</w>":40566,"अब्रा":29314,"ଦ":1275,"जीरे</w>":43844,"":6634,"बायीं</w>":37936,"१९८०</w>":41862,"ఉ":1385,"😱":7413,"छिपक":38636,"सन्‍":44729,"ಿ</w>":7950,"एनबीटीमेरा</w>":29492,"औकात</w>":29598,"डाव</w>":48808,"सन":18284,"हंसने</w>":30968,"7:":21458,"टकराई</w>":38700,"डाऊन":42677,"संजीवनी</w>":32367,"साहिर</w>":33673,"एक्टिंग</w>":28810,"ゲ":3262,"सत्ताधारी</w>":35870,"‿</w>":12191,"🇺</w>":8352,"͜":399,"हाइपरटेंशन</w>":37192,"😚":7390,"मानकर</w>":21828,"शार्":35677,"बहराइच</w>":32836,"गोमती</w>":34435,"इकलौता</w>":40856,"केल</w>":23759,"सकें</w>":17278,"</w>":11294,"த":1337,"नोवा</w>":40331,"दिखाने</w>":18291,"अलाउद्दीन</w>":41241,"怪":3965,"":6538,"अंग्रेजों</w>":19963,"ؾ</w>":11367,"घनघोर</w>":38730,"मालिश":40849,"णियों</w>":17751,"हटाओ</w>":36400,"ऒ":930,"अतुल</w>":26624,"फ्रेंडली</w>":45565,"ु</w>":7731,"":5662,"अवधि</w>":15406,"﴾</w>":8856,"௩</w>":12683,"जिसे</w>":14277,"जेई</w>":35440,"मशरूम</w>":33103,"एनएल</w>":26814,"दीजिए</w>":21134,"29</w>":14606,"घनी</w>":34369,"कलन</w>":17211,"खट":25612,"मकबूल</w>":49868,"महती</w>":44893,"समाचारों</w>":28293,"सिड</w>":42015,"हिन्दू":32137,"मुकद्":36330,"अमेरिका":44325,"宝":3813,"केरोसिन</w>":43839,"सबको</w>":16882,"अर्था":15985,"ना":12914,"शुभकामना</w>":30449,"岳":3866,"ؔ":664,"जगत":39695,"蚪":4735,"노":5250,"वर्मा</w>":16805,"जमींदार</w>":37816,"</w>":10433,"नीड़</w>":46064,"🚶":7487,"ડ":1207,"聽</w>":10006,"परवाह</w>":21323,"अन्तरराष्ट्रीय</w>":38116,"ൻ</w>":9152,"♄</w>":10216,"🍞":6904,"बीमारी</w>":15725,"हरियाणा":44377,"स्वराज्य</w>":37705,"सैंकड़ों</w>":35717,"रामकुमार</w>":37387,"एमओ</w>":25103,"✯</w>":11727,"पड़</w>":14982,"लॉन्‍ड्री</w>":28942,"आँच</w>":37324,"संपादकों</w>":37002,"खौफ</w>":26245,"आतुर</w>":31076,"ब्रॉडबैंड</w>":40831,"梵":4189,"र्ण</w>":17812,"सप्तर्षि</w>":30188,"कलक्टर</w>":37104,"रैपर</w>":46497,"उफ़</w>":34930,"कक्षा</w>":17276,"दौड़ते</w>":33365,"चवन्नी</w>":36753,"निवारण</w>":20647,"थें</w>":39600,"🛂":7495,"💘":7180,"विशेषण</w>":32803,"महत्व</w>":16222,"इन्होने</w>":28579,"सूत्रीय</w>":44769,"จ</w>":11370,"माथु":26770,"मुंहासे</w>":45160,"मृतका</w>":40703,"陘</w>":10049,"मुशर":30314,"गांगु":27990,"퍼":5531,"की...</w>":33804,"क्वार्":24819,"ೈ":1494,"📒":7232,"बिलासपुर</w>":21718,"अली":20021,"दिखे</w>":21326,"</w>":10804,"हवाला</w>":25310,"अनाथा":50027,"कोल्‍ड</w>":24826,"pe":36895,"टरों</w>":16779,"पूँजी</w>":30582,"मूलाधार</w>":48269,"ककर</w>":20508,"यादा</w>":17483,"✌":2863,"🥂":7529,"मुकाबला</w>":20274,"例</w>":12794,"पु":12965,"亿":3410,"दहशत</w>":25261,"ָ":614,"गौशाला</w>":40285,"ë</w>":8096,"वसा":43710,"ት":1972,"अंचल</w>":25967,"लघुकथा</w>":22841,"उत्तराखण्ड</w>":20515,"दिलकश</w>":41510,"तासीर</w>":42310,"...":15499,"हंसते</w>":27552,"अज</w>":49916,"खगो":27145,"मासू":18426,"揚":4051,"楚":4199,"बहादुर":39493,"मोहरा</w>":47251,"नजर</w>":14659,"स्विफ्ट</w>":40648,"":5894,"</w>":9249,"≈":2487,"कपडे</w>":24669,"गिलहरी</w>":42503,"भार्ग":30602,"शुक्ल</w>":18681,"पटनायक</w>":36852,"परिष्कृत</w>":29538,"ж":455,"साये</w>":27491,"अन्नपूर्णा</w>":32957,"🐓":7051,"लड</w>":24982,"ǁ</w>":9011,"군":5227,"क्रिट</w>":47977,"अरसा</w>":49563,"😭":7409,"मंडरा</w>":40981,"ईश्वर</w>":15879,"ऊँगी</w>":29207,"द्वं":22546,"सिका</w>":30836,"गायें</w>":40214,"दोई</w>":29232,"ʝ":313,"नियमों</w>":17161,"पार्ट":15597,"योजनाएँ</w>":39342,"ऐतिहासिक</w>":17109,"़ा":29930,"तपेदिक</w>":42600,"सन्</w>":16898,"पटा":18551,"ɞ":262,"༤</w>":9581,"अफसर</w>":20203,"बची</w>":22062,"सतरंगी</w>":40681,"हृदय</w>":15872,"📟</w>":9306,"࠿":906,"वें</w>":15549,"उसका</w>":13884,"कु":12954,"तथ्य</w>":17100,"खाका</w>":39335,"पुलिसक":23171,"सिंहस्थ</w>":41822,"बग़":45140,"जॉर्जिया</w>":40206,"हँसते</w>":24270,"अभि</w>":40496,"हरिजन</w>":37072,"वाक्यांश</w>":33449,"􀈣</w>":12054,"र्द्ध</w>":40549,"ुल</w>":31072,"गुणवत्तापूर्ण</w>":36891,"इण्टर":38550,"एंडो":42907,"रॉन</w>":33209,"􀀻":7607,"राष्‍ट्रीय</w>":24041,"205</w>":33229,"ढलते</w>":42098,"माद":45073,"ვ":1880,"律":3943,"कुचला</w>":37808,"कोर</w>":15356,"शिवरात्रि</w>":27177,"जुनून</w>":26337,"हराया</w>":17826,"ड्रिल</w>":40504,"परास्नातक</w>":43221,"363</w>":45474,"शार्ट</w>":41244,"लहरा":24926,"हाईकोर्ट</w>":19440,"ह्ह</w>":33135,"संप्रभु</w>":40274,"০":1101,"实":3814,"芦":4677,"飞":5092,"🛩":7502,"बिगड़े</w>":35232,"पेंट</w>":26587,"मिलाकर</w>":16855,"निदान</w>":18991,"मीटर</w>":14953,"शास्त्रियों</w>":35455,"ज्ये":30126,"सरल</w>":16795,"लाउंज</w>":37319,"於</w>":10079,"č":158,"काश</w>":15386,"महत्त्व</w>":23622,"्यूम</w>":35291,"विशेषकर</w>":23813,"भाग्यशाली</w>":26894,"मस्तीफिल्मी</w>":47244,"ँदी</w>":49514,"जाएँ</w>":14508,"ख़त्म</w>":20288,"कपिल</w>":20032,"कस्बे</w>":23250,"नाव</w>":13585,"पसंदीदा</w>":17352,"ˈ</w>":10110,"प्रोड्यू":33218,"कैप्टन</w>":24277,"दोहा":46362,"खना</w>":41060,"बें":28604,"एना":27076,"मिना</w>":37005,"अस्थ":21921,"मुनि":35671,"रिफ</w>":31330,"वाह्य</w>":41438,"लैश</w>":23625,"⇮":2445,"इश्क़</w>":24423,"":5665,"फार्म":46212,"🕖":7329,"":5879,"आत्मरक्षा</w>":49209,"शिकं":28369,"इच्‍छा</w>":39513,"गांवों</w>":18400,"श्या</w>":29856,"५२</w>":35784,"c</w>":7792,"":5667,"बिताये</w>":49030,"":6205,"⤔</w>":12108,"47</w>":16852,"मलबा</w>":42893,"मशीनों</w>":26152,"केवल":49271,"बादी</w>":16686,"लिक्वि":41699,"":6066,"था...</w>":31697,"विश्वव्यापी</w>":37137,"चुदी</w>":47670,"🖐":7345,"बिरजू</w>":47021,"मांसाहारी</w>":37827,"ਸ</w>":11538,"":5683,"</w>":11168,"डराव":30359,"क्‍कर</w>":39370,"दें</w>":13935,"क्‍स":49879,"सिनेमा</w>":16828,"हरयाणा</w>":43326,"ಣ</w>":10177,"लियोन</w>":23665,"वे":13008,"वॉलपेपर</w>":22228,"पत्नियों</w>":32253,"ताभ</w>":18023,"æ</w>":7991,"एकरूपता</w>":40067,"नापन</w>":37861,"शंस</w>":22178,"</w>":12460,"बजाने</w>":28943,"ओन्‍":22039,"निर्बल</w>":36825,"जयन्ती</w>":31386,"दांतों</w>":21774,"सेगा</w>":43851,"वीस</w>":39093,"वीरों</w>":32299,"राजू</w>":21841,"डिमेंशिया</w>":37234,"एम्स्टर्डम</w>":44925,"┼</w>":10888,"आर्":14741,"अजलान</w>":43806,"आमने</w>":26098,"मांगती</w>":41774,"मानकीकरण</w>":48766,"रुपये":50254,"ヽ</w>":12800,"⛷":2850,"वयं</w>":30733,"आतंकवाद</w>":17629,"मजन":42059,"लिस्‍ट</w>":42833,"👪</w>":11429,"்":1364,"नियाई</w>":24561,"खरोंच</w>":44651,"दून</w>":18713,"भूषा</w>":33196,"नागरि":18111,"अमरीका</w>":18244,"han":45592,"मोहल्ले</w>":24283,"ंडे":16899,"39,":40090,":46</w>":27328,"गोन</w>":37124,"कारिता</w>":16336,"इस्लामिक</w>":24160,"चंद्रा</w>":37536,"उस्ताद</w>":24553,"लक्ष्मी":23260,"आर्से":45613,"पर्वत</w>":18328,"तंबाकू</w>":29667,"मनाही</w>":39393,"आलस</w>":42156,"वय</w>":35800,"विरू":22627,"रोल</w>":18626,"दोनों</w>":13549,"व्यवस्थाओं</w>":29236,"एसएचओ</w>":44764,"पोटैशियम</w>":45673,"सँभा":35597,"सहभा":31473,"चालाक</w>":34824,"अंक":29536,"मानवाधिकार</w>":23275,"शैतानी</w>":43427,"जनपथ</w>":41055,"पुरो":31992,"स्टार्ट":35706,"४२</w>":35020,"ṭ</w>":10770,"</w>":8866,"🌠</w>":9131,"अत्याचारों</w>":38093,"बरसती</w>":45621,"अटक":33047,"प्रांतीय</w>":29560,"າ":1714,"चाहिएं</w>":44322,"दर्शनों</w>":25791,"खोजते</w>":36130,"मेसो":40510,"सादी</w>":34637,"२५":45179,"🎗":6955,"आरपीएफ</w>":37948,"सहे":17416,"本</w>":8192,"🚊</w>":9564,"जाएगा</w>":13750,"गोल्डन</w>":27743,"करवाई</w>":24106,"दसवें</w>":37045,"नीद</w>":49683,"खीरी</w>":33683,"लाली</w>":26325,"起":4872,"</w>":9449,"जायज</w>":26031,"कॉन्फ़ि":29510,"व्यंग्यकार</w>":46080,"डेस्कटॉप</w>":27953,"१९८६</w>":48343,"जेवर</w>":30876,"जातकों</w>":33252,"अतिशय</w>":39258,"झगड़":40529,"सदियों</w>":21220,"एव</w>":26141,"शिरो":27207,"ˆ</w>":8922,"पालक</w>":19504,"मांगी":37384,"ി":1552,"अवशेष</w>":25371,"‡":2312,"達":4930,"आरडी</w>":37132,"":5933,"महान</w>":15530,"समन्व":22061,"􀃔":7620,"पूछती</w>":32800,"􀆣":7634,"सौदे</w>":24593,"डैं":36029,"मृत्यु":24438,"चूस</w>":27301,"प्रायश्":34680,"मेहमान</w>":19232,"टेक्नॉलोजी</w>":32973,"दखल</w>":23948,"जूते</w>":20359,"बृज</w>":48363,"लोरी</w>":21636,"शीतकालीन</w>":29836,"ഴ":1545,"‟</w>":12168,"आम्र":44997,"शोषक</w>":44991,"सर्जिकल</w>":26509,"◎</w>":12468,"鹏</w>":9754,"लापन</w>":23248,"मो":13062,"ne":26294,"स्प्रे</w>":35934,"इयो</w>":35511,"पब्लिश</w>":44467,"ड़ी</w>":13121,"ढूँढने</w>":31062,"लंगर</w>":37226,"ള":1544,"वियतनामी</w>":43324,"शिर्":44356,"हेड्स</w>":39340,"組":4561,"फलस्वरूप</w>":22652,"</w>":8793,"अयस्क</w>":33979,"दिखाएं</w>":19500,"蝌":4739,"हाइवे</w>":28547,"पद्मा</w>":44452,"ऑर्गे":32751,"डियम</w>":17765,"≡≡":44003,"अलैहि</w>":29505,"क्लबों</w>":44811,"मेहर</w>":38259,"सफु":37457,"वीं</w>":14469,"अनूठी</w>":30385,"कन्":15188,"钟</w>":12786,"":6390,"दिखाएँ</w>":26529,"पत्थरों</w>":25238,"मर्यादा</w>":23862,"इसपर</w>":27515,"हालिया</w>":28028,"देशों</w>":14430,"चाइयों</w>":33738,"ڑ":765,"बलात्":29588,"स्टेरॉयड</w>":47029,"🗜</w>":12333,"</w>":10832,"टाईगर</w>":42362,"एनजी":24487,"कहत</w>":46039,"टेस्टी</w>":40479,"खचा":49653,"ब्वॉय</w>":48147,"मैकाले</w>":48699,"रोम</w>":20064,"सद्य</w>":43098,"⌥":2537,"विश्वास":29777,"</w>":11315,"🎯</w>":9330,"लघु</w>":18127,"उड़न</w>":31941,"कैथो":30115,"പ</w>":10847,"ะ":1660,"वजीर</w>":45616,"ሞ</w>":9440,"इकट्ठा</w>":22944,"खानों</w>":25135,"एसएलवी</w>":46871,"किलोग्राम</w>":28068,"तस्‍":35367,"नदियाँ</w>":28755,"393</w>":48599,"व्यवस्थाएं</w>":39350,"􀈹":7648,"रेशमी</w>":33519,"आंच</w>":27270,"❷</w>":11917,"☞":2732,"रकम</w>":20754,"किसानी</w>":40593,"अच्‍":17628,"नस्":20979,"鰯</w>":12367,"बाईपास</w>":35811,"रूक</w>":32194,"ऐश्वर्या</w>":24197,"गिरि</w>":24541,"ಯ":1477,"ठाक</w>":27248,"</w>":9043,"♋</w>":9680,"चाहू":21967,"</w>":8243,"बॉन्ड</w>":34826,"जताते</w>":30204,"͂":390,"चट्":21410,"वारा":18008,"रातों":48304,"ब्लॉगर्स</w>":30909,"वली</w>":15767,"ब्लाग":27411,"भूमिगत</w>":31358,"आदरणीया</w>":35179,"रेस":41378,"घबरा</w>":27916,"ቺ":1973,"沢</w>":10966,"बेईमानी</w>":33904,"":5786,"वना</w>":28333,"":6481,"😉":7373,"पूर्णता</w>":24942,"एसी":41356,"डकैती</w>":31195,"न्य</w>":13872,"ad":26221,"पॉटर</w>":42892,"राजगढ़</w>":42247,"सेकुलर</w>":29459,"க":1327,"ब्यू</w>":32767,"↪</w>":9026,"अपनेपन</w>":46574,"कदम":43000,"ज़ेब</w>":42410,"जि़म्‍मेदारी</w>":27008,"۲</w>":8412,"पूंजीवादी</w>":33158,"औरतें</w>":24977,"युवाओं</w>":18032,"356</w>":48359,"चिप":20532,"उर्वरक</w>":32402,"स्ट</w>":13269,"आरोप</w>":14865,"č</w>":10767,"╯</w>":9645,"पीछा</w>":20374,"राशिफलमेषसिंहधनुवृषभकन्यामकरमिथुनतुलाकुंभकर्कवृश्चिकमीन":22620,"li":24343,"मनसा</w>":44821,"वेबसाइट्स</w>":41534,"</w>":9559,"संदिग्ध</w>":21149,"ଆ</w>":10458,"al</w>":35619,"आंबेडकर</w>":30313,"":5830,"तिन</w>":19991,"सूर्या</w>":46221,"कृतियां</w>":33601,"</w>":9818,"↞</w>":9311,"वसा</w>":22352,"་":1736,"श्यो":22099,"取</w>":9595,"🚀</w>":11118,"मातृभाषा</w>":29365,"कर्ज़</w>":45707,"काें</w>":44908,"मेंदर</w>":27651,"जाएंगी</w>":22574,"कोने</w>":19243,"जोड़ें":22867,"निस्तान</w>":19352,"रिजर्":19266,"शम्भ":49722,"संरक्षक</w>":26401,"समीकरण</w>":26940,"सवाई</w>":29616,"सेनाध्यक्ष</w>":44065,"ላ":1929,"</w>":12297,"साइं":26820,"बहुगुणा</w>":33520,"sa":44560,"दरवाज़ा</w>":28840,"डूब":27610,"त्र</w>":12992,"मुहल्":30163,"</w>":8195,"चित्रपट</w>":46306,"पानी":21048,"드":5273,"कराएं</w>":27778,"242</w>":41230,"डिज्":40795,"नरम</w>":24316,"एकाउं":41039,"फीस</w>":20143,"सुर्ख़ियों</w>":44306,"阪":5023,"नशे":43091,"":5806,"कुण्ड":27655,"सराय":49293,"६६</w>":38953,"燕</w>":12529,"घुस":24261,"字":3797,"परतें</w>":42811,"बत</w>":15439,"लिट</w>":45385,"৤</w>":12394,"ோ</w>":11181,"विधवा</w>":24371,"02/21</w>":40120,"कॉपी":20487,"चला":16273,"टेलीग्राफ</w>":49906,"किन":15999,"विक्रेता</w>":26995,"ता":12923,"तूबर</w>":15275,"वाष्पक":38735,"विद्व":28757,"मुद्राओं</w>":36641,"विश्वयुद्ध</w>":30631,"ረ</w>":9344,"♰</w>":11916,"ἐ":2256,"☹</w>":10755,"寶":3830,"किन्हीं</w>":31745,"ٮ":739,"声":3738,"🌍</w>":9566,"टूटे</w>":23152,"":5611,"አ":1982,"🐗</w>":12654,"🎪</w>":10874,"निर्णा":24601,"शुल्‍क</w>":19568,"टाइप":48921,"नेके</w>":39977,"</w>":11341,"अप्रूव</w>":30491,"迅</w>":9475,"डेरी</w>":50097,"जाई</w>":23499,"बादलों</w>":23685,"ง":1625,"告":3652,"!</w>":8290,"🔖":7285,"विपरी":17977,"सेल्स</w>":27542,"लक्ष्मण":47167,"कॉरपोरेट</w>":29900,"करीबन</w>":23320,"☠":2734,"🚿":7494,"बडवानी</w>":36719,"✨</w>":8435,"दूरस्थ</w>":26259,"घिनौ":25415,"रिटायरमेंट</w>":27036,"सेल्फी</w>":25643,"ཇ":1757,"":5981,"दीय</w>":30342,"ಟ":1463,"एड़ियों</w>":48089,"💘</w>":8556,"पुरा</w>":17030,"विद्या</w>":17359,"डब्ल्यू</w>":21240,"एप्ली":24979,"पद्य</w>":34773,"अरुण":48922,"龜":5172,"नरा":47934,"इतिहासकार</w>":28296,"फते":21393,"सिंगपुर</w>":45109,"<</w>":12730,"थरथ":48319,"इंड":17906,"मनके</w>":50152,"रौनक</w>":30643,"999</w>":32801,"सार्थक</w>":18183,"स्वरूप</w>":15430,"ு</w>":8923,"लाई":17285,"请":4830,"बहुतेरे</w>":42777,"क्लिनिक</w>":37573,"चोली</w>":33533,"बाबासाहेब</w>":45912,"बेहाल</w>":27842,"मूर</w>":28219,"चिदंबरम</w>":24511,"चापलूसी</w>":48098,"趙</w>":12497,"🎁</w>":8246,"फ़्रेंच</w>":37975,"विशिष्टता</w>":37836,"जामा</w>":25080,"विक्टोरिया</w>":30190,"गोविंदा</w>":36331,"</w>":12466,"परम्प":18092,"अंग्रेज़ी</w>":16154,"आईएसओ</w>":45060,"घं":13744,"जाऊंगी</w>":41050,"टोका</w>":44417,"सटीकता</w>":42011,"भुजा</w>":39669,"成":3993,"在":3711,"दिखने</w>":18530,"बड़ा":28552,"रक्ताल्":48886,"मसले</w>":24380,"सं":12910,"स्क्राइ":31502,"फतेहगढ़</w>":41411,"वों</w>":14395,"होठ</w>":39424,"चकर</w>":48715,"हिट</w>":19397,"ῆ":2286,"":5853,"परीक्षण</w>":16789,"फिल्टर</w>":22763,"कृष्ण":22965,"लु":13941,"भुलाकर</w>":49258,"</w>":11717,"侼</w>":10315,"बहस</w>":17132,"सैक्टर</w>":48816,"उदार":22796,"टेलिकॉम</w>":41381,"रेटिंग्स</w>":49608,"जले":31476,"ंदी</w>":17246,"चाटु":42507,"गर्ल</w>":20921,"शला":50023,"मा</w>":13079,"हेन</w>":48139,"कीबोर्डआपका</w>":38178,"नौ</w>":16725,"आवाजों</w>":43583,"वर्षा</w>":18264,"੦":1178,"╠":2614,"☠</w>":9027,"मुल्ला</w>":30592,"मोज़े</w>":45518,"끌":5241,"</w>":8065,"मित्तल</w>":29761,"इक्का</w>":42483,"貫":4849,"नजरिया</w>":25591,"सीआई</w>":34696,"ईं":20428,"094":46067,"^</w>":11147,"फोम</w>":49153,"लड़का</w>":18199,"वरीय</w>":41609,"☉":2713,"वार्ताला":27447,"ईस्टर</w>":39857,"दिक्कत</w>":20682,"मांगलिक</w>":34985,"राइफ":41406,"ރ":870,"वृत्तांत</w>":38411,"⇲</w>":9973,"उगल</w>":49054,"युधि":30882,"는":5253,"कलियाँ</w>":44987,"":5942,"🀄":6771,"कंप्यूटरों</w>":48726,"देखेगा</w>":41728,"सुचार":28584,"🐙":7057,"प्लेट</w>":23285,"क्रमण</w>":16171,"गुर्दे</w>":28476,"ɐ":251,"...और</w>":36463,"अफी":34259,"ड्रिंक</w>":27378,"पुस्‍तक</w>":33346,"कैसे":41449,"दीर्घ</w>":31487,"प्रदर्शित</w>":16691,"लेती</w>":17294,"हां</w>":13192,"सपरिवार</w>":35170,"ም":1938,"✧":2884,"ज़ै":33408,"七":3346,"辰":4897,"੔":1175,"":6051,"धारा</w>":15334,"":6110,"🌄":6825,"गुं":19793,"किशन":31410,"मराठों</w>":48839,"दर्रा</w>":32014,"अधर्म</w>":32217,"चमकदार</w>":28129,"लॅ":20054,"</w>":8276,"टेक्नॉ":25765,"अनूठे</w>":35914,"शो":13449,"गतिज</w>":50252,"जाऊँ</w>":27367,"ׂ</w>":8077,"2.87":38684,"आधुनिक":39629,"कीमतें</w>":20776,"गिड़गि":43136,"टेलि":22367,"¤":103,"तद":30959,"बर</w>":13080,"समेट</w>":28820,"दब":20414,"উ":1039,"एनी</w>":43620,"फोर्ट</w>":34917,"⬅":3096,"बखान</w>":35732,"कटुता</w>":49024,"ˀ":324,"टिपण्णी</w>":29131,"712</w>":31065,"रंजन":44030,"जाधव</w>":32821,"दौस</w>":40753,"रिक</w>":14520,"प्रोजेक्ट</w>":19577,"बाकू</w>":22951,"सुनहरा</w>":29751,"महेंद्र":42783,"टेलर</w>":29663,"ओड़ि":43478,"-</w>":11826,"मण्ड":29922,"हॉस्टल":41109,"▼":2667,"व्‍यवधान</w>":30498,"书":3387,"佐</w>":12385,"关</w>":12261,"षियों</w>":36387,"":6151,"":6271,"बब्बर</w>":37977,"":6346,"नावली</w>":42203,"लोकन</w>":20071,"इंस्टाग्राम</w>":37519,"ข</w>":9950,"कीट":28145,"रिहर्सल</w>":44851,"बहिष्कार</w>":23307,"to</w>":47424,"यात्राओं</w>":29742,"挑</w>":9006,"विभोर</w>":36640,"播":4060,"":6563,"️":6734,"":84,"難":5056,"कलर्स</w>":38562,"आरएल</w>":35113,"":6183,"特</w>":12326,"✞</w>":10145,"अधिकता</w>":32911,"डब":30887,"बिजन":26154,"転":4884,"पूर्वांचल</w>":29625,"अवध":31699,"ܐ</w>":10050,"उमंग":48986,"ऐड":29945,"भागों</w>":19447,"मोचन</w>":24172,":35</w>":27019,"दिव":14211,"चारा</w>":23421,"ब्लो</w>":37720,"राजन":28730,"रेन</w>":24736,"लायेगा</w>":45029,"लोकपाल</w>":19605,"ष्ट</w>":13603,"कलिन</w>":44881,"मगही</w>":37250,"दलील</w>":30145,"संपा":13597,"उपग्रहों</w>":35012,"ή</w>":8608,"काँग</w>":23177,"तुमने</w>":17179,"सीक्":32762,"मॉनि":29276,"खंडेलवाल</w>":40337,"हंट</w>":44405,"善":3679,"ǫ":233,"貓":4843,"</w>":12135,"</w>":10456,"👧</w>":8494,"37</w>":17070,"दुल्हनिया</w>":44550,"पाँच":29948,"फंदा</w>":40384,"नाइ":15786,"संतोष</w>":18406,"्व":39827,"⍆</w>":11814,"कार्यालय</w>":15569,"🔰":7308,"रिव्यू":25946,"नई</w>":13624,"संतरे</w>":36128,"่</w>":9513,"िया":13032,"छाँ":26149,"णों</w>":13892,"बैड</w>":38016,"मसलन</w>":25311,"आईसीआईसीआई</w>":34387,"डब्लू":35709,"1931</w>":34451,"हेजल</w>":43420,"ޫ":894,"瑜":4399,"钱</w>":10457,"हयात</w>":38894,"सुनायी</w>":38273,"मैट्रीमोनी</w>":26336,"वृह":28128,"हु</w>":18135,"庭</w>":12126,"मुस्कुरा":21322,"एलिजा":39519,"r":57,"अधिकतर</w>":18314,"लचर</w>":45354,"विश्लेषकों</w>":43378,"好":3766,"邦</w>":11066,"जायेंगे</w>":17415,"힘</w>":9172,"फायर</w>":21350,"चों</w>":16042,"बहुतों</w>":35589,"अमूल</w>":49504,"कर्मठ</w>":44466,"476</w>":48959,"हिंट</w>":46118,"ല":1543,"形":3935,"कार्ययोजना</w>":42108,"बन्दा</w>":49175,"263</w>":42825,"मुशर्रफ</w>":32207,"भीलवाड़ा</w>":35339,"चर्य":43484,"अन्तराष्ट्रीय</w>":49471,"؍":660,"अशर":37629,"हवाई":33879,"——</w>":22076,"हायर</w>":34263,"किसी</w>":13113,"एनएम</w>":35840,"परिक</w>":18442,"बेवकू":23197,"मनमोहन</w>":17806,"सिस</w>":17236,"हाहा":30454,"ੋ</w>":8264,"जानें":38193,"197":15829,"03:":26455,"तहत</w>":14539,"एसीपी</w>":41570,"लोकतन्त्र</w>":39341,"श्रृंख":39929,"倍":3478,"फ़ॉर्म</w>":38261,"मक</w>":13629,"यूनिय":38677,"कविताएं</w>":20629,"शैं":35043,"फ़ाई</w>":20095,"लीबिया</w>":31359,"विस्‍तार</w>":39637,"猪":4373,"अधिनायक":46095,"लाउडस्पीकर</w>":39804,"҇</w>":9929,"जेन्द्र</w>":33441,"ताब</w>":18822,"परिस्थितियों</w>":19174,"ਊ</w>":12413,"͡</w>":12075,"इंसानी</w>":32609,"उद्यान</w>":21640,"णि":15067,"साबरमती</w>":43094,"स्थानांतरित</w>":26347,"१८८":35935,"😵</w>":11820,"♱</w>":10616,"پ</w>":8156,"ठहरी</w>":39726,"पाइप</w>":26791,"कहा</w>":13126,"गण्य</w>":37710,"तात्":20452,"निर्वाण</w>":30932,"⠓":3041,"आर्ट</w>":22201,"":6177,"कार्यात्मक</w>":36433,"दृढ़":42979,"ч":472,"आध्यात्मिक</w>":20056,"गतिकी</w>":50190,"चौकड़ी</w>":50067,"नादा":34624,"वाहिकाओं</w>":48185,"सप्लाई</w>":23420,"सेलु":45526,"चिढ़ा":39838,"🔨":7300,"ˊ</w>":9373,"घुसपै":39586,"झी</w>":21377,"टन</w>":13898,"नेल्सन</w>":36405,"पृथक</w>":26553,"वर्स</w>":23047,"🇧</w>":12114,"🍕</w>":11915,"रास्ता</w>":16361,"🙄</w>":8191,"वर्ल्ड":44761,"फलक</w>":28019,"साम्प्रदायिक</w>":27339,"‱</w>":8078,"टिकन</w>":29050,"आईए":21295,"요</w>":10043,"b</w>":7789,"प्त</w>":13360,"ֺ":616,"प्रारूप</w>":21298,"मुकाम</w>":26629,"00,000</w>":35968,"м":461,"इलाके</w>":17292,"राजभाषा</w>":21064,"सम्पत्ति</w>":22958,"席</w>":11048,"नरक</w>":25240,"नैन</w>":30843,"特":4366,"शाला</w>":15973,"ਥ":1149,"ग्या":33039,"</w>":10156,"ગ":1201,"蒙":4711,"कद्दूकस</w>":48397,"भील</w>":37433,"":6277,"أ</w>":8684,"ŭ":201,"जाएँगे</w>":25883,"अक्तूबर</w>":15615,"तर्क":25244,"मूलतः</w>":25004,"रिकवरी</w>":35224,"वोल्टेज</w>":22993,"〜":3173,"</w>":11179,"洪":4273,"डियाब्लो</w>":49201,"आतंकवादियों</w>":22234,"उत्साही</w>":36039,"लीची</w>":46319,"⇈":2418,"रिश्ते</w>":16976,"जहाँ</w>":14625,"ଶ":1288,"जमी</w>":23599,"form":47610,"ज़ेहन</w>":49328,"बई":37442,"के...</w>":38182,"मैके":31047,"आनन</w>":32824,"हरित</w>":27913,"ꠝ</w>":9350,"</w>":12410,"ᠩ":2113,"निर्विवाद</w>":43088,"प्रतिबन्ध</w>":34391,"ग्रॉ":43206,"सूत्रों</w>":16515,"हाइ</w>":41935,"चौबीस</w>":30381,"राजपू":33021,"ल्लो</w>":43835,"›":2327,"टालने</w>":41861,"एलर्जी</w>":19574,"खुलता</w>":35972,"ਨ":1152,"나</w>":10014,"☖</w>":10741,"χ":440,"इमो":27994,"इकॉ":35637,"देखने</w>":14273,"माध्य</w>":49607,"ӳ":557,"लोहा</w>":23720,"⋅</w>":11790,"आगस्त</w>":27326,"प्रचलन</w>":25330,"औद्योगीकरण</w>":48616,"ठहरा":22522,"गलियाँ</w>":34691,"风":5091,"410</w>":49669,"ᠵ":2120,"मर्तबा</w>":46713,"प्पो</w>":41380,"समलैंग":18437,"अधर</w>":34093,"मूत्र</w>":24235,"फ्रेंड</w>":17594,"महात्माओं</w>":50216,"्ये</w>":46637,"ईसापूर्व</w>":38889,"यस</w>":25001,"विषु":48121,"फेल":28698,"वीरेंद्र</w>":27511,"संश्":33369,"痢":4432,"᭝":2141,"फ्ता</w>":38611,"थैली</w>":30823,"27.":34433,"૨</w>":9122,"거":5211,"जायजा</w>":27629,"बहिर्":47564,"महत्वाकांक्षाओं</w>":47000,"스":5389,"쳐":5488,"ड्राइवरों</w>":40452,"प्रत्यय</w>":34036,"सूचनाएँ</w>":43457,"नू</w>":16296,"शृंखला</w>":23212,"पदयात्रा</w>":43878,"</w>":9609,"ऋणात्मक</w>":49091,"इंदु</w>":39211,"पारिवारिक</w>":20311,"शख्":18447,"नहींफ़ाइल</w>":39759,"फारू":37815,"जारों</w>":44823,"फिल्मकार</w>":34943,"खुलेगा</w>":36563,"बन":13533,"बाजे</w>":36656,"संयत</w>":42376,"महोत्सव</w>":20243,"हत्या</w>":15002,"इजाज़त</w>":35492,"09/13</w>":45368,"शों</w>":16105,"हमलावर</w>":28096,"टोटके":31664,"訶":4781,"अबु</w>":45917,"पठार</w>":31137,"外":3746,"डबल":38084,"標":4209,"":6714,"कमाता</w>":45072,"💋</w>":8279,"छुट्":20561,"करोड</w>":25528,"ग्गा</w>":38199,"भृ":31369,"तमी":30532,"एलन</w>":37431,"सलाहकार</w>":20301,"മ":1539,"टीबी</w>":23661,"जॉर्ज</w>":24692,"關":5013,"153</w>":32794,"ᣛ</w>":8767,"मिन्":30988,"⛺":2853,"तान्त्रिक</w>":36786,"प्रपोजल":40301,"एक्सप्रेस</w>":17166,"भावभीनी</w>":48429,"डायबिटीज</w>":18673,"no":40286,"निम्‍":46252,"घटित</w>":23162,"ठेल</w>":48004,"पके</w>":21818,"प्रतिष्ठानों</w>":39491,"मजा":19089,"शर</w>":18166,"२००</w>":30786,"":6126,"💬":7200,"ैल</w>":13843,"जमावड़ा</w>":40904,"थिर":29785,"पार्लिया":37423,"मगरमच्छ</w>":36439,"௵":1378,"‹</w>":8506,"🥂</w>":10813,"छात्रावास</w>":26665,"कुमारी</w>":18494,"फालतू</w>":33026,"स्नै":26109,"◙":2689,"१९९७</w>":45387,"輪":4886,"ब्रेरी</w>":25205,"ग्वालानी</w>":41863,"द्र्":49768,"0000":19861,"9/11</w>":44410,"डाकू</w>":29522,"निराले</w>":37656,"पिस्तौल</w>":32442,"वकालत</w>":25642,"आतंकियों</w>":21012,"निजता</w>":37495,"हेलमेट</w>":33281,"ऋग्":26195,"1930</w>":28856,"खुसरो</w>":39309,"दूरदर्शी</w>":41505,"बिल</w>":15922,"दीना":42877,"都</w>":12140,"नाविक</w>":39919,"धारी</w>":19045,"वाने</w>":16961,"किल":29502,"द्री</w>":48368,"</w>":9500,"नीना</w>":44317,"सारथी</w>":29211,"हेडगे":49482,"⛈</w>":8607,"85":32414,"ϫ</w>":10299,"वंचित</w>":20980,"域":3726,"英":4681,"🎤":6962,"मनोरथ</w>":49450,"ट्रिक्स</w>":27167,"🐏</w>":10577,"अवरुद्ध</w>":33201,"चूचे</w>":32005,"कामगार</w>":39420,"फानन</w>":33383,"कैरो":33307,"5000":34559,"बरे":19195,"ंध</w>":44674,"ʼ</w>":8944,"राष्ट्रीय</w>":13751,"आई":13513,"कन्या</w>":17957,"गर्ल":20331,"रस्ते</w>":34431,"स्थितियों</w>":17505,"⌠</w>":8736,"ケ":3261,"茶":4684,"शीशा</w>":33080,"छुड़ाने</w>":35657,"साना</w>":24076,"गतिशील</w>":21033,"爱":4356,"नित्य</w>":23705,"届":3853,"ंगरा</w>":43362,"क्रय</w>":21704,"फेरबदल</w>":28326,"रक्‍त":26728,"प्र0</w>":38535,"केन्‍द्र":34328,"सुब्र":26596,"ன</w>":10371,"":6350,"रिश्वत":45551,"":5660,"साउथ</w>":22203,"⟴</w>":8789,"कराए</w>":22028,"फिस</w>":45834,"":6465,"◣":2693,"रक्षक</w>":24285,"लक्जरी</w>":38344,"इले":22731,"ीय</w>":12991,"स्‍काई</w>":44097,"💀</w>":8643,"चमकी":28335,"迦":4909,"पीपीपी</w>":41673,"इंटरमीडिएट</w>":43228,"डिस्काउंट</w>":34220,"ਖ":1137,"🚿</w>":10660,"संयंत्र</w>":23498,"अरबी</w>":20347,"आइलैंड</w>":41909,"ऋतु</w>":22274,"क्योंकि</w>":13788,"झपन</w>":43465,"दानिश</w>":47732,"नीय":44699,"जहाजों</w>":34755,"दरवाज़े</w>":28222,"परहि":18064,"फेव":33367,"लाभ</w>":14410,"सिक्ख</w>":40157,"扯":4014,"🏥":7016,"</w>":8433,"निहितार्थ</w>":40383,"निष्कर्षों</w>":44292,"हटाये</w>":42071,"जलता</w>":29402,"एनिमेटेड</w>":42880,"極":4202,"̨</w>":12505,"जोड़ें</w>":17557,"ऑपरे":17330,"323</w>":44996,"ख़लिश</w>":50042,"ή":415,"जागता</w>":39496,"खींचें</w>":47563,"नॉन</w>":26191,"यादों</w>":19822,"लार</w>":25266,"शुरुवात</w>":35957,"पतित</w>":33399,"टुकड़ी</w>":46041,"豊":4837,"":5687,"लग":13138,"</w>":12525,"":6671,"................":20622,"सिंहासन</w>":25907,"类":4535,"</w>":10936,"ਐ":1134,"맨</w>":11780,"٢</w>":10162,"लकी</w>":26952,"संघर्":24204,"प्रदायिकता</w>":26375,"हंगे":34046,"असहाय</w>":30280,"पाओगे</w>":29418,"☢</w>":10388,"è":128,"मताओं</w>":27194,"劍</w>":11918,"कुवै":36481,"🤢":7518,"ईशान</w>":36967,"बंसल":28901,"09/18</w>":43776,"बॉडी</w>":19865,"ઃ</w>":9192,"o</w>":7775,"300</w>":18931,"賢":4856,"ལ":1779,"बॉडी":34991,"अं":13077,"め</w>":11996,"ণ":1061,"घटनाएँसमाज</w>":23961,"कौटि":38346,"</w>":11276,"लिथु":42061,"अणु":46334,"अहमदनगर</w>":48681,"旭":4096,"भाले</w>":39323,"माएं</w>":28538,"⁞":2338,"अधीक्षक</w>":21923,"गठित</w>":20588,"नींद</w>":15966,"जनविरोधी</w>":49378,"नार":16146,"आयुर्वे":21217,"मस्ति":18263,"कार्मिक</w>":32290,"कृत्य</w>":26331,"टार</w>":26550,"भ</w>":7764,"मूलांक</w>":32267,"राक्षस</w>":24420,"फॅ":36981,"शर":15696,"शिकार</w>":16264,"गाल</w>":22202,"ब्रेकअप</w>":27751,"फरोशी</w>":49185,"यूज</w>":24020,"समस्तीपुर</w>":39164,"हितैषी</w>":37011,"ಣ":1466,"၇":1865,"⚔</w>":11674,"密":3823,"":5799,"जिम्मेदारी</w>":17764,"":6391,"नामआपका</w>":27457,"हरिओम</w>":47850,"﻿</w>":8453,"एचओ</w>":32880,"4:00</w>":37787,"खाली</w>":16381,"स्पै":23039,"팔":5530,"🐎</w>":11521,"😳":7415,"अबुल</w>":42636,"तारीफ़</w>":28046,"ग्रामीण</w>":15995,"बद्र</w>":47338,"इनका</w>":16377,"鲜":5135,"कनवर्टर</w>":44496,"गंभीर</w>":15358,"टार्":27261,"अवशेषों</w>":41071,"यल</w>":14515,"सक्सेस</w>":39403,"त्रिवेदी</w>":26900,"雞":5055,"हरि":16337,"२</w>":7805,"यांकन</w>":44415,"ब्यौरा</w>":29913,"場</w>":8592,"प्राकट":48265,"सांड</w>":43352,"电</w>":10445,"浄":4278,"🐊</w>":10763,"健":3484,"इसरो</w>":29762,"➿</w>":11889,"ز":686,"राष्ट":39174,"संगरूर</w>":44132,"सक्र":15917,"आवश्‍":26811,"कण्":26668,"रामड्डष्ण</w>":46553,"迷":4911,"नुस्‍खा</w>":49833,"प्रपोज</w>":40311,"विभाग":48889,"➑</w>":11153,"स्वेच्छा</w>":36507,"रोए</w>":46527,"महंगाई</w>":19509,"न्त</w>":14884,"रेसि":21779,"बिग</w>":17295,"कडियाँ</w>":32261,"फर्मेशन</w>":41157,"घों":32439,"बूँद</w>":26203,"विशेषताओं</w>":27633,"प्रतिस्थापन</w>":41867,"℘</w>":12222,"眉":4453,"दक्षिणपंथी</w>":44139,"3.8":40602,"ताज़ाखबरेंसुपरहिट":23199,"नाहर</w>":46965,"बोर</w>":24483,"":5854,"एसओ</w>":27739,"ओलंपिक</w>":21433,"जां</w>":38843,"वयस्क</w>":18257,"":6463,"नामां":17795,"ɴ":282,"उनपर</w>":27158,"कि‍या</w>":46254,"खाओं</w>":46952,"जद</w>":33497,"पूरण</w>":47826,"यात्राएँ</w>":44878,"तरीके</w>":14793,"करेगा</w>":15179,"निया</w>":13341,"वर्तित</w>":42162,"गिया</w>":30223,"मेशन</w>":22410,"💍":7169,"ໍ":1729,"🍶":6925,"ओशन</w>":48005,"पंखों</w>":31558,"बेबुनियाद</w>":48354,"सनराइजर्स</w>":41171,"ұ":531,"फटा</w>":34429,"ठेले</w>":37770,"明</w>":8781,"रपुर</w>":20825,"कवितायें</w>":24066,"कः</w>":34157,"लायेंगे</w>":38926,"धरता</w>":46971,"🍙</w>":11570,"उठाए</w>":21156,"坚</w>":9601,"ଲ":1285,"तीनों</w>":17201,"लोगाें</w>":42069,"सम्पन्नता</w>":49323,"पंकज</w>":19817,"ड्रायर</w>":36644,"तटीय</w>":28893,"बला":17089,"रेटिंगस</w>":47780,"संगी</w>":36906,"रेटर</w>":20654,"़</w>":7735,"इंडियन":46097,"676</w>":46330,"आज़":24532,"जिप्":42790,"दावा":46872,"वज़ह</w>":38573,"कानी</w>":28021,"कार्लोस</w>":49635,"भु</w>":49682,"प्रशासनिक</w>":18510,"":6344,"पत्य</w>":22246,"म्म्":44288,"💣</w>":10124,"गुहा</w>":36787,"ƣ</w>":12540,"सोरेन</w>":41021,"බ":1599,"捫":4041,"नसरीन</w>":43705,"상":5367,"रवा":39836,"असहज</w>":34494,"पृ</w>":19457,"भवानी":47418,"मंगा</w>":47897,"၅</w>":9808,"😳</w>":8443,"शॉ</w>":43561,"सम्मोहित</w>":48051,"🎂":6936,"नाश्‍":32450,"पीए</w>":19791,"ɴ</w>":9458,"गलतफहमी</w>":38174,"ब्रो":22663,"आरा":20199,"ट्रेनों</w>":22632,"आर":13609,"गेर</w>":48155,"न्ट</w>":17414,"133</w>":33192,"א</w>":7862,"गरुड़</w>":41020,"ढाँचे</w>":42543,"दवा</w>":16880,"पुतली</w>":29688,"बाघ</w>":23127,"पालकों</w>":46856,"लटक":39361,"लभ</w>":19332,"श्रीलं":36856,"ʾ</w>":11693,"खौल</w>":44231,"लम्बी</w>":18351,"सेल":30208,"๛</w>":11554,"⧬":3091,"अरविंद</w>":18911,"सशस्त्र</w>":27964,"23.":33001,"हट":33908,"विलासिता</w>":38968,"स्थिति":39839,"岛":3863,"</w>":12226,"लोढ़ा</w>":41589,"":5775,"ט":635,"ⴽ</w>":10668,"ओह</w>":22451,"1955</w>":31793,"₵":2365,"क्यो":13702,"कंगन</w>":41032,"म्‍यू":37375,"परोपकार</w>":36788,"गांड</w>":18469,"धर्मपाल</w>":44650,"घृणा</w>":22055,"बागवानी</w>":24995,"बैठती</w>":35013,"協":3594,"बिका</w>":28775,"रिचर्":50060,"लीन</w>":14892,"रवानी</w>":49446,"टीईटी</w>":28022,"क़":13659,"ة</w>":7889,"द्रष्टा</w>":46462,"विनाशकारी</w>":36219,"अनसुना</w>":42271,"काती</w>":34928,"壽":3741,"कारागार</w>":35563,"逵":4924,"तड़के</w>":33014,"</w>":12155,"दिखाया</w>":17449,"ve":33451,"❣":2938,"ढक</w>":24889,"💛":7183,"परिभाषाओं</w>":49018,"</w>":11705,"҂</w>":10436,"महारा":14614,"पिंजरे</w>":32914,"बोलों</w>":40289,"फकी":45692,"ख़बरें":34108,"</w>":11423,"450</w>":30298,"भेड़िया</w>":49449,"08,":48212,"मानहानि</w>":35283,"मदमस्त</w>":48148,"चूचियाँ</w>":44783,"ष्य</w>":14000,"पिग":49345,"यूआई</w>":39971,"मरह":48017,"इन्स</w>":36476,"एपल</w>":42259,"󾁙":7548,"🔑</w>":9570,"</w>":8524,"कटि":22987,"झाड़ी</w>":44776,"विद":13491,"देशद्रो":26792,"विकासशील</w>":28041,"पॉलिसी</w>":24275,"राजनी":14755,"चुनें":31218,"विशालकाय</w>":30033,"जुटे</w>":23579,"नुक़सान</w>":49037,"शर्मनाक</w>":24482,"स्ट्रि":23710,"गर</w>":13109,"318</w>":49604,"नां":17581,"ब्‍स</w>":34719,"मैथिली</w>":24879,"स्विमिंग</w>":35521,"आर्टि":26633,"सैला":26356,"तोला</w>":44343,"सुपरहि":18082,"होम":19320,"ारित</w>":24557,"मेमन</w>":42930,"ங</w>":10907,"⊕":2504,"ら":3235,"लॉन</w>":26747,"增":3734,"वक़्त</w>":17420,"张</w>":11585,"险":5034,"बुढा":43022,"हथिय":22070,"ियें</w>":37657,"</w>":12306,"देश्य</w>":39149,"सरदार":46785,"❾</w>":8307,"00</w>":13251,"ლ":1883,"परोक्ष</w>":33351,"बुध्":49124,"man":36686,"झुंझुनूं</w>":40586,"दिली</w>":30768,"एस्टेट</w>":25847,"ज़माना</w>":27423,"फिदेल</w>":46826,"आवश्‍य":32857,"सितम्बर</w>":15654,"गाली</w>":18242,"धवा</w>":34648,"किरण":29258,"న":1402,"♠</w>":10068,"ⴰ":3116,"格</w>":10448,"आंकलन</w>":36150,"वाच</w>":32275,"</w>":8722,"धमका</w>":47300,"":5860,"प्रभारी</w>":18730,"2014,":24415,"ज़र्स</w>":35979,"":6108,"तनीय</w>":43260,"असुविधा</w>":31246,"उपनिष":25537,"आब</w>":32459,"मुंबई":40994,"फिजि":39924,"धोखे</w>":29188,"/02/2010</w>":47505,"डोज़</w>":40396,"जड</w>":42390,"जबकि</w>":14346,"ढह</w>":38323,"दारुल</w>":49823,"w</w>":8072,"आकाश":20604,"प्रह्लाद</w>":43333,"फर":15934,"बिन":47944,"संदेश":40554,"कटा":24980,"सामाजिक</w>":14439,"हाशि":30028,"कर्मका":49587,"रणदीप</w>":45663,"उल्‍":33165,"➏":2969,"각</w>":10974,"चारित्रिक</w>":46715,"सुन्नी</w>":34453,"शरार":26971,"लगाये</w>":22319,"मिलो</w>":22305,"अभिनव</w>":24493,"एनसीआर</w>":25264,"🤘</w>":11629,"यो</w>":15674,"जज्बात</w>":40028,"፡</w>":8807,"लिंग</w>":14831,"बीड़ी</w>":32756,"एक्‍स":27486,"</w>":10073,"देवदार</w>":47909,"ंगें</w>":19531,"विकता</w>":19079,"बत्ती</w>":21597,"रपट</w>":29423,"फुटबाल</w>":30870,"जज़्बात</w>":33161,"पल्ला</w>":37818,"प्रच":17247,"यशो":28857,"सहम</w>":38623,"आलोचकों</w>":29574,"साउत</w>":40636,"हाथ":22847,"ᄄ</w>":11534,"📿":7267,"निर्मा":21021,"छन्द</w>":31667,"पहनना</w>":30567,"🐟</w>":12581,"असह":31924,"ड्डतिक</w>":40018,"किले</w>":21465,"रीतिकाल</w>":45766,"सिध्":22916,"टेक्":16127,"💎":7170,"दुआ</w>":19342,"मार्शल</w>":26284,"सीएल</w>":31106,"गुफाओं</w>":38529,"🍼</w>":8511,"भूलकर</w>":30654,"शल्य":44092,"छपा</w>":30851,"स्कीइंग</w>":48741,"7</w>":7733,"रेन्द्र</w>":29421,"विपक्ष</w>":18758,"सोमवार</w>":15286,"☆</w>":7934,"अम्":16009,"अफवाह</w>":28359,"कलु":45914,"भगवती</w>":27216,"प्रेयसी</w>":49655,"उगता</w>":35659,"थे...</w>":44505,"चलाएँ</w>":38252,"235</w>":39204,"😉</w>":8133,"बोर्ड":32419,"साक्षात</w>":33475,"विथ</w>":34279,"✂":2855,"篪</w>":11580,"वडो":38125,"दृढ़</w>":22205,"近":4905,"नेता":29403,"संक्रमण</w>":19200,"जाया</w>":17929,"प्रसाधन</w>":38982,"कसरत</w>":29189,"माय</w>":30601,"ड़े":28149,"कलाओं</w>":32344,"दिरा</w>":18149,"प्यासी</w>":30987,"『</w>":8971,"चिल":38845,"अभिलाषा</w>":30189,"डसन</w>":46616,"सियम</w>":48101,"मनीला</w>":45048,"मात्र":41338,"रोजमर्रा</w>":28003,"":6209,"🐓</w>":8695,"ष्ठा":31659,"":6367,"л</w>":7760,"वायु":19565,"जासूसी</w>":21866,"५४</w>":38244,"उष्मा</w>":45722,"महिलाएं</w>":17306,"सम्बद्ध</w>":31929,"દ</w>":8681,"諸":4802,"जाटों</w>":38655,"फलदायी</w>":45548,"राशिफलमेषसिंहधनुवृषभकन्यामकरमिथुनतुलाकुंभकर्क":22615,"पुण्य</w>":21647,"संस्थागत</w>":30428,"फ़ी</w>":16720,"१९८४</w>":46008,"अमल":44485,"</w>":11003,"आइस</w>":32415,"उद्घृत</w>":38108,"गढ</w>":21856,"द्रव्य</w>":27806,"परमह":35714,"शेरा</w>":47559,"डूबती</w>":49208,"बहनें</w>":32061,"ख्री":45763,"कि॰":45545,"डंप</w>":46444,"हवा</w>":15566,"滿":4318,"मर्द</w>":21266,"कौरव</w>":46161,"⎇</w>":10374,"":6329,"ंचे</w>":31046,"प्रश्नदेवनागरी</w>":20975,"श्रद्धा</w>":18792,"▔":2645,"17:":30725,"均":3715,"चिड़ियों</w>":36711,"जैसे":39550,"ज्वालामुखी</w>":27761,"घटाया</w>":44848,"दशर":29167,"दागी</w>":36449,"मुद्र":15978,"रावे":49795,"पूर्व":19612,"भास्कर":35047,"क्‍वीन":24327,"करुँगी</w>":48065,"फ्लो</w>":43113,"भजनों</w>":46109,"अग्रसेन</w>":48603,"योजित</w>":19976,"सुल</w>":41818,"":5770,"खार":18158,"एसी</w>":21069,"नवग्रह</w>":48680,"गिनीज</w>":41343,"इग्नू</w>":49371,"मनोहारी</w>":45650,"मुला":15151,"ອ":1710,"शर्मा</w>":14491,"◑":2684,"आधिकारिक</w>":19722,"छुप</w>":29334,"तुझ</w>":28425,"क्रामक</w>":22128,"नामी":34974,"बॉक्स":34633,"♝</w>":9936,"असम</w>":19109,"1718":39332,"जि़":24000,"सजाया</w>":28451,"सीट</w>":17518,"ऊंचा</w>":25067,"":6423,"एंगे":40401,"नाइट्स</w>":41299,"कायदा</w>":23977,"</w>":10121,"📔":7234,"भले</w>":16215,"अर्थशास्त्री</w>":33212,"आनंद":24494,"獣":4377,"40,000</w>":46157,"तनहाई</w>":49453,"बाबु":38278,"अधिग्रहण</w>":21444,"भै":16933,"2425":42593,"मुजफ्फरनगर</w>":27634,"वाणिज्य</w>":24714,"कैप्":21151,"方</w>":9263,"प्रस्तुती</w>":45536,"रिजि":47045,"ठोस</w>":19998,"ऋषभदेव</w>":40903,"डें":18691,"दयालु</w>":34248,"आरबीआई</w>":25798,"٣":729,"ऑर्डर</w>":24666,"दुलार</w>":37746,"संक्रांति</w>":27879,"सेबी</w>":28934,"대</w>":11364,"उभरा</w>":34082,"विद्युतीकरण</w>":41954,"↫":2397,"</w>":10212,"गु":13047,"जवाबदेही</w>":33113,"गोलग":46573,"兒":3504,"कारि":37928,"पीता":42937,"स्कर</w>":16920,"गोलीबारी</w>":25227,"चल</w>":13635,"मे":12931,"रास</w>":25118,"पीएस</w>":22371,"हिंसा</w>":16303,"पराया</w>":35384,"निफ्टी</w>":22900,"लैंड":26311,"होय</w>":30627,"⁀":2331,"ƞ":212,"⌡</w>":10207,"असर</w>":15239,"पहु":13370,"ग्राहक</w>":16445,"नवोदय</w>":41801,"ධ":1596,"խ":583,"आन्":16775,"वार्नर</w>":39577,"व्यापमं</w>":41498,"कोरोनरी</w>":44644,"दायगी</w>":35559,"चूहों</w>":31642,"करवाये</w>":49196,"जीकरण</w>":29963,"बरगद</w>":31700,"समाजसेवी</w>":32399,"こ":3193,"डायलॉग</w>":37301,"ौ</w>":7784,"ੇ</w>":9236,"हमसफर</w>":35247,"अपशिष्ट</w>":36873,"राष्ट्रमंडल</w>":30376,"वृत्त</w>":20361,"स्फूर्ति</w>":31270,"✧</w>":8482,"膏":4652,"":6179,"तनेजा</w>":37873,"बंदूक</w>":25735,"कहानिया</w>":37503,"अंधी</w>":35235,"दफ़न</w>":44299,"चीं</w>":27533,"निकालने</w>":18523,"अक्‍तूबर</w>":35604,"गणित</w>":18802,"पारम्परिक</w>":28342,"प्रफुल्ल</w>":42270,"लॉक</w>":25495,"देवा</w>":31165,"टों</w>":14231,"विजया</w>":44419,"登":4436,"लेल</w>":40198,"गहराई</w>":20164,"तोप":36927,"羊</w>":10752,"":5601,"बुक":22903,"क्रू":18599,"जर्नलिस्ट</w>":37888,"600</w>":21020,"साम्राज्यवाद</w>":31614,"ारगी</w>":49330,"चपरा":32977,"थायराइड</w>":21254,"හ":1608,"γ</w>":8862,"त्‍यौ":30200,"माफिया":37451,"सेवी</w>":24231,"अमेरीका</w>":44635,"भारीपन</w>":41575,"खेल":19001,"माफ़ी</w>":28524,"फिट</w>":18390,"ణ</w>":9356,"गॉड</w>":33685,"路</w>":12339,"णार्थ</w>":37003,"":6420,"पूंजीवाद</w>":29499,"अशरफ</w>":43192,"💒":7174,"शब्दों</w>":15128,"रोकी</w>":35553,"🚦":7475,"चम</w>":30589,"कार्ति":40725,"肚</w>":10213,"उसे":43573,"नमन</w>":21200,"स्ड</w>":22848,"दिख":15154,"तकिये</w>":42848,"服":4133,"":6241,"🐧":7069,"अरोरा</w>":43493,"कहासुनी</w>":41004,"खाम</w>":43666,"तेना":47840,"भट्टी</w>":35654,"भूख</w>":17625,"रमा</w>":27113,"टॉप":38017,"श्रेणी</w>":14636,"स्टॉक":46688,"अभिया":15200,"श्च":29841,"गुब्बारे</w>":37463,"नालय</w>":41695,"कंठ</w>":26483,"इंग</w>":24406,"शाकाहारी</w>":26303,"स्कार</w>":28231,"盜</w>":11643,"पत्तियाँ</w>":37721,"बट्":28350,"768</w>":41246,"फिरौती</w>":43204,"अनर्":44297,"ज्म</w>":20533,"अल्पसंख्यकों</w>":29006,"16:":29235,"ǜ":230,"आँसुओं</w>":39993,"अतएव</w>":32070,"बारएल्बम</w>":22013,"पीड":31255,"आगंतुक</w>":28396,"̷":386,"भूखों</w>":50142,"भे":13550,"बनारस</w>":21005,"मध्याह्न</w>":43429,"महाशिवरात्रि</w>":34243,"तलाश</w>":16221,"यालय</w>":14524,"लिय":18468,"तराजू</w>":39328,"तरफा</w>":26676,"लेक्स</w>":30659,"ක":1586,"ฏ":1633,"वित्‍तीय</w>":32353,"अफ़्रीकी</w>":39590,"憲":3989,"沪":4259,"कार्ल</w>":32527,"]</w>":10165,"नर्क</w>":32642,"बुलाने</w>":28009,"秦":4491,"टीई</w>":36790,"पकिस्तान</w>":40530,"चौपाल</w>":20237,"किराए</w>":22107,"ख़ूब</w>":33005,"गुलाल</w>":30233,"जिंद":25173,"वेदा":36385,"":5960,"😿</w>":10237,"पॉपुलर</w>":35057,"गोयल</w>":24513,"सुनाई</w>":18331,"⛪":2843,"जूझ":26143,"परिप्रेक्ष्य</w>":27707,"हरू":47310,"29.":35373,"आईसीआई</w>":34148,"🔷</w>":10512,"संगिनी</w>":50065,"सक्":18987,"स्टारर</w>":41031,"":6260,"ब्लॉ</w>":40835,"शिला</w>":25066,"पियो</w>":35193,"परायण</w>":49095,"सद्":19603,"285</w>":40699,"संवेद":16685,"सप्ला":38497,"सुपुर्द</w>":41170,"त्सा":17428,"देंहटाए":45202,"ঠ</w>":9253,"अवरो":41333,"̧</w>":8232,"फैसलों</w>":32382,"सोस</w>":21618,"टता</w>":18157,"आग्नेय</w>":49429,"ज़ु":19704,"वाई":17680,"तरीय</w>":48128,"悩":3978,"१६</w>":21106,"莺":4697,"छलावा</w>":49751,"दस्तावेज़ों</w>":43739,"ế</w>":9231,"ऑडिट</w>":40437,"♋":2772,"आतिथ":36615,"琉":4394,"💣":7191,"पादित</w>":29033,"भारते":31456,",2016</w>":26572,"ಯ</w>":8761,"念</w>":12643,"लौ</w>":28492,"罚":4598,"स्वार्थी</w>":31090,"याया":33072,"प्रहलाद</w>":39736,"पैदा</w>":14963,"参":3613,"जनार्दन</w>":36151,"जापुर</w>":22217,"उन्होने</w>":18752,"िल</w>":39952,"अमावस्या</w>":28337,"दियो</w>":37788,"हिन्":13411,"हेड</w>":23955,"आय</w>":17142,"चुत</w>":30452,"10:3":45453,"आके</w>":36756,"ǜ</w>":8721,"दिमाग़</w>":32118,"चिल्":19967,"लगानी</w>":37898,"चंचल</w>":27108,"ал":35318,"ښ":771,"शानदार</w>":15988,"선":5374,"ᛢ":2054,"サ</w>":12280,"鎮":4981,"</w>":8589,"उज्":19258,"संवादों</w>":42190,"ओमान</w>":38920,"179</w>":35382,"चुनिंदा</w>":28909,"ḷ":2197,"ƴ":218,"दिग्विजय</w>":23276,"आर्या</w>":49249,"हेल्":16970,"β</w>":10534,"अट":21318,"प्रतिफल</w>":38254,"बेस्ट":49027,"औद्योगिक</w>":18634,"</w>":8362,"भेजी</w>":20251,"भज्जी</w>":47217,"गां":13469,"धारणा</w>":17743,"नुक":15721,"चिकित्‍":19676,"रसोई</w>":17548,"पैर</w>":16389,"विधिक</w>":29323,"कर्सर</w>":38823,"􀉪":7656,"˫</w>":11925,"अभिव्यंजनावाद</w>":41489,"पाओ</w>":35261,"पितामह</w>":33193,"को</w>":12869,"चेनी</w>":49807,"डिज़ा":22995,"er":22719,"प्रविष्टियाँ</w>":29052,"1.9.":46486,"अर्ट</w>":48916,"फ़िस</w>":33224,"मेघवाल</w>":39347,"साम्राज्य</w>":19025,"ड्राईवर</w>":34018,"नाबालिग</w>":22223,"पीएस":41160,"द्या":25050,"ेगे</w>":49926,"↸":2409,"∼":2483,"👨":7132,"ล":1652,"कस":31741,"हित":24240,"चंदू</w>":46022,"ಫ":1473,"कहें</w>":18485,"ग्या</w>":46176,"it":29850,"लक्षण</w>":16045,"✍":2864,"पनपने</w>":39400,"自</w>":8795,"":6537,"ज्यादा</w>":13628,"वंडर":48110,"腾":4650,"खराज</w>":39710,"":5679,"मुल्":25872,"10वीं</w>":26834,"त्या</w>":14542,"पहिये</w>":42695,"बजाया</w>":35205,"181</w>":33618,"232</w>":40419,"पाचन</w>":22795,"रेखाएँ</w>":49924,"मैनेजर</w>":21572,"साइक्लोपीडिया</w>":32660,"उछ":26542,"कश्मीर":34013,"प्रतिदिन</w>":17976,"मुन्नी</w>":31785,"नवरा":22066,"विस्मय</w>":45236,"काते</w>":27279,"स्ति":26362,"स्थी</w>":23675,"ᄁ</w>":11929,"凉</w>":12061,"량":5288,"पाउडर</w>":20217,"120</w>":22979,"प्पल</w>":24241,"परदे</w>":25496,"त्साहित</w>":41457,"पिक्‍":47414,"रविन्द्र</w>":37424,"⁄</w>":8945,"ジ":3268,"जन्‍म</w>":29680,"हाने</w>":31416,"ი":1882,"⌦":2538,"卍</w>":11106,"भल</w>":49445,"11/01</w>":45325,"ڤ</w>":9147,"अंतर्निहित</w>":37552,"छब्":49569,"झूठी</w>":24728,"मीनाक्षी</w>":29154,"ઈ":1195,"♀":2761,"धावा</w>":32705,"सिन्दूर</w>":44395,"स्टी":16323,"लियां</w>":17147,"":6689,"🍄":6878,"सावधान</w>":20219,"डा0</w>":30923,"प्रस</w>":30365,"फॉ":15072,"बि</w>":32320,"यमुना</w>":20685,"रिक्वेस्ट</w>":45483,"डेमोक्रेटिक</w>":36848,"नीलेश</w>":46771,"तनख्वाह</w>":35201,"धर्मनिरपेक्षता</w>":30274,"साली</w>":22316,"लुध":23478,"寅":3822,"अध्ययन":42400,"कैसेट</w>":39305,"ပ":1825,"झलक</w>":20505,"ज़ूम</w>":43325,"推":4047,"携</w>":9949,"钢":4990,"😽":7425,"भाग":14270,"ढि":24568,"ध</w>":7748,"हाकी</w>":38559,"औज़ार</w>":21211,"सुंदर</w>":15112,"数":4076,"हन्ना</w>":32479,"बक्सा</w>":43476,"莞</w>":12443,"मंथन</w>":22271,"निपटा</w>":33300,"प्लॉट</w>":36212,"आशिया":31569,"सर्वदलीय</w>":43731,"खट</w>":26743,"विज्ञापित</w>":49188,"鐿</w>":10732,"चारण</w>":43265,"न्तिक</w>":47839,"ओवैसी</w>":29631,"</w>":11807,"13</w>":13995,"🔼":7319,"⬛":3104,"बनाती</w>":19846,"त्रुटि":34007,"ऊर्जा</w>":15807,"आलीशान</w>":38692,"डिस्‍क्‍":26777,"दिखते</w>":23658,"":5986,"岐":3860,"किशोरी":44617,"चढ़ाते</w>":44033,"वृष":20327,"सम्मानित</w>":17317,"चुक</w>":39527,"ꙗ":5182,"दिवस</w>":14723,"":5945,"घूस</w>":30036,"बंदी</w>":15242,"भ्रा":22911,"उपनिषदों</w>":37951,"एलओसी</w>":46107,"र्थक</w>":30450,"दीप्त</w>":44407,"ɢ":266,"रिकॉर्ड":49156,"उपवास</w>":24027,"लाइनर</w>":45129,"वर्षीया</w>":48080,"आदतों</w>":25968,"ज़िंदा</w>":30496,"पानीस</w>":32090,"रोकें</w>":34338,"समझा":16791,"विडम्":34315,"सिलेक्शन</w>":36401,"सीएमएस</w>":44648,"फौजी</w>":28897,"सीनियर</w>":20716,"ঠ":1058,"▭</w>":12399,"टेकर</w>":38267,"आंग्":43259,"एस्पे":47108,"品</w>":11713,"齑":5166,"":5826,"निष्":15460,"🐯":7076,"🐋":7044,"125</w>":25180,"कवित्त</w>":45231,"१९८७</w>":47437,"मुक़ा":28808,"ड्डा</w>":24908,"एको":47649,"एके":27386,"एफ":15854,"🖕</w>":12745,"लवाल</w>":34595,"सेनानियों</w>":39244,"स्ती":28027,"होंडा</w>":32206,"धमाल</w>":18685,"or</w>":47811,"लेखाकार</w>":42794,"۔</w>":8772,"माड":38652,"प्रेरणा</w>":17836,"फायर":32923,"बुढ़ा":25981,"क्कर</w>":15763,"वीकली</w>":47397,"सोनम</w>":22706,"चाहेगी</w>":47852,"देंगे</w>":15581,"जबड़े</w>":45174,"तरे</w>":16713,"धों</w>":16536,"11:4":46251,"ख़िलाफ़</w>":25639,"नुक्कड़</w>":29554,"📹</w>":9710,"घराने</w>":29137,"डु":17319,"भाकि":46482,"स्‍ट्रो":49767,"बीडी":28260,"पुष्टि</w>":18812,"लाहौर</w>":23931,"ʃ</w>":8624,"":6466,"फैस":14720,"為":4342,"रामनाथ</w>":44876,"लाजिमी</w>":45927,"काटना</w>":23612,"बालि":19576,"read":47602,"होमवर्क</w>":40946,"निर्माताओं</w>":26086,"देर":48146,"नगण्य</w>":40453,"लेकर</w>":13468,"󾭛":7595,"कंवर</w>":46520,"नाडु</w>":18656,"ल्यूशन</w>":33189,"वृक्ष":34244,"तन्त्र</w>":20736,"पल्ली</w>":34303,"मलेरिया</w>":23534,"礼":4474,"सौन्":23887,"ک</w>":8111,"एक्ट</w>":22318,"6/":21925,"1860</w>":48377,"तत्व</w>":17159,"ठहरकर</w>":43534,"न्‌</w>":37055,"पीएन</w>":43976,"":6000,"सखा</w>":35897,"भय":22141,"स्लोवा":36612,"ተ</w>":11386,"🌵":6863,"</w>":10601,"🔬":7304,"ા</w>":9524,"༣</w>":11172,"":6669,"नियुक्तियां</w>":48313,"सितारा</w>":21119,"pa":48166,"खिलाडिय़ों</w>":32185,"♃</w>":12481,"फुलवारी</w>":48284,"मजलिस</w>":48782,"🐪":7071,"ब्राह्म":24287,"盟</w>":10924,"लिखनी</w>":48621,"गोंडवी</w>":49845,"ژ</w>":8725,"कनाडा</w>":18941,"सांके":36542,"</w>":8473,"२९</w>":24154,"मैचों</w>":22511,"첫</w>":11182,"नाज़</w>":33938,"बाँधकर</w>":47818,"/0":14008,"👓":7112,"":6079,"😃</w>":8382,"प्रकोष्ठ</w>":32621,"ˈ":329,"एलेक्स</w>":45253,"चता</w>":35980,"पना</w>":20440,"198</w>":38599,"चाँदनी</w>":29384,"🌐":6836,"पाध्याय</w>":37448,"निखर</w>":44799,"प्री</w>":25513,"क्लाइ":35532,"तापलट</w>":48188,"उर्जा</w>":23697,"ताम":24923,"</w>":8024,"कुत्सित</w>":50094,"थित</w>":31012,"जुड़ता</w>":34512,"온":5426,"शेरों</w>":35885,"रेशा</w>":47900,"replydelete":36544,"नाचा</w>":48462,"ॆ":982,"ै</w>":7725,"౬</w>":9871,"गावं</w>":46789,"मज़ा</w>":17583,"राहु":15192,"मेकिंग</w>":43599,"五":3399,"सेज</w>":17560,"15,000</w>":41211,"मार्क्सवाद</w>":34817,"1906</w>":46132,"नीं</w>":22164,"मीठा</w>":21215,"09":15441,"11/09</w>":47890,"か":3185,"घाटन</w>":17816,"झारखंड":31375,"बम्":41830,"呂</w>":12524,"कमाने</w>":22089,"हवलदार</w>":39100,"忒</w>":10492,"":6424,"बहनोई</w>":50195,"दमक</w>":36796,"शर्मसार</w>":31379,"वाइंट</w>":23514,"तों":37310,"घरवाले</w>":42751,"दुर्व्यवहार</w>":36307,"मुंड":44582,"सकारात्मक</w>":18594,"फ़्":15227,"फॉलो":40787,"स्विट":39378,"डिप्रेशन</w>":21776,"शर्त</w>":19225,"पंथियों</w>":29308,"ब्‍":15941,"</w>":10526,"</w>":10662,"निकलेगी</w>":44023,"हिरन</w>":40191,"चलनी</w>":49077,"कार्बो":26315,"৲":1113,"दार्श":22382,"पुतिन</w>":35581,"मुखपृष्ठ":17022,"脳</w>":10005,"इबाद":28294,"गुलशन</w>":30854,"":5639,"जाएंगे</w>":15463,"भला</w>":17206,"माओ</w>":38386,"राजनेताओं</w>":26674,"रूसी</w>":18217,"शीशे</w>":26810,"ियो":14116,"ę</w>":9858,"पक्षीय</w>":28621,"भी</w>":12899,"जूता</w>":26344,"नु</w>":23119,"प्रह्":41805,"ठहरा</w>":28183,"मंत्री</w>":13394,"संतुलित</w>":17984,"ป":1643,"जोश</w>":16393,"ᡳ":2123,"सीसीटीवी</w>":30784,"घूमती</w>":29832,"╭</w>":11788,"線</w>":10365,"":6546,"ईपीएफओ</w>":49503,"तापूर्ण</w>":28815,"काश्":33327,"किसी":33825,"👷":7147,"쇄":5385,"जीयन्</w>":46846,"कुन्":35383,"ज्</w>":38077,"धनी</w>":23542,"आका</w>":48238,"साहित्यिक</w>":19265,"सूचीबद्ध</w>":25878,"राशिफलमेष":22605,"౨</w>":9872,"घोड़ा</w>":26008,"ज़ी":18668,"पुष्पा</w>":32034,"ظ":692,"गेटर</w>":34758,"केबल</w>":23953,"क्षरण</w>":41700,"लिखे":30321,"៉":2096,"————————":25168,"अध्यापक</w>":21299,"अपने":31586,"डैंड्रफ</w>":38147,"काटो</w>":50096,"बुद्धिमान</w>":25116,"♙</w>":12000,"⛲":2846,"ठगी</w>":27811,"तते</w>":33188,"≡</w>":9028,"➥":2989,"能</w>":12336,"ු</w>":9230,"स्फू":28191,"╦":2619,"":6708,"मदहोश</w>":37761,"👰":7140,"ψ</w>":11944,"साकर</w>":39822,"॔</w>":7833,"मांझी</w>":29618,"वादा</w>":19489,"फाइनल</w>":17590,"जबरदस्ती</w>":27327,"टाने</w>":16625,"चरा":30021,"󾮜":7599,"पूछना</w>":24886,"ठगा</w>":42928,"रोज़मर्रा</w>":44269,"टक्कर</w>":18962,"दोहराने</w>":39045,"काटजू</w>":32798,"चौ":13558,"विस्त":16288,"इलेक्ट्रिकल</w>":34111,"सँख्या</w>":39183,"॔":996,"⛎</w>":8817,"🍗</w>":10247,"🍦</w>":12196,"🍠":6906,"⛹":2852,"胶":4636,"गम्य</w>":50242,"लाइलाज</w>":46213,"1956</w>":29124,"𐤉":6750,"विद्रो":18848,"श्रीकांत</w>":33411,"":6033,"ع</w>":8274,"चूमने</w>":32884,"विकल्‍प</w>":21484,"नम्रता</w>":38683,"इस्पात</w>":25093,"रसखान</w>":43456,"चढ</w>":41777,"दूबे</w>":41023,"दशहरा</w>":27859,"डे</w>":13764,"हटायें</w>":36488,"उत्तरकाशी</w>":35769,"":5569,"फरमान</w>":25482,"बीए</w>":22306,"लीज</w>":16572,"ذ":684,"गृह</w>":16765,"डाल":35212,"डोम</w>":38312,"नैमि":49285,"खोकर</w>":36931,"कैथ":36990,"आधी</w>":19363,"劍":3562,"विमर्श</w>":18745,"挛</w>":11935,"त्येष्टि</w>":46920,"몰":5324,"</w>":11508,"󾔑</w>":11637,"52</w>":17044,"1857</w>":23806,"जनतंत्र</w>":32131,"480</w>":35502,"ऍम</w>":30210,"आश्वासन</w>":21141,"करवाकर</w>":35643,"टिशन</w>":43487,"निखिल</w>":31215,"सुशील</w>":20968,"छला</w>":43574,"基":3727,"लावारिस</w>":37997,"플":5540,"अंश":27884,"</w>":9826,"ठोक</w>":36941,"भक्तिकाल</w>":45238,"वेशी</w>":30993,"☀</w>":8847,"咔":3663,"कॉमिक्स</w>":30603,"प्रतिज्ञा</w>":29766,"विवरणिका</w>":31598,"संचालकों</w>":35580,"हाल</w>":13753,"स्की</w>":26208,"≅":2486,"निशान":44777,"जिनेवा</w>":48196,"कोतवाल</w>":31501,"मरुस्थल</w>":39171,"वालय</w>":24280,"❎</w>":10318,"香</w>":10964,"हरीश</w>":24026,"सीं</w>":36739,"स्त्र":17799,"</w>":11478,"गुणगान</w>":29504,"8वीं</w>":45471,"चूल्हे</w>":32445,"आईबी</w>":42592,"प्रशासक</w>":31604,"😻</w>":11581,"592</w>":47399,"¡":100,"जांज":38566,"😡</w>":8164,"🙈":7436,"࣠</w>":9450,"मामि</w>":46642,"मंचन</w>":30100,"217</w>":42550,"":6176,"ताजपोशी</w>":49673,"जनाथ</w>":47450,"बच्चा</w>":16374,"खिं":24509,"市</w>":9615,"मनुष्य":43213,"कंपनी</w>":14433,"भगाएं":49590,"रेशे</w>":41751,"्य</w>":13120,"ियाना</w>":21656,"ଭ":1281,"छपरा</w>":34124,"बाजी</w>":16091,"बिजी</w>":39143,"नैतिकता</w>":23107,"बहाल</w>":25999,"चुम्":26663,"दिस</w>":24064,"तबीयत</w>":30062,"अवै":17374,"बांटते</w>":45153,"अध्यक्षता</w>":18781,"डालेंगे</w>":40418,"भैं":29623,"मरीचिका</w>":42752,"रिलेशनशिप</w>":23134,"सिलेब्स</w>":50222,"読":4798,"🦅</w>":10377,"सकिंग</w>":45627,"दिल</w>":13787,"ȸ</w>":9948,"转":4891,"ڳ</w>":11420,"अभयार":30171,"ध्‍व":43477,"फिक्र</w>":27513,"किस्में</w>":44953,"क्रु":32755,"रहम</w>":24868,"यूक्रेन</w>":33500,"पश्चा":16901,"श्रीकृष्ण</w>":20817,"संश्लेषण</w>":39438,"云":3397,"arti":21882,"打</w>":12474,"頂":5078,"करात</w>":35546,"빛":5361,"👖</w>":9396,"ӡ</w>":11835,"नौटंकी</w>":31990,"मार्थ</w>":38031,"俱":3473,"敎":4070,"उड़ी":22364,"कांग्रेस":41291,"कोटद्वार</w>":44212,"भूखी</w>":40056,"स्कोपी</w>":45317,"स्या":19741,"〓</w>":9156,"🔗":7286,"सीधा</w>":17920,"270</w>":33682,"रित</w>":14978,"ൺ":1579,"इमान</w>":49070,"״</w>":12162,"तरीका":42467,"मया":44491,"रैसिपी</w>":39497,"सम्‍भव</w>":26499,"魏":5122,"रुपयों</w>":29274,"तात्पर्य</w>":25708,"":6642,"विल":44806,"त्वरितवार्ता</w>":20753,"खारी</w>":22851,"शताब्दियों</w>":36196,"火</w>":11761,"कौश":32662,"🌌</w>":11268,"यूरोपियन</w>":35353,"1968</w>":30131,"अविरल</w>":42273,"आपदा</w>":22225,"औपचारिकता</w>":38044,"क्लेम</w>":41621,"प्रेजें":40480,"आंगनवाड़ी</w>":49555,"लगाएं</w>":19051,"ঽ":1080,"༻</w>":10465,"⛔":2840,"चह":22342,"स्नैप":33275,"बंता</w>":31113,"इशारा</w>":21346,"सिकन्":33923,"एकल</w>":17835,"🙂</w>":7987,"मोटिव</w>":45535,"栵":4170,"साने</w>":22179,"अपराधिक</w>":47759,"▅":2635,"लगाती</w>":27236,"":6361,"इसका</w>":13858,"जैसलमेर</w>":25622,"चां":27030,"महिला":13936,"आनुपातिक</w>":48261,"ब्ध</w>":25521,"জ</w>":8370,"अमीरात</w>":33846,"ऽ</w>":7765,"婷":3788,"reply":33782,"":6368,"अपाहिज</w>":47449,"खिन्न</w>":47321,"महुआ</w>":33997,"विलिय":29329,"ियाई</w>":41834,"बनाएँलॉग</w>":18786,"मरते</w>":24653,"चीड़</w>":50244,"टंकी</w>":25499,"र्र":19405,"टा</w>":13272,"लं":13636,"लिखावट</w>":45923,"व्हील</w>":35433,"ぐ":3190,"सिपल</w>":25187,"नने</w>":16911,"मानदंडों</w>":38574,"һ</w>":9098,"काएं</w>":20285,"पंचमी</w>":24424,"अड़े</w>":37923,"काठ</w>":41587,"समांतर</w>":45190,"􀆠</w>":10348,"फेक</w>":39161,"कोल्ड</w>":30108,"ंट</w>":13311,"लामा</w>":27474,"शुक्र</w>":19110,"लानत</w>":39878,"गोल्फ</w>":25527,"नमाज</w>":29086,"स्‍":13231,"ྣ":1800,"ज़ाम</w>":27906,"नीस</w>":33363,"रिक्टर</w>":44293,"सेलुलर</w>":48583,"✦</w>":10460,"बसेरा</w>":36954,"🚰</w>":9331,"मैनुअल</w>":30315,"लिसिस</w>":36132,"चैनलों</w>":21199,"व्र</w>":21910,"⍇":2542,"":6632,"ऎ":926,"́":346,"कुबेर</w>":32241,"आल</w>":27595,"⌃":2529,"फौज</w>":24827,"𐭓":6755,"ڃ</w>":12056,"वनवासी</w>":43684,"बाण</w>":24023,"शौक</w>":20782,"ର":1284,"":5989,"झाला":35702,"1966</w>":30722,"उद्यो":15658,"कल्टी</w>":46927,"गज़ल</w>":21936,"चतुर्दशी</w>":37564,"ताज़ा":22115,"नजीर</w>":38713,"फोरप्ले</w>":34379,"क</w>":7704,"देवी</w>":14913,"बो":13154,"वियाग्रा</w>":44758,"आरोप":18404,"नदियां</w>":31132,"पाठशाला</w>":25688,"बज</w>":23847,"साइबेरिया</w>":44036,"":6464,"":6192,"􀂃":7610,"􀃍":7619,"स्पं":37156,"भाभा</w>":47613,"भाषाएँ":47235,"लड़ती</w>":50005,"चिड़ियाघर</w>":34090,"शिता</w>":24426,"वरकर</w>":31425,"पच":25787,"चाल":23291,"छापे</w>":28635,"रवैया</w>":26982,"3:00</w>":36360,"बीएचयू</w>":40811,"राष्‍ट्रपति</w>":29986,"हुक्":24337,"खरीदने</w>":18275,"227</w>":43311,"ã":123,"ރ</w>":11413,"录":3934,"ò</w>":8549,"चोदो</w>":40838,"कीम</w>":49116,"संज्ञान</w>":29249,"सतपाल</w>":39776,"लेश</w>":15959,"グ</w>":11746,"एशन</w>":24660,"पेटीएम</w>":38609,"कृप्या</w>":44744,"डु</w>":39531,"शनल</w>":15266,"निम्नतम</w>":47902,"वीय</w>":22357,"कोबरा</w>":44613,"पहुंची</w>":17361,"बदरी</w>":47516,"रहस्":30443,"बाँधी</w>":47931,"ʾ":322,"मदनी</w>":24360,"असफलता</w>":26675,"4.5</w>":39479,"506</w>":44120,"boo":37048,"र्मियों</w>":28437,"एक्‍":20002,"उलटी</w>":36023,"तीसरी</w>":18421,"फ़ान</w>":25804,"ऊंचाइयों</w>":47652,"हीमो":33405,"ୱ":1313,"मुख्या":17709,"टांगें</w>":47984,"स्वास्‍थ्‍य</w>":30934,"लाज</w>":22946,"൯":1572,"話":4788,"🏆":6993,"ء":669,"—</w>":7799,"ख़ाली</w>":41344,"पीडि़ता</w>":49800,"बैट</w>":42430,"क्रीज</w>":48953,"बेहद</w>":15400,"सहकर्मी</w>":34800,"गैंगस्टर</w>":42258,"कंप्यूटर</w>":15819,"भगवद्गीता</w>":45287,"आइसक्रीम</w>":29714,"लैंग्वेज</w>":38034,"दबो":26026,"</w>":8794,"अरावली</w>":43061,"पत्रिकाओं</w>":21352,"हि</w>":18709,"💨</w>":9530,"वृद्धा":32054,"दाल</w>":17502,"नबर्ग</w>":34293,"रोहतक</w>":24297,"नहिं</w>":33406,"ीया</w>":41190,"滴":4317,"मुग़":28422,"520</w>":46575,"खुदरा</w>":25125,"अँधेरा</w>":28277,"अन्तर</w>":22184,"अकेलेपन</w>":34915,"3":20,"राव":15660,"":6484,"खुदा</w>":19348,"帝":3888,"बंदि":45946,"ंदों</w>":23486,"ष्":12958,"लुहान</w>":34908,"⇌</w>":10943,"262</w>":41433,"अनुसूचियाँ</w>":45997,"सें":14672,"केबिनेट</w>":49135,"५३</w>":37476,"०३</w>":35333,"दरि":23265,"":5863,"डीजे</w>":32066,"㩒</w>":10965,"फर्रा":47263,"ड्स":21959,"देशांतर</w>":37697,"बम</w>":15903,"༡":1740,"ⴰ</w>":9150,"भि":13246,"बन्धु":37382,"तेजपाल</w>":43151,"❄":2912,"गत":34807,"कुरैशी</w>":32531,"भुत</w>":16831,"हुकुम</w>":46304,"है......</w>":46333,"ग्रता</w>":25324,"猫":4374,"":85,"नन्हा</w>":31917,"पाण्":17897,"💷":7211,"लिटरे":42944,"੨":1180,"मोन</w>":21911,"रंगी</w>":26042,"랑":5284,"अव्":26703,"दायों</w>":23551,"̧":371,"आवश्यकताएं</w>":45820,"ताज़ाखबरेंसुपरहिटखबरेंकॉमेंटेडखबरेंईमेल्डखबरेंसुपरहिटब्लॉग्स":25973,"त्रेय</w>":36731,"07":15477,"धुले</w>":47560,"प्रसून</w>":32989,"बुद्धू</w>":42239,"लॉन्च</w>":19260,"विद्वान</w>":20689,"ष्टी</w>":45149,"अले":45107,"क्रियाकलापों</w>":45226,"अंगूठा</w>":38913,"महकमे</w>":38533,"ुति</w>":22362,"싱":5397,"</w>":11430,"</w>":9164,"💏</w>":8969,"気":4243,"पोलिश</w>":32922,"􁳯":7684,"युधिष्ठिर</w>":32885,"ү</w>":8030,"":5608,"ि":975,"जागरुक</w>":43065,"汉</w>":8998,"परन्‍तु</w>":44609,"":5948,"कोल्":29317,"सुप्रसिद्ध</w>":31637,"विस्थापन</w>":34666,"🍵":6924,"ज़्या":16564,"बार":14117,"з</w>":7857,"मतों</w>":26482,"वेंद्र</w>":34716,"ष्ण</w>":27379,"सुरजीत</w>":40700,"12/18</w>":42309,"पत्रि":15075,"02/19</w>":44048,"मुरीद</w>":37277,"ṵ":2212,"लालच</w>":22850,"ễ</w>":10240,"टास्क</w>":36058,"तूफ़ान</w>":28651,"सेल</w>":17941,"मोनिका</w>":25737,"मोबाइल":44295,"伽</w>":11027,"💖":7178,"मानिये</w>":48988,"दोनिक</w>":27130,"द्द":42342,"समीक्षक</w>":33459,"बन्धुओं</w>":46148,"दादरा</w>":46879,"ህ":1926,"बदलनी</w>":46977,"⇎</w>":12821,"🚝</w>":9586,"ଧ":1276,"गार</w>":14661,"庆":3905,"रहित</w>":18601,"सोख</w>":45738,"👠</w>":10303,"क़रार</w>":33501,"गोआ</w>":46555,"सभा":18565,"रोमांटिक</w>":24548,"ॿ":1031,"परखने</w>":40487,"लौटता</w>":42292,"एनजी</w>":45176,"खतम</w>":33024,"गंभीरता</w>":20764,"सेठी</w>":36302,"11/30</w>":46568,"ᄊ</w>":11406,"赫":4869,"स्वीकार":30308,"蛏":4737,"ताकत":23472,"रामराज्य</w>":48258,"तमा":15223,"0.01</w>":49565,"नियमावली</w>":32682,"स्पा</w>":25334,"हिमायत</w>":49176,"पुरम</w>":25265,"घरेलु</w>":25650,"簿":4532,"證</w>":10801,"":6542,"18,":30653,"इस्राइल</w>":42081,"खाँसी</w>":42234,"हेल्थ</w>":21121,"सलवार</w>":33614,"७७</w>":41358,"二":3395,"रूठी</w>":47454,"सभाएं</w>":48241,"आइकन</w>":38851,"लहू</w>":26875,"सुनसान</w>":32913,"एचटीएमएल</w>":38638,"सस्पे":27078,"道</w>":9412,"ंदू</w>":31955,"एक्ट्रेसेस</w>":46740,"पिक":33172,"बारगी</w>":41611,"महिम</w>":36801,"तत्":15485,"करीना</w>":20956,"╲</w>":8796,"एंटीबायोटिक</w>":35587,"बड़":18397,"मन्त्रि":43019,"मसालेदार</w>":36111,"हमें</w>":13861,"हिले</w>":49287,"महादेव</w>":22427,"खुब</w>":43674,"मेली</w>":34721,"ईसा</w>":17139,"❭</w>":12589,"れ":3238,"":5906,"":6182,"एलर्ट्स</w>":44597,"एजेंसियोंट्रांस</w>":45441,"वाये</w>":42147,"꫰</w>":8582,"सालाना</w>":25140,"सितारेटैरो</w>":22594,"版</w>":10135,"ट्रा</w>":25839,"ε":422,"बचाने</w>":16735,"लिन</w>":16733,"ंस</w>":13498,"सल</w>":15677,"सितारों</w>":17245,"फैट</w>":26442,"लिवर":49092,"ҥ</w>":10012,"函":3536,"味":3657,"祝":4477,"莞":4693,"๐</w>":10481,"स्ट्रक्चर</w>":31505,"":6301,"</w>":9189,"📢":7248,"च्छेद</w>":18376,"कबू":21648,"ड़की</w>":34113,"कागजी</w>":39698,"राइडर्स</w>":36282,"ज्वेलरी</w>":45388,"👴</w>":8272,"चंद्रगुप्त</w>":39136,"🐶":7083,"⁂":2332,"चुंबक</w>":49155,"ධ</w>":10288,"ܝ</w>":10941,"उपन्यास</w>":17009,"रेश</w>":43576,"एजेंस":23183,"ൻ":1580,"🤡":7517,"1080</w>":46324,"क्रमा</w>":22064,"अधिवेशन</w>":25258,"अर्क</w>":47410,"सेदोक</w>":50030,"पड़ा</w>":14449,"୪</w>":12845,"ज्वाइंट</w>":46815,"":6435,"....</w>":30835,"162</w>":31629,"सुवर्ण</w>":45992,"पट":14372,"खूब</w>":15516,"क्षि":14187,"छाबड़ा</w>":49257,"अंतत</w>":29602,"शिष्य</w>":21585,"व्यक्ति":14709,"गणिनी":41443,"♇":2768,"जस</w>":28416,"٬</w>":11125,"सुगम</w>":31727,"हफ्ते</w>":18348,"चुराने</w>":37297,"बांध":22313,"प्रॉजेक्ट</w>":48770,"नितांत</w>":34162,"फतवा</w>":36117,"➰":2999,"ב":628,"":6120,"炮":4340,"":6263,"अमन</w>":24143,"":6089,"गवार</w>":46309,"दृष्":14189,"चढ़ाकर</w>":40134,"विमान":26242,"뉴</w>":11946,"होनहार</w>":33888,"ऊं":16235,"जमने</w>":42719,"苻":4682,"अँग्रेजी</w>":42973,"":6235,"प्रत्‍":19746,"विधाओं</w>":27722,"ಋ":1453,"ठहराव</w>":33752,"始":3772,"</w>":8141,"बू":13556,"क्लियर</w>":33657,"मजाक</w>":19946,"नाक्षी</w>":21419,"बनार":20109,"掃":4042,"घंटा</w>":18506,"एकाग्र</w>":40976,"13:00</w>":41701,"́</w>":7935,"ट्राई</w>":26910,"खूबियां</w>":44165,"लोचना</w>":34987,"ஒ":1325,"महारानी</w>":26403,"ਲ":1160,"ँट</w>":31786,"कनों</w>":37538,"शावर</w>":45443,"वेशन</w>":20673,"स्पॉ":22094,"नीली</w>":27225,"ब्‍लॉग</w>":24771,"सूजन</w>":22104,"उपचार</w>":15373,"नस</w>":18683,"फेलोशिप</w>":48774,"लैट</w>":48169,"जै</w>":32729,"अकस्मात</w>":47105,"साइटमैप</w>":31385,"आधा</w>":17635,"निशंक</w>":42544,"‿":2330,"ট":1057,"वृहद्</w>":40525,"शै":14343,"स्ट्रेट</w>":23986,"၈</w>":11215,"वानी</w>":16390,"</w>":10437,"लड़ता</w>":39794,"</w>":9958,"बचाएं</w>":27848,"शुभकामनाएं</w>":18798,"कायदे</w>":32765,"वेंचर</w>":36771,"जबलपुर</w>":21781,"टीमें</w>":27669,"रूट</w>":23565,"चंगेज</w>":41759,"मसाज</w>":25891,"↻":2412,"नितीश</w>":36419,"काल्पनिक</w>":24717,"َ</w>":7879,"डिये</w>":42029,"नायाब</w>":32859,"":6119,"आउटसोर्सिंग</w>":44111,"कोमा</w>":38271,"टेंट्स</w>":49168,"मद":13937,"ढ़":13020,"आध्यात्मिकता</w>":35761,"फूटा</w>":37679,"कथा</w>":14849,"ब्रिगे":27886,"ंच":21721,"सज्जित</w>":25045,"z</w>":7920,"तलाश":24595,"सना":20580,"सिफारिशों</w>":32668,"जानते</w>":14906,"कार्बाइड</w>":48896,"सिस्टर</w>":43438,"ҭ</w>":10370,"पीड़":15815,"हत्याओं</w>":40402,"फेंग</w>":44375,"बोलना</w>":22345,"राँची</w>":44248,"शिक्षाप्रद</w>":39610,"संग्रहों</w>":43164,"सुरभि</w>":43006,"ुओं</w>":34197,"■</w>":8332,"乙":3382,"आर्थिक</w>":14703,"籤":4533,"":5705,"ޖ</w>":9496,"विश्लेषक</w>":33781,"":5967,"परिपत्र</w>":32655,"":6261,"उजड़</w>":48887,"गैर":23247,"\"</w>":11063,"355</w>":47488,"दायित्वों</w>":35219,"वाब</w>":25411,"नाय":18110,"न्‍यास</w>":42854,"शल":30252,"</w>":9903,"":6476,"न्यौता</w>":24991,"是</w>":8586,"फटाफट</w>":32420,"10/11</w>":44518,"चुराकर</w>":47069,"फड़फ":44905,"संज्ञा</w>":20671,"सिंहावलोकन</w>":42267,"मार्गदर्":35124,"59.":43405,"प्रदायि":25749,"खेलबिज़नेसफिल्मी</w>":46153,"गवर्":18935,"जमीन</w>":15380,"सूजी</w>":34495,"05/15</w>":41237,"सना</w>":16582,"05/09</w>":49770,"अपितु</w>":23032,"琛</w>":11465,"":81,"अद</w>":49828,"</w>":10653,"👈</w>":8427,"😖</w>":9921,"१०</w>":17509,"पुश्":34589,"चिपका</w>":32122,"शिपिंग</w>":32476,"साहिबा</w>":47367,"न्वयन</w>":23059,"फेडरेशन</w>":29386,"रां":18689,"⺄</w>":11289,"᏾":2029,"ख़ा":15811,"গ":1049,"〚":3172,"नस्लों</w>":39226,"徳</w>":12566,"2012</w>":14006,"आत्मघाती</w>":29370,"犬</w>":10678,"ग्राम</w>":14329,"社":4475,"गुण</w>":16408,"ли":44112,"मोमबत्":47472,"लूकोज</w>":29514,"辞":4896,"तंगी</w>":35448,"ंचा</w>":33924,"सप्":17630,"":6333,"क्यू":15138,"अंडरगारमेंट</w>":27133,"खजूर</w>":32692,"भिव्यक्ति</w>":46659,"ताल्लुक</w>":36364,"विंटर</w>":45050,"बिल्डिंग</w>":22899,"मंच</w>":15276,"स्टों</w>":30833,"दर्शाया</w>":29222,"त्वपूर्ण</w>":14194,"फट</w>":22580,"लप":41357,"व्यूस</w>":15119,"शाट्स</w>":32198,"बालाघाट</w>":41006,"◥":2695,"ん</w>":9538,"酸":4956,"संरचनात्मक</w>":40185,"थाप</w>":47630,"रहीं</w>":17165,"डाउनलोड्स</w>":42280,",2011</w>":22263,"चें</w>":31567,"धड":35772,"पाल</w>":13732,"बढ़ाएगा</w>":44752,"बुद्ध":25892,"डालती</w>":30797,"बूते</w>":31919,"केन्द्र</w>":15969,"मखमली</w>":44396,"विशेष</w>":13893,"संबंधित</w>":14334,"ारि":37340,"एग्रीकल्चरल</w>":48437,"⃝":2369,"अभिनन्दन</w>":30692,"लिख</w>":16006,"पुं०</w>":45705,"बचा":14357,"剃":3556,"前":3557,"रिलेशन":22689,"स्वदेश</w>":30046,"🏏":6999,"💩</w>":10899,"क्षार":42736,"हसन</w>":23364,"💯":7203,"लीराम</w>":44989,"क्षमताओं</w>":29054,"ತ</w>":9406,"प्रयोगात्मक</w>":44472,"दीवाली</w>":21568,"प्रतिबंध</w>":19732,"सैनिक</w>":18098,"10/16</w>":47025,"टल":39430,"":5591,"प्रचार":22040,"रेणुका</w>":44101,"शं":14156,"बच":14230,"贛</w>":11010,"फ्यू</w>":34016,"सार्वज":15488,"“":2307,"🎷</w>":11308,"洋</w>":12501,"रामचंद्र</w>":30750,"इज्ज़त</w>":36952,"लोको</w>":47794,"228</w>":40771,"आपस</w>":18605,"कुं":15708,"चट</w>":42667,"वाचस्":32139,"а</w>":7772,"कमिश्नर</w>":24959,"नौकरशाह</w>":42621,"फ़िक्र</w>":34838,"संचाल":30014,"4.2/5.0</w>":40414,"संस्थाएँ</w>":46135,"जर":17037,"पास":17178,"कमरें</w>":24265,"ར</w>":10042,"कारों</w>":14240,"वाद":16634,"गतिविधियों</w>":18596,"हेलीकाप्टर</w>":36827,"ह्र</w>":45736,"मधुमेह</w>":18287,"ს":1888,"25.":33321,"⟹</w>":10765,"奸</w>":10880,"":6195,"दुश्मनों</w>":28939,"बेसिक</w>":23232,"सुविधाएँ":49730,"🔘</w>":9076,"करणों</w>":18367,"01":15862,"ა</w>":11794,"20</w>":13684,"妹</w>":8326,"चाह</w>":19262,"सौंपी</w>":25656,"हनोई</w>":44201,"दिखाते</w>":22419,"परंपरा":20781,"साधु</w>":21683,"नल":29870,"್":1498,"इमे":30402,"</w>":10781,"च्युत</w>":47892,"बरो</w>":41855,"चर्ड</w>":27643,"फत":24397,"तक़दीर</w>":45797,"सिक":23805,"षु":40385,"दैर्":42264,"09:3":49551,"पाप</w>":18073,"बाह</w>":35464,"ष्ण":20598,"탄":5511,"द्":12938,"भागो</w>":34657,"चालाकी</w>":37095,"कृष्‍":30679,"ऑस्ट्रेलियाई</w>":24685,"लायित</w>":45093,"॓</w>":7995,"मात्रा":31672,"ຈ":1695,"भाग्य</w>":16748,"ᖹ":2050,"❺":2953,"अमूल्य</w>":28849,"味</w>":11117,"स्वरों</w>":33669,"梨":4187,"कंधों</w>":30439,"नौकरियां</w>":21713,"􀃉":7617,"क्रोधित</w>":35527,"ズ</w>":9388,"आबादी</w>":17670,"लॉय":45739,"बलदेव</w>":37116,"":6305,"उद्योग</w>":16388,"अंतिम</w>":14673,"कनेक्ट</w>":26328,"क्रूज</w>":30516,"गिस</w>":33036,"सिक्यू":48793,"कामसूत्र</w>":35901,"शौकिया</w>":19803,"जिनके</w>":16520,"洲</w>":10474,"यादातर</w>":42463,"滌":4314,"फोटोग्राफ</w>":44767,"डीन</w>":27872,"मीर</w>":14581,"झटके</w>":21634,"व्योम</w>":38935,"निधन":46748,"सुनाया</w>":25058,"कितनों</w>":40400,"नॉट</w>":31774,"肛</w>":9239,"शेविंग</w>":38068,"एमएस</w>":19923,"रंगारंग</w>":36429,"रौली</w>":33027,"ྭ":1806,"ठान</w>":19685,"近</w>":10294,"󾮞":7600,"बढ":16560,"रनौत</w>":47211,"जातिगत</w>":35820,"":6603,"ऑस्ट्रिया</w>":33195,"/02</w>":22564,"गढ़ा</w>":38649,"बाल्टी</w>":34947,"रंगो</w>":43538,"फ़िल्मफ़ेयर</w>":43904,"उंगलियां</w>":37085,"ছ":1053,"सुगंधित</w>":38660,"ǁ":222,"रास्":14802,"◬":2697,"</w>":9815,"॑</w>":8125,"🐲":7079,"शैलेश</w>":35994,"샵":5371,"परिंदों</w>":48927,"ve</w>":48353,"अग्रवर्ती</w>":42701,"रुद्रपुर</w>":43881,"अज़रबै":46144,"चढा</w>":44817,"ွ</w>":10188,"➟</w>":10107,"यर</w>":13425,"२००६</w>":29183,"ट्यूबरकुलोसिस</w>":32427,"कांस्टेबल</w>":28221,"पेट</w>":15058,"सिंघ":24752,"धित</w>":14789,"आर्यन</w>":44152,"ध्यक्ष</w>":16674,"लिहा":18795,"ં</w>":8459,"यथो":40362,"सुदामा</w>":35613,"७१</w>":39845,"ٺ</w>":11984,"आखें</w>":43433,"बौछ":38204,"समुद्री</w>":21123,"​​है</w>":49570,"कुरता</w>":49081,"霖</w>":9892,"鞅</w>":10211,"एहसान</w>":33437,"ὼ</w>":11936,"":6029,"अवध</w>":28614,"सल्लू</w>":42479,"승":5392,"गलती</w>":17634,"ষ":1076,"कन्है":42758,"पारे</w>":40217,"बहुसंख्य":31017,"席":3889,"क्षत्र":40948,"गूंजती</w>":49009,"फ़्रां":35022,"ह्":13808,"ब्रिटेन</w>":17453,"एफए</w>":44793,"बीसीसी":22563,"उम्मीदवारी</w>":40541,"第":4513,"पमेंट</w>":24793,"दासी</w>":33851,"अनेको</w>":47428,"लुटा</w>":38954,"प्रयो":19644,"ग्रास</w>":37379,"प्रेसिडेंट</w>":38949,"यहो":23865,"色":4671,"आयुक्त</w>":20702,"गुलज़ार</w>":28261,"मच्छर</w>":28731,"हटा</w>":16987,"संस्थानों</w>":21116,"ओएनजीसी</w>":42945,"कुम":31712,"निया":15926,"ئ</w>":8416,"केटेड</w>":48862,"ज़मी</w>":42706,"मोजे</w>":46909,"ɱ":279,"सम्बंधी</w>":42943,"गुदगु":24702,"ি</w>":7855,"वेरिफिकेशन</w>":27316,"活</w>":11026,"कामना</w>":18479,"प्‍यार</w>":23209,"अफ़ग़ानिस्तान</w>":34242,"तुम्":13681,"लाओं</w>":22445,"छेड़":19477,"कमी":17398,"बूंदे</w>":43482,"्राष्":16188,"ི":1785,"परियों</w>":37046,"हिमालयी</w>":49189,"इंडियंस</w>":34372,"⋙</w>":9194,"縇":4574,"एलोरा</w>":46548,"这</w>":8504,"सर्वदा</w>":38617,"ঝ":1055,"काना</w>":19728,"तारीखों</w>":32310,"</w>":11754,"🛂</w>":10834,"03,":46231,"</w>":9698,"":6076,"📅</w>":9287,"󾌲</w>":11416,"5000</w>":27360,"↔</w>":8391,"मुहावरा</w>":39426,"संपर्":31626,"कहूँगा</w>":32574,"डीआरएम</w>":44076,"</w>":11572,"जिन्हे</w>":30411,"विनाश":33696,"वामपंथी</w>":26155,"ह�</w>":42829,"ံ</w>":9685,"╧":2620,"८३</w>":41896,"न्यूजीलैंड</w>":23244,"एन</w>":15607,"धाम</w>":18528,"आंटी</w>":20050,"नीतियों</w>":18630,"⠎":3037,"अवाम</w>":38046,"रेकार्ड</w>":44787,"छूती</w>":38137,"डाइट</w>":23605,"बैतूल</w>":35692,"छिद्र</w>":34835,"ボ":3301,"ⵍ</w>":12438,"伦</w>":10265,"डेव":39724,"आपने</w>":14477,"拿":4032,"":6317,"187</w>":38629,"पेशवा</w>":41613,"亭":3407,"माग":44982,"51</w>":17190,"सठ</w>":35924,"􀇑":7642,"。":3150,"घटनाएँ":23863,"गदा</w>":44528,"ियां</w>":13466,"赤":4868,"352</w>":48785,"پ":749,"周":3656,"रॉबर्":45266,"आए</w>":14436,"📥":7250,"ंती</w>":18435,"गांव":30166,"डीसी</w>":22187,"11/":17563,"पिन</w>":22752,"मोस</w>":44602,"仝":3419,"मालिकों</w>":25844,"👑</w>":9503,"दुराचार</w>":35592,"मुज़फ्फर":47432,"फरमाइश</w>":47601,"६":1012,"प्रशस्ति</w>":37932,"ঔ":1046,"पुनश्च</w>":49904,"是":4105,"109":35145,"गोता":39218,"डाली</w>":19100,"पिंग":39472,"पूर्वाभास</w>":45832,"げ":3192,"🐶</w>":11504,"प्रतिबिं":27430,"्स</w>":21475,"⇩":2442,"मानों</w>":15425,"हरियाणवी</w>":29209,"विंटेज</w>":31799,"नमामि</w>":47225,"गुल्":42456,"जीवन</w>":13381,"रामराम</w>":32333,"दवाईयों</w>":48486,"रुप</w>":16578,"×टैग</w>":42249,"होड़</w>":25155,"नीमच</w>":38245,"보":5350,"33":22724,"पौधे</w>":20102,"मार्केटिंग</w>":23891,"सिलसि":18294,"</w>":9803,"1987</w>":27321,"ज्या</w>":37653,"भस्म</w>":29950,"़्":36462,"":6381,"🍝":6903,"स्टोरीज</w>":45036,"पारा</w>":22670,"उड़िया</w>":47925,"जातिवादी</w>":44539,"宇</w>":8903,"价</w>":10496,"कटोरे</w>":42066,"3/5</w>":40171,"बांधने</w>":33880,"ऑफ़िस</w>":37203,"सामंत</w>":43215,"567</w>":46452,"⇶</w>":8415,"</w>":12118,"उधार":48001,"👊":7103,"늘":5254,"आंग</w>":41937,"ݨ</w>":11477,"बर्तनों</w>":38080,"कुच्छ</w>":47954,"खु":13197,"पुजारी</w>":24419,"248</w>":41231,"बीजिंग</w>":28872,"जनन</w>":23019,"लेआउट</w>":34185,"ệ</w>":9999,"सेलिब्रे":34802,"":6258,"मार्ट</w>":34524,"कदाचित</w>":44218,"":6409,"ऑक्सफोर्ड</w>":34895,"220</w>":22429,"ग्रन्थों</w>":29197,"दुबारा</w>":23137,"यी</w>":13303,"निपटाने</w>":38766,"दिव्या</w>":27535,"堅":3729,"20.":32651,"होंने</w>":13306,"ढीली</w>":33801,"लूप</w>":43945,"उकसाने</w>":45085,"रोध":20465,"अक्षर</w>":19224,"उपनिवेश</w>":36244,"सीएनबीसी</w>":41828,"波":4267,"</w>":9118,"ंद्रा</w>":23921,"つ</w>":8522,"फ्रैंकफर्ट</w>":47809,"":6012,"केंड</w>":30562,"मनोरंजक</w>":31772,"शुरु</w>":17140,"243</w>":41196,"इंगलैंड</w>":32996,"कालों</w>":43282,"महानगरीय</w>":44610,"ंडक</w>":30301,"कच्ची</w>":25868,"रिव्यू</w>":18815,"कोडर":46757,"छवि</w>":17614,"दोजहद</w>":35809,"लन्ड</w>":37745,"":6594,"470</w>":49179,"फूं":49316,"୮</w>":10883,"06/26</w>":43838,"2013":20145,"याब</w>":30901,"विसंग":33937,"夢</w>":11094,"होममूवी</w>":47265,"अधिकाँ":41436,"करम":42118,"஡</w>":12416,"ज़ि":14299,"नफ":21893,"स्थता</w>":29118,"恩":3972,"118":28403,"टोकन</w>":33243,"खोटी</w>":47240,"लूथर</w>":48739,"377</w>":45386,"कान्":21760,"जुड़वा</w>":31764,"एम्स्टर्":44024,"जडेजा</w>":30276,"झूमते</w>":49905,"सन्दूक</w>":43775,"रमन</w>":21285,"1.8</w>":45719,"119</w>":31387,"एडि":21192,"टे</w>":13260,"धिक्":35601,"चित्रित</w>":26452,"ี</w>":9059,"ंडी</w>":16399,"😸</w>":8649,"ल्ले</w>":22929,"निका":14257,"प्रभु</w>":17097,"⁩</w>":9497,"단</w>":11070,"सौदा</w>":21224,"पीएचपी</w>":49290,"興":4663,"चुकाना</w>":39789,"ȕ</w>":10764,"समिट</w>":39851,"య</w>":9053,"實":3828,"बहुराष्ट्रीय</w>":32057,"बजाए</w>":22640,"लगातार</w>":15038,"अष्टा":34322,"स्कूलों</w>":17322,"265</w>":41104,"पयोगी</w>":43957,"देवी":28854,"दूर</w>":13604,"तरफ़</w>":19228,"छींक</w>":40199,"प्रवास</w>":17619,"सर्विस</w>":18586,"जमात</w>":29102,"मॉडल</w>":16533,"</w>":10171,"फैलने</w>":28246,"दानगी</w>":43506,"लेक्सी</w>":27614,"缚":4594,"दत्तात्रेय</w>":43894,"泊":4265,"मुशायरे</w>":41880,"8,":23652,"मैड्रिड</w>":34556,"तीर्थयात्रा</w>":47319,"घनश्याम</w>":35487,"लंबे</w>":16365,"ृति</w>":28412,"कुसु":43367,"ख़ार":42205,"आदर्":16551,"पैरा</w>":35860,"</w>":10327,"मनी</w>":18384,"सईद</w>":24721,"पवन":45390,"महा":13386,"ऑनलाइन</w>":14699,"केबिन</w>":36116,"शुक्रवार</w>":15435,"इटावा</w>":27294,"359</w>":43966,"पढा":29824,"क्ड</w>":32721,"ऑपरेटिव</w>":49062,"महानगर</w>":25769,"पूज्य</w>":23544,"ब्रू</w>":28529,"मुख्यपृष्ठ</w>":19581,"बुद्धि":18109,"भूखंड</w>":38357,"वैराग्य</w>":33730,"चुरा</w>":26957,"खुलासा</w>":18347,"दाद</w>":19285,"सतीश</w>":20190,"सिटी</w>":15368,"हारा</w>":22091,"ᱯ":2171,"पाॅइन्":25111,"कठिनाई</w>":24824,"‣</w>":11904,"इतवार</w>":42462,"एनबी</w>":40792,"रन":31435,"विवर":24628,"­":110,"ज़रिये</w>":29366,"छोड़ी</w>":26180,"बाहर":41928,"जापन</w>":47712,"52":37905,"कार्यकर्ताओं</w>":18467,"रवीना</w>":39677,"वेनिया</w>":46424,"सवर्ण</w>":34886,"सोची</w>":30332,"दिल्ली":25270,"भूरी</w>":39913,"श्रीमति</w>":45898,"अय्यर</w>":38967,"कारखानों</w>":34592,"चमका</w>":38342,"ۧ":822,"कात्यायनी</w>":48961,"ஞ</w>":10851,"礼</w>":12049,"료":5301,"못":5326,"૨":1244,"जलभराव</w>":46758,"फिरोज":31808,"आबन":29041,"बैठे</w>":15438,"↕":2382,"पहर</w>":16496,"भीनी</w>":35276,"ḯ</w>":11059,"भू</w>":20543,"美</w>":9265,"बेबी":46224,"08/02</w>":45172,"ऊपरी</w>":21313,"08/":18920,"介</w>":8451,"डंक</w>":43661,"बुना</w>":36357,"क़ा</w>":23826,"96":24999,"नक्सल</w>":28679,"भर":14207,"वापस</w>":14719,"मुफ्":15520,"फ़ैज़</w>":38698,"v</w>":7873,"सालो</w>":34398,"बनायीं</w>":43125,"इन्कार</w>":32079,"ऎसे</w>":31685,"लि</w>":21095,"निष्क्रिय</w>":27756,"पांडे</w>":21010,"गणेश</w>":18180,"चौरा":20258,"पिछड़ों</w>":40351,"मताधिकार</w>":37255,"मारवाड़ी</w>":37321,"ग्न</w>":21592,"बैक्टीरिया</w>":28708,"छीनी</w>":44593,"नजारे</w>":39725,"तलह":42956,"पुष्टि":45028,"¬</w>":8439,"एटा</w>":32456,"∝":2469,"कदम</w>":15207,"दूरी</w>":15413,"पुरिया</w>":30492,"राजयोग</w>":40313,"रीति</w>":22216,"⇝</w>":10361,"कालेजों</w>":33739,"आलू</w>":18107,"❖":2929,"❽":2956,"एमसी</w>":26350,"1994</w>":25519,"":6713,"बेशर्":35156,"ḏ":2189,"":6431,"नौकरियों</w>":16008,"र्जा</w>":15536,"वरिष्ठ":39874,"मालवा</w>":30924,"ईडी</w>":26793,"नदि":23097,"ओवरों</w>":37741,"पहनने</w>":20015,"एडो":39965,"चिड़िया</w>":23133,"षण</w>":13881,"सम्पादन":33699,"س</w>":8105,"शह":15247,"हृदयाघात</w>":28304,"╤":2618,"</w>":11735,"":6156,"ѥ":498,"कपड़ो</w>":46007,"래":5285,"आलोचनाओं</w>":43715,"श्‍य</w>":19987,"महाद्वीपीय</w>":47750,"गंध</w>":19570,"इस्तां":42560,"चौराहे</w>":23848,"किशनगंज</w>":46114,"पीएल</w>":23954,"ट्रा":15070,"ओ":931,"":6138,"प्रश":25379,"खियाँ</w>":31714,"करनेवाले</w>":25628,"ar":17517,"त्विक</w>":28739,"재":5455,"</w>":9970,"🔱</w>":9809,"कमल":34757,"फर्नीचर</w>":28300,"वीभत्स</w>":44546,"ม</w>":8975,"सघन</w>":28887,"सरण</w>":23368,"सन्धि</w>":36797,"कैके":47441,"घूमता</w>":30732,"लन":48694,"ड्रीम</w>":33469,"अस्पृश्यता</w>":50146,"क्षमता</w>":15510,"सम्बन्धों</w>":31207,"✍</w>":8952,"तीस</w>":19313,"बराबर</w>":17176,"私":4487,"पेंटा":49721,"⠭":3060,"कतार":37550,"दर्स</w>":28262,"जनलोकपाल</w>":38473,"ंदु</w>":19122,"उत्स":36451,"ध्वनियों</w>":43724,"2100</w>":48609,"ډ</w>":9557,"भावात्मक</w>":47737,"कछुआ</w>":43435,"उपनिषद्</w>":46056,"319भाषा</w>":20699,"बोनी</w>":40256,"मदीना</w>":40361,"डुबो</w>":42088,"लीवे</w>":42881,"सेकेण्ड</w>":49013,"龜</w>":9516,"कॉमेंटेटर</w>":25335,"नवरात्रों</w>":46703,"चयन":46751,"भूमि</w>":14807,"स्पैम</w>":30755,"볼":5353,"शेषों</w>":38114,"वर्कशॉप</w>":41974,"घंटी</w>":26507,"जूर</w>":25485,"</w>":8114,"":5711,"1919</w>":35555,"ؤ</w>":9291,"इन्फर्मेशन</w>":43657,"करके</w>":13862,"किंचित</w>":44422,"मंड":17823,"करवा":15312,"बजाज</w>":29630,"विस्":16859,"原</w>":9359,"एकादश</w>":40042,"0.5</w>":37556,"</w>":11696,"लीस</w>":31653,"सॉफ्ट</w>":23519,"जेपी":45731,"खेली</w>":26772,"चिह्नों</w>":41906,"":6672,"ٛ":725,"रूपा":29234,"ल्ला</w>":16994,"任":3428,"रेक्टर</w>":46746,"वांस</w>":29205,"गवर्नेंस</w>":35058,"लैंड</w>":14627,"︠":6735,"狙":4368,"जुबान</w>":24592,"स्की":21955,"79":27387,"छापेमारी</w>":28649,"पकड</w>":35249,"ક":1199,"नियाँ</w>":16652,"तर्गत</w>":26490,"ḍ</w>":11663,"इसलिये</w>":17892,"竜":4503,"आलोचना</w>":17279,":":27,"बिकते</w>":46745,"747</w>":45780,"धूलि</w>":49422,"उपयोग":14464,"नेहरू</w>":18326,"सकीय</w>":20657,"डॉक्यु":42319,"सौरभ</w>":25581,"记":4818,"इलाकों</w>":19301,"तीत</w>":18049,"फिर":23664,"वयस्‍क</w>":24336,"खर्":21142,"पढ़िए</w>":21677,"प्रेसि":31975,"360</w>":26552,"थ्री</w>":29737,"नवा":16140,"मंत्रालय</w>":16106,"प्रश्नों</w>":22129,"जगदम्":46942,"रूह</w>":24286,"यम":24880,"ro":30243,"θ":425,"क्रम":18520,"कालान्तर</w>":43732,"ड़ता</w>":30351,"सुविधाजनक</w>":22843,"मलि":34682,"हमरे</w>":36702,"१९७७</w>":46170,"गिरे</w>":23418,"धरी</w>":17272,"पालतू</w>":21133,"":6216,"चार्ज":33624,"पक्षपात</w>":37904,"मुनिया</w>":46960,"</w>":9378,"थि</w>":14065,"नामित</w>":26077,"पार्वती</w>":23791,"은</w>":9392,"फैंस</w>":28471,"होस्टिंग</w>":30352,"जिनमें</w>":16267,"":6274,"चार्टर</w>":30658,"उफान</w>":39291,"कीबोर्ड":37605,"हंसी</w>":20860,"दिखीं</w>":37547,"अनुशासित</w>":39151,"दलाल</w>":25285,"धुनाई</w>":44889,"नवाब</w>":27470,"🚰":7482,"</w>":12133,"खनी</w>":47605,"धारित</w>":14409,"ཙ":1770,"ĺ</w>":8470,"उत्प्रेरक</w>":42732,"काइ":20871,"तथा</w>":13344,"तत्व":29390,"डबल्यू</w>":49642,"बोझ</w>":20040,"मुलाक़ात</w>":26498,"शास्त्री":31289,"भूचाल</w>":47195,"वार्ता</w>":16093,"अभियांत्रिकी</w>":32225,"ꀱ":5174,"नकदी</w>":23481,"उपरी</w>":44406,"⦅":3086,"फिल्‍म</w>":21503,"血</w>":12287,"खोजे</w>":38281,"फीरोजाबाद</w>":43237,"⿸":3148,";":28,"خ":682,"":5696,"»":116,"1,000</w>":32316,"तरबूज</w>":33045,"</w>":12729,"डॉलर</w>":16904,"बेरोजग":22506,"जादू":25969,"因":3692,"神":4478,"ژ":769,"देवो</w>":49187,"मुखौटा</w>":35533,"👕</w>":11483,"ਜ</w>":9284,"परे</w>":19989,"एजी</w>":50116,"अनबन</w>":41582,"नुकीले</w>":49666,"🤢</w>":12152,"कोमलता</w>":40078,"बैं":13794,"क़ीन</w>":33649,"तिलि":38769,"नीतीश</w>":18070,"प्रको":22936,"टॉक्स</w>":44444,"्दा</w>":47612,"ग्वा":32613,"販</w>":11092,"सफ</w>":46950,"":6459,"उभार</w>":33288,"युवी</w>":37212,"लगे</w>":14001,"ሴ":1950,"ⵕ":3132,"曜":4119,"11/13</w>":48433,"聲":4620,"सम्बन्धी":48516,"बरतनी</w>":42919,"玄":4379,"पूँ":21739,"आखिरकार</w>":22450,"पत्ति</w>":15144,"कड़":14153,"ट्यूमर</w>":28365,"खिलौना</w>":28329,"सहायक</w>":15508,"ल्फ</w>":28689,"सत्य</w>":15758,"समझाता</w>":44326,"♛</w>":9305,"徒":3945,"📚</w>":11816,"वर्द्ध":39688,"⏺</w>":9961,"फायदों</w>":35932,"लाइसेंस</w>":16753,"师</w>":8407,"स्वाभाविक</w>":19551,"՟</w>":10301,"癘</w>":12322,"🔦</w>":11648,"鼠</w>":11078,"पड़ी</w>":15689,"साइटिका</w>":29044,"⠔":3042,"ओरिएं":37228,"सन्तोष</w>":48539,"हिन्दु</w>":30060,"डेंस</w>":36238,"लाएंगे</w>":34412,"☫":2744,"पतंग</w>":26364,"अनादर</w>":48574,"भिंडी</w>":44273,"काउंस":32844,"मिजो":31875,"२००२</w>":36474,"कौंसिल</w>":36953,"फलित</w>":35086,"32</w>":16141,"कोर्ट्स</w>":44275,"क्लि":19317,"पीएससी</w>":26511,"कार्डों</w>":47146,"ट्रेंड</w>":28274,"भगवन</w>":33317,"वल्":23494,"xt":12878,"सुबह</w>":14217,"अधिकारीयों</w>":47208,"बैलगाड़ी</w>":46030,"रूद्राक्ष</w>":42673,"":5834,"10/2012</w>":39028,"मजबू":14619,"दबंग":39465,"सुनवाई</w>":18168,"सत्‍य</w>":43748,"अध्‍या":42091,"भड़क</w>":28598,"सौं":15267,"भूखा</w>":28309,"</w>":10252,"दायीं</w>":45143,"{":66,"करुणा</w>":26517,"":6480,"𐭊":6753,"ati":30918,"गैजेट</w>":26874,"दारी</w>":14393,"ललक</w>":35688,"मुंडन</w>":50155,"कजरी</w>":43417,"विराम</w>":23522,"परेशां</w>":49308,"कुंड</w>":26854,"रिश्तेदार</w>":23968,"जोकि</w>":25625,"ब्राउजर</w>":36427,"</w>":8385,"दक्षता</w>":28842,"रिहाई</w>":26028,"नाथ</w>":14416,"स्‍वयं</w>":31574,"✔</w>":8166,"चपरासी</w>":34171,"ड्रि":19497,"सैक":48796,"⬆":3097,"米":4534,"बॉलीवुड</w>":15641,"भोजपुर</w>":39261,"膦":4653,"ड़े</w>":13161,"٥":731,"ड्रन</w>":47214,"ष्टा</w>":25304,"ᆳ":1923,"सिहरन</w>":48573,"खामोश</w>":22831,"डरावनी</w>":44222,"आसाराम</w>":26167,"लूँगी</w>":44488,"अलबेला</w>":41397,"मन्दिर</w>":17706,"हाई":16169,"हालांकि</w>":14700,"♒</w>":11479,"वृद्ध</w>":21784,"लें":19436,"उठानी</w>":36985,"౧":1431,"</w>":9223,"तूर</w>":30067,"अच":27528,"188</w>":36355,"ր</w>":8991,"लेपन</w>":25016,"सरोवर</w>":24139,"उठाएं</w>":31967,"􀉟":7654,"मोहिनी</w>":36296,"माफी</w>":20773,"प्रेग":26865,"पाएँगे</w>":40118,"":5949,"लौटे</w>":22902,"उत्तरोत्तर</w>":43782,"功</w>":12810,"अस्मिता</w>":27003,"ެ":895,"लुत्फ़</w>":42526,"मेट्रिक</w>":43425,"................................":30113,"थैंक्स</w>":42129,"⁩":2344,"भूत</w>":16645,"अधिकांश":39990,"":6320,"👧":7131,"हर्ब</w>":46307,"जुटाए</w>":46386,"ंमार</w>":31950,"317</w>":49805,"उँगलियों</w>":35293,"हीम</w>":22901,"幻":3900,"लाइनों</w>":26646,"ٲ":742,"सुन्न</w>":45006,"किला</w>":22338,"तुक":46130,"ң":524,"एची":47022,"लिखते</w>":17829,"後":3944,"फेंग":35221,"कुंज</w>":32359,"प्रमेय</w>":44027,"":6227,"माता</w>":14487,"‍‍":43519,"504</w>":46326,"अधिकाधिक</w>":34720,"कहलाते</w>":28344,"ا":675,"नकार</w>":28017,"चौ</w>":47393,"पद्मश्री</w>":35036,"मूल्यों</w>":20866,"</w>":9441,"څ":756,"ऊँ</w>":18113,"🎳":6975,"ܪ":855,"➾</w>":12839,"􀃨":7628,"सहमी</w>":43101,"💾":7217,"माकर</w>":45091,"ۓ</w>":9646,"उठा":14256,"अल्सर</w>":37963,"俪":3471,"単":3597,"्यूज</w>":37210,"अवलोकन</w>":23413,"आभा</w>":26319,":</w>":10855,"ईन</w>":28074,"पश्चात्</w>":22264,"अनभि":35240,"ट्रैकिंग</w>":37718,"बॉब</w>":35298,"1958</w>":33152,"आरोग्य</w>":36354,"🎑":6951,"दुष्‍":47756,"11/14</w>":49375,"50</w>":14066,":59</w>":25958,"एस्":27505,"मरम्मत</w>":22190,"軍</w>":9546,"इनसान</w>":40489,"पहाड़ी</w>":20283,"उँगलियाँ</w>":43999,"नेका</w>":47024,"कना":17578,"चुना":16013,"लुढ़का</w>":48143,"शीशी</w>":43805,"सपाट</w>":33547,"सिल्वर</w>":28052,"ج</w>":8270,"?</w>":9943,"विज्ञप्ति</w>":24253,"माध्‍यम</w>":28979,"००":20435,"౸</w>":10550,"計":4775,"ւ":599,"खरपतवार</w>":46953,"भ":957,"मरे":45700,"नै</w>":25124,"रतन":34149,"फोर्निया</w>":25259,"विजयवर्गीय</w>":48831,"विजयी</w>":25239,"शप</w>":26670,"षी</w>":16589,"कार्ड</w>":14992,"साता</w>":42224,"एण्":34906,"सौंपे</w>":37117,"ग्ध</w>":22480,"डरकर</w>":49041,"価</w>":11810,"गज़":22495,"學":3803,"सीकर</w>":28873,"":6602,"जीसी</w>":32473,"ठो":16983,"यात्री</w>":15240,"⠇":3032,"􀃋":7618,"ĵ</w>":11075,"करेंइस</w>":41176,"पटाखा</w>":38280,"⎠":2547,"ӯ":555,"चंदे</w>":43031,"जनसाधारण</w>":42737,"भर्तियां</w>":39894,"अरूप</w>":45745,"पत्रांक</w>":38013,"मेड</w>":28094,"ੈ</w>":9927,"गरी":14888,"नब्":38432,"लीक्स</w>":40174,"उपलब्धि</w>":22269,"चित्रकला</w>":26836,"इसी":16577,"अंडों</w>":49738,"माई</w>":19590,"वाता":16507,"समाप्‍त</w>":37461,"प्रभु":21733,"आज</w>":13206,"शुभा":35536,"स्वर्णिम</w>":31778,"प्रसन्नता</w>":24427,"महासभा</w>":25467,"থ":1063,"万":3347,"喀</w>":10019,"":5586,"271</w>":41877,"noun</w>":49548,"":6489,"हिरण</w>":32209,"कार्यकर्ता</w>":18431,"छ्":31239,"အ":1836,"約</w>":12797,"बन्धन</w>":24651,"생</w>":9529,"󾁛":7549,"देती</w>":14788,"केर</w>":28924,"മ</w>":8311,"कर्ण":29247,"教</w>":12782,"त्रास</w>":49194,"बाइबिल</w>":32156,"अशिक्षित</w>":43495,"</w>":9990,"सिंघम</w>":38711,"गहलोत</w>":31182,"ख्वाहि":24377,"कट्":15737,"पै":13219,"अनुवाद":44078,"ĕ</w>":8446,"पन्द्र":29127,"अब्दुल</w>":21509,"घंटा":44511,"चुहिया</w>":46262,"दृष्टा</w>":48062,"🏦</w>":11817,"सकतीं</w>":33435,"इका":24090,"禧</w>":10921,"ש</w>":8211,"कापी</w>":35015,"जाहिद</w>":49294,"टिप</w>":30922,"बडे</w>":21447,"डिस्‍":25137,"井":3400,"मद्रास</w>":25360,"ɕ":255,"ियांग</w>":41965,"जूझते</w>":40741,"ब्लैकमेल</w>":41551,"ꠣ":5195,"इनसाइक्लोपीडिया</w>":44286,"असें":41499,"1.6</w>":43144,"थियो</w>":49699,"कप</w>":15778,"":6007,"जों</w>":14244,"1:00</w>":37641,"नहर</w>":21297,"यूजर्स</w>":26178,"भीतरी</w>":29067,"⭄</w>":9425,"कतारों</w>":48631,"惡":3983,"लक्ष्मीकांत</w>":45127,"सन्देश</w>":20863,"པ":1766,"रक्त":19027,"जिये</w>":15756,"35</w>":15863,"कांगो</w>":41618,"ताज":23777,"लों":36548,"इतर</w>":28867,"ट्वि":16781,"पूर्ववर्ती</w>":32995,"ҹ</w>":12849,"कट":15591,"إ</w>":8595,"आएँगे</w>":41416,"oo":22212,"मस्जिदों</w>":34507,"ン":3321,"🐦</w>":10612,"पिछ":13717,"औचक</w>":39935,"ग्राही</w>":40095,"निबंधन</w>":48875,"बरसे</w>":29138,"स्तु</w>":16730,"沈</w>":9736,"दरबान":48717,"युग्म</w>":30478,"प्राप्ति</w>":17237,"ंग्टन</w>":40335,"03":15522,"जनसंचार</w>":31229,"नीरस</w>":42555,"शिका":14852,"सवारों</w>":45753,"es</w>":49737,"इलेक्ट्रॉन</w>":39404,"せ":3201,"पश्चाताप</w>":38733,"खुशियाँ</w>":26443,"":5769,"कॉलोनियों</w>":49987,"◇":2674,"पहुँचे</w>":23607,"</w>":11362,"👈":7101,"🗜":7354,"漿</w>":12846,"लिथुआ":47640,"ियॉ</w>":28803,"钣":4991,"쳐</w>":10803,"कने":17506,"रस्तोगी</w>":33583,"":6028,"ਝ":1142,"ы":476,"अब्दु":19365,"चौरा</w>":49028,"႐</w>":12601,"जाज़</w>":42859,"令":3421,"नागालैंड</w>":37772,"मकाऊ</w>":48127,"स्तिथि</w>":38762,"स्तूर</w>":46165,"委":3775,"広":3903,"केरला</w>":45772,"बेल्जियम</w>":27638,"विलक्षण</w>":29562,"घिया</w>":39065,"ස":1607,"ክ":1989,"河":4260,"पदार्थ":34277,"विभूति</w>":34502,"玉</w>":9492,"":6650,"जाता</w>":13142,"4.2":39318,"तलाकशुदा</w>":48508,"प्रतिक्र":46644,"सुविधा</w>":15518,"✻":2903,"相</w>":12405,"जोड़":14561,"दिहाड़ी</w>":49725,"बच्चों</w>":13761,"":5648,"🌃</w>":9600,"नुकसानदायक</w>":45906,"स्वप्न</w>":18672,"कार्डि":40702,"जोखा</w>":33895,"🕸":7339,"/06/":25871,"का":12888,"करूँगी</w>":45218,"नायडू</w>":28305,"":5622,"भुवने":45455,"मोहलत</w>":45580,"दुखी</w>":20377,"绱</w>":9257,"हाथियों</w>":32371,"호</w>":8174,"210</w>":33674,"̅":349,"࠿</w>":9184,"अफ़्री":24579,"क्यों</w>":13594,"गठन</w>":17102,"वरुण</w>":23020,"ध्या":13748,"इंटरव्यू":38978,"संपादकीय":42845,"सूर्योदय</w>":28469,"":91,"चाहतें</w>":48190,"पाएँ</w>":24573,"इस्तीफे</w>":31669,"बँ":21798,"वैधानिक</w>":21093,"समेंट</w>":28710,"ओत</w>":39506,"मकता</w>":21225,"बिग":18973,"भड़काने</w>":40515,"सिकु":29409,"􁱮":7671,"हैरत":22542,"जानू</w>":35157,"97":29642,"351</w>":49525,"୦":1303,"</w>":12836,"":5935,"💇":7163,"काकी</w>":38498,"吐":3635,"चिंगारी</w>":34076,"अस्वीकृत</w>":43024,"पिस्त":31641,"प्रतीक्षित</w>":37555,"बेदखल</w>":36628,"कलि":23309,"पटाखों</w>":37792,"৹":1120,"अतिशयोक्ति</w>":49075,"༤":1743,"":6379,"झीलों</w>":36115,"बादाम</w>":22746,"ৎ":1094,"गढ़ी</w>":23808,"अधिभोग</w>":30071,"सु</w>":19863,"त्रिम</w>":22942,"रेखाएं</w>":35380,"✹":2901,"ఝ":1394,"पूर्ति</w>":16448,"ይ":2002,"आगरा</w>":17934,"760</w>":46802,"ବ</w>":9174,"आयुष</w>":34620,"शिष्टाचार</w>":33976,"एली</w>":46821,"":6027,"नाडा</w>":43698,"सकारात्‍मक</w>":45479,".03.":36240,"ईये</w>":26460,"आरोपियों</w>":19756,"ज्‍यादातर</w>":44565,"ቻ":1974,"वसु":23721,"एस्ट्रो":30969,"ු":1615,"陽</w>":11675,"21/":40208,"सेमे":31348,"केन्द्रित</w>":24178,"合</w>":10397,"दस्तावे":19651,"उच्चाधिकारियों</w>":43177,"डीवी":24786,"जनेऊ</w>":50202,"आरोपों</w>":22360,"मधुबनी</w>":31285,"मिशनरी</w>":37089,"सरों</w>":15297,"सेठ</w>":23817,"寧</w>":12621,"छूट</w>":15994,"चाबी</w>":30001,"जजों</w>":32871,"डेस्‍क":48032,"खगोलीय</w>":27776,"मजाकिया</w>":49109,"थी</w>":13053,"मतदाताओं</w>":23598,"चलती</w>":17350,"श्रॉफ</w>":39242,"सरकारी</w>":14465,"हाँ":23802,"दाढ़ी</w>":25185,"ố":2237,"❉":2917,"कीर</w>":22914,"जयपुर":45802,"पतले</w>":29753,"रहे":21855,"‌":2293,"असंतोष</w>":31201,"🐕</w>":10345,"1/":17593,"ईएस":40495,"झी":23055,"विष्ट</w>":29382,"सलीके</w>":44718,"सैलाब</w>":30192,"ड़ते</w>":25997,"घुस</w>":21541,"थके</w>":33096,"बाबूजी</w>":27847,"संचालित</w>":18438,"":6272,"........":16155,"10:00</w>":30005,"ज़र</w>":17567,"कॉंग्रेस</w>":40670,"शः</w>":38054,"ӣ</w>":8107,"तान":27772,"किट</w>":19750,"प्रारम्भिक</w>":26076,"बीएस</w>":24726,"संस्करणों</w>":30717,"लैंग":17773,"सिक्के</w>":23229,"放":4066,"д</w>":7930,"स्वाव":39599,"जायदाद</w>":35534,"बजा":48374,"सामान्यतया</w>":37016,"लिज्म</w>":39858,"कबूल</w>":29962,"सीखो</w>":36281,"स्काइ":46877,"सूचि</w>":38833,"5.1</w>":48496,"त्रेता</w>":44931,"प्रमुखता</w>":30762,"व्याधि</w>":40520,"307":47157,"स्टेशनों</w>":24741,"ı":175,"वेंट</w>":23850,"होती</w>":13312,"រ</w>":9126,"░":2642,"耻":4614,"</w>":11679,"":6124,"पार्टियों</w>":21435,"जीवाश्":34359,"फिदा</w>":37510,"जनरल</w>":17733,"कंबोडिया</w>":47340,"थ्र":31493,"निका</w>":21486,"फोर्":20955,"पाएंगी</w>":42810,"पिछे</w>":48009,"अहम्</w>":31630,"मछलियां</w>":41574,"ʃ":292,"सियों</w>":15341,"梘</w>":12311,"निकी</w>":26254,"लगढ़</w>":32763,"</w>":10501,"लाय</w>":49105,"व्यु":26769,"शत्र":20906,"ส":1656,"आईओसी</w>":41821,"पर्स":23995,"77":25826,"ی":805,"शी":13351,"ઃ":1191,"技":4018,"सैकड़ो</w>":50077,"臀</w>":11311,"चबूतरे</w>":40500,"हॉर्नी</w>":38002,"௲</w>":8139,"बहुधा</w>":26645,"伴</w>":11302,"📊":7225,"सिलसिले":47870,"पहुं":13742,"ረ":1941,"गेश्वर</w>":30712,"माला":25921,"尔":3844,"럭":5290,"करवाता</w>":39086,"युद्धों</w>":32425,"रिव्यूहॉलिवुड</w>":44219,"ज़िन्दगी</w>":17092,"शोर":39847,"̡":367,"ंगण</w>":30317,"तड़":18477,"जिंटा</w>":40552,"दीवाना</w>":25142,"मूंग":30820,"东":3356,"􁲦":7676,"▂</w>":9701,"̄</w>":12384,"・":3323,"3/":21441,"केन्‍द्रीय</w>":39311,"गुम्बद</w>":49239,"सुलझा":30410,"रप्पा</w>":38873,"</w>":10193,"विधियाँ</w>":36810,"瑠":4401,"ќ</w>":12462,"वार्षिकोत्सव</w>":45761,"百</w>":12456,"オ":3255,"डिस्क</w>":24218,"सायं</w>":32339,"सेहत</w>":15221,"ॺ":1026,"कुर्सियां</w>":49097,"फस":21281,"नितिन</w>":23994,"निकटता</w>":37909,"जीपी</w>":28484,"थोड़ी</w>":15585,"रफ़ी</w>":34569,"व्यर्थ</w>":21576,"पुरखों</w>":41936,"पंजाबी</w>":19853,"मील</w>":18478,"ځ":752,"克</w>":8750,"फेफड़े</w>":34811,"मेला</w>":18722,"वसूलने</w>":40082,"धड़ा":39495,"":5777,"बिखर":40205,"</w>":10753,"तत्वावधान</w>":29355,"परिचालन</w>":26757,"❭":2944,"ढो":18804,"":5633,"उड़ानें</w>":42524,"💱":7205,"नवजागरण</w>":46970,"क़ि":22822,"रूचि":46980,"eed":33371,"गवर्नर</w>":21965,"निन":39716,"रिचार्ज</w>":35963,"":6562,"उमा</w>":24174,"मं</w>":24901,"हिदा":28736,"⏁</w>":12170,"ट्रैक</w>":19688,"डैनीश</w>":38446,"रिश्वत</w>":23204,"सु":12956,"एथली":38777,"इकनॉमिक</w>":44197,"क्रमश":24845,"गुजराती</w>":21969,"जाय":14049,"जामुन</w>":30648,"तरंग</w>":27504,"पकाना</w>":36298,"🦁":7535,"掘":4043,"घर्षण</w>":45089,"्यता</w>":14586,"卞</w>":12604,"बाड़े</w>":42499,"106</w>":29540,"ब्बी</w>":30419,"⓺":2572,"जलपाई":43039,"इको":27148,"ऊन":40894,"जेल":47853,"ŋ":186,"तंत्र":26895,"1941</w>":37142,"बीटा</w>":33105,"मॉडरेटर</w>":24103,"घेरा":38439,"199</w>":35736,"घेरे</w>":23574,"जनसम्पर्क</w>":48949,"भारतीयों</w>":19699,"लियन</w>":16801,"सल्फर</w>":49559,"सांत्वना</w>":37013,"सुज्ञ</w>":40342,"हत्या":20677,"ूत्र</w>":41337,"४००</w>":41512,"बड़ा</w>":13819,"हिटलर</w>":27587,"मसा":16567,"प्रसार":21756,"शर्म":29170,"अत्यन्त</w>":22838,"सद्गुरु</w>":36597,"ീ</w>":10892,"⠟</w>":8829,"螺":4741,"誤</w>":11857,"게":5213,"박</w>":10606,"अगलामें</w>":21417,"मियामी</w>":37276,"वयन</w>":44630,"ೇ":1493,"एविएशन</w>":43808,"ด</w>":11614,"藥":4725,"स्लोवाकिया</w>":46075,"अलमारी</w>":33248,"ऍ":925,"गोदाम</w>":26181,"लगा":13302,"रक्‍तचाप</w>":28404,"भारतआप</w>":43350,"आए":15230,"दायी</w>":20548,"करिश्मा</w>":28928,"जागृत</w>":28156,"परंपरागत</w>":24383,"कल्स</w>":24625,"युति</w>":37066,"विधाएँ</w>":43667,"֑":602,"समाजवाद</w>":26672,"╣":2617,"तरंग":36435,"रीमेक</w>":35760,"":5709,"विभागों</w>":21558,"":6002,"सुनिश्चित</w>":16804,"साइंटि":47773,"👉":7102,"평":5534,"9</w>":7740,"मेगावाट</w>":32161,"जाएगी":36791,"परा</w>":17152,"छुपाएँ</w>":41973,"׃</w>":12569,"खाद्यान्न</w>":32521,"ூ":1358,"☄</w>":10328,"अपनाने</w>":23733,"ज्ञानकोष</w>":20553,"ҡ":523,"जुलते</w>":40081,"परिणाम":22566,"पुष्पों</w>":44338,"ֹ</w>":9983,"भूरे</w>":28988,"धै":22682,"मनुष्य</w>":15078,"लाभान्वित</w>":32496,"विरो":14108,"𐤓":6751,"इलेवन</w>":33361,"गर्म":43928,"07/":18960,"अखाड़ा</w>":39691,"कुतिया</w>":33285,"छापामारी</w>":48617,"दुष्यन्त</w>":50126,"डाक्यू":44050,"न्यारा</w>":49463,"al":22354,"फ्लू</w>":18921,"टाई":20189,"विश्वासों</w>":32286,"विषयवस्तुयादृच्छिक</w>":20661,"सत्यजित</w>":47726,"🎻":6982,"धारों</w>":40228,"ट्रैवल</w>":25762,"मॉरि":40291,"सराय</w>":21127,"बुलबुल</w>":40656,"੧</w>":10169,"सिस्ट</w>":31297,"न्यूयार्क</w>":31236,"_":38,"श्रीदेवी</w>":38217,"":6402,"ዓ":1994,"मर्मज्ञ</w>":45578,"पद्धतियों</w>":36968,"गब</w>":48987,"फायदे":16885,"वीना</w>":32219,"सदमे</w>":34975,"हाय":27900,"संघर्ष":29335,"觀":4768,"एसआईटी</w>":41634,"ة":677,"दाखिले</w>":36020,"काँच</w>":36142,"दिशांतर</w>":44226,"":6715,"डब्लू</w>":30103,"पावर":33726,"भया":19267,"性":3964,"काफ़ी</w>":19284,"बृजमोहन</w>":39842,"ठ्":23772,"एमसी":31687,"कॉं":41802,"खुफिया</w>":24919,"उत्तेजित</w>":25936,"कैरेबियन</w>":42288,"बलात्कारियों</w>":47745,"मज़ेदार</w>":32222,"大</w>":9971,"ष्ठि":31529,"परिवार</w>":13741,"ケ</w>":11541,"हिंदुस्तान</w>":20653,"390</w>":42954,"可":3623,"अध्‍यक्ष</w>":25898,"ۄ":798,"जॉब":49816,"ब्लू</w>":21025,"मुद्दा</w>":17935,"शियार</w>":33120,"डच्</w>":31601,"सुपी":22653,"स्वतन्त्रता</w>":24650,"ٙ":724,"उंगा</w>":49475,"खड़ा</w>":15727,"जन्मस्थान</w>":41298,"समू":14239,"ारोहण</w>":38819,"":6206,"प्रफे":49715,"कुलपति</w>":24570,"खत्री</w>":31563,"सफी</w>":44907,"":6014,"</w>":8153,"ѳ":504,"बिखर</w>":25910,"ቂ":1956,"१००</w>":24583,"一":3344,"⧭":3092,"कथा":16085,"प्रतिमान</w>":39196,"दमि":49814,"आरती</w>":19979,"ढी</w>":21392,"पर्वतों</w>":34144,"रॉकी</w>":47262,"इंटीरियर</w>":41686,"1.":15562,"क्रेन</w>":26699,"जुलूस</w>":24176,"वेल्थ</w>":29146,"मालुम</w>":38380,"साझेदार</w>":47962,"टाइटल</w>":35299,"दस्त":26204,"ٿ":750,"दर्य":31167,"बरो":46261,"महालक्ष्मी</w>":35711,"पछता":30049,"􀃛</w>":9753,"अर्थव्यवस्थाओं</w>":49880,"सन्दर्भों</w>":49724,"जो</w>":13026,"पहिए</w>":41199,"अं</w>":48077,"􀃛":7624,"मैथिली":42789,"im":40502,"⋔":2518,"पहुँचाया</w>":37910,"起</w>":10106,"बाजी":29656,"विचारो</w>":38663,"३१</w>":24586,"्राष्ट्रीय</w>":16369,"</w>":10502,"खेलने</w>":18024,"सरदारों</w>":49084,"🚜":7469,"1.2</w>":36114,"示</w>":8600,"वोडा":31371,"2016":28151,"सीरियस</w>":46124,"सोचे</w>":26188,"गोमांस</w>":43063,"थप्":26255,"पुस्तकें</w>":19319,"अंधेरे</w>":21870,"विरोध":44402,"60":30151,"𐎿</w>":12078,"बर्लिन</w>":23154,"हमेशा</w>":14563,"̞":366,"यूएसबी</w>":40468,"उल्लास</w>":27866,"खिलौनों</w>":39494,"सांता</w>":30473,"⁣":2341,"ंटल</w>":20408,"एक्स्":32939,"गिनती</w>":21876,"मकबरे</w>":48983,"मेले</w>":18731,"बिछाने</w>":40307,"फ्लाइ":35484,"विशाखापत्तनम</w>":46940,"सुंदरी</w>":34154,"∉</w>":10756,"</w>":12656,"🌎":6834,"निराशा":30375,"ढंग</w>":16740,"लेन्":37269,"कुएं</w>":29572,"गेंदों</w>":26616,"छात्र</w>":15136,"टकट":47912,"द्रता</w>":26160,"पट्ट":43318,"विडियोफैशनहैरतअंगेजधर्म":27733,"बनान</w>":38119,"वाईफाईसार्वजनिक</w>":35357,"सुरक्षाकर्मियों</w>":43900,"निवारण":42927,"कमला":48111,"पीते</w>":22169,"एसे</w>":40328,"राशिफल":21793,"भगोड़ा</w>":46602,"शिमा</w>":40819,"हथियार":39119,"〖":3170,"न्‍त</w>":38255,"鸡":5144,"वृत्":20242,"</w>":10837,"💫":7199,"...जो</w>":43303,"आैर</w>":44435,"वस्तुओं</w>":19242,"185</w>":33602,"अस</w>":31069,"गुड":28467,"टॉवर</w>":30477,"डब्बे</w>":46303,"धिकार</w>":16139,"पश्चिम</w>":15706,"हजरत</w>":29139,"☎</w>":8749,"渓":4297,"":6547,"🆚":6799,"暾":4117,"표":5536,"मेजबानी</w>":28735,"초":5489,"ख़ली":46167,"राजनीति</w>":14579,"लेखआयात</w>":20969,"लैंग्":35742,"</w>":9696,"बधाई":30004,"उपनाम</w>":26538,"ષ</w>":11694,"👩":7133,"टकराया</w>":47598,"पायलट</w>":24456,"कक्षाओं</w>":26193,"व्ही":24480,"बानो</w>":38875,"बुराइ":31722,"बैर</w>":32757,"आर्यसमाज</w>":49488,"🐊":7043,"पत्रिकाएं</w>":38325,"鍾":4978,"संभव</w>":15280,"":5708,"बिल्डरों</w>":41815,"渓</w>":9479,"डोपिंग</w>":49545,"लीय</w>":18341,"अनुराधा</w>":34225,"बेचे</w>":31731,"😷":7419,"द्यू":49700,"पक्षाघात</w>":47953,"♫":2804,"hai":42776,"कतर":31000,"छें</w>":43390,"जलाएं</w>":46824,"नाइक</w>":34749,"स्वास्थ":14242,"विज़ि":49774,"新</w>":8737,"लम्ब</w>":31907,"क्तों</w>":19753,"बने":16308,"योगेंद्र</w>":32154,"धूम</w>":21593,"कार्यक्षमता</w>":31541,"लाँ":33875,"터":5516,"👘</w>":11064,"णो</w>":36616,"स्टेप</w>":36815,"माइंड</w>":40074,"दिये</w>":16432,"पैकेज़</w>":43269,"वाचस्‍पति</w>":45938,"रघुनाथ</w>":37775,"풀</w>":12320,"जाना":33975,"कैमरन</w>":47767,"छाल</w>":33215,"दमों</w>":39165,"तोड़ने</w>":21214,"मालवीय</w>":28675,"〆":3154,"गानों</w>":25273,"विधान</w>":14668,"लि‍ए</w>":35635,"गास</w>":33871,"पिंज":28286,"मिलाने</w>":27841,"बीडीएसएम</w>":32927,"ड्डष्ण":47003,"सैल</w>":40170,"काशीपुर</w>":40359,"ज्‍योतिष</w>":32146,"फोटोग्रा":26168,"समन</w>":39832,"ताएं</w>":17489,"आमजन</w>":33168,"ད":1764,"</w>":11941,"मध्य":15362,"ப":1341,"१</w>":7751,"2017,":24233,"जे</w>":13557,"किसके</w>":16773,"</w>":8205,"किरा":16712,"यकृत</w>":35600,"आरूढ़</w>":49151,"सरी":22155,"쏘":5399,"विभाजित</w>":22403,"":6726,"दुबे":50211,"एसीबी</w>":48078,"वि</w>":14072,"हियों</w>":24042,"सकेंगी</w>":35477,"बर्बादी</w>":30206,"௪</w>":8895,"💱</w>":9954,"式":3923,"河</w>":9935,"漰":4322,"हुँ</w>":29283,"统</w>":12454,"":6622,"इकाई</w>":18959,"दंग</w>":25262,"😪":7406,"लेग</w>":36367,"":5588,"稿":4497,"पार्कों</w>":47365,"स्थितियां</w>":33429,"हर्ता</w>":43549,"सबमिट</w>":35239,"油":4262,"झाड़ू</w>":27307,"ʂ</w>":12746,"रील</w>":33184,"扎":4010,"स्वयंसेवक</w>":25477,"ब़":41703,"हारमो":38925,"":6024,"निर्देशों</w>":23628,"मेय</w>":35823,"भोले":39399,"श्वास</w>":25993,"बेचैनी</w>":26264,"ਾ":1165,"पंड":38335,"प्लाज्":33220,"व्यंजन</w>":21791,"━</w>":8368,"जाति":22388,"सुष":20951,"अनुरक्षणविचित्र</w>":47103,"":5581,"जड़े</w>":30696,"पेरें":38799,"प्रतिष्":17023,"फ़्रें":30254,"एपीजे</w>":46061,"मासप्यार":43471,"๔":1683,"":5940,"💧</w>":8411,"􀍩":7659,"ठित</w>":18175,"गालिब</w>":34202,"जला":19558,"॥":1005,"देवकी</w>":41445,"एंग":36190,"अनजानी</w>":40143,"खासतौर</w>":26371,"फाँसी</w>":29237,"महफ़िल</w>":27694,"लफ़्":34670,"⠫":3058,"कारे</w>":29121,"गीर</w>":23006,"ዊ</w>":11998,"韩":5075,"रेलगा":39961,"‎</w>":7801,"ヽ":3325,"रक्ताल्पता</w>":49052,"अण्":32787,"ᥙ":2135,"गांधी</w>":14516,"2.4</w>":48549,"काबू</w>":19254,"󾭸":7596,"नजी</w>":39517,"मिश्रा":48639,"संख्या":24778,"두</w>":10815,"आभूषण</w>":26850,"प्लस</w>":21197,"निश":32818,"जगदीश</w>":23996,"س":687,"कमाया</w>":30695,"मांगता</w>":33670,"03/20</w>":40778,"lo":31039,"टाँ":34761,"राजग</w>":36843,"लते</w>":14513,"ን</w>":8417,"छ</w>":7838,"पांचवें</w>":28245,"㞗":3329,"":5761,"把":4020,"영</w>":8732,"유</w>":12577,"348</w>":46404,"टेस्‍ट</w>":29324,"ड्रम</w>":34107,"दबाएं</w>":28314,"만":5310,"儲":3496,"आकांक्षाओं</w>":40136,"ټ</w>":9933,"आर्मस्":46649,"कोरियन</w>":49034,"मैसे":32522,"चीर</w>":31225,"रोड</w>":16278,"वीर":20313,"浆":4280,"š":195,"2.59":38883,"नदी":32230,"横":4211,"साजी</w>":44062,"पकों</w>":24569,"डली</w>":24833,"😓":7383,"न्डे</w>":43334,"करण":23581,"घूमे</w>":47694,"वें":19144,"शिल्‍":41946,"आवंटित</w>":25117,"कैराना</w>":44455,"तेज":24865,"खासी</w>":25461,"जबरदस्त</w>":21557,"उजाड़</w>":42178,"खिला":13584,"विज्ञापनों</w>":25349,"सिम्":30483,"स्‍पे":26932,"ោ</w>":10860,"भाषाविज्ञान</w>":40834,"अकाउंट</w>":21098,"द्वारिका</w>":47744,"स्वीकार्य</w>":29659,"꫰":5203,"समलैंगिकता</w>":40252,"इंडो</w>":38121,"समस्त</w>":17355,"हत्थे</w>":34684,"हम":13065,"थ्री":39881,"बेब्स</w>":44891,"दलाली</w>":34983,"निष्ठ</w>":24453,"देशवासियों</w>":29648,"उन":13029,"एंडी</w>":42926,"बढ़ा</w>":16353,"सहायता</w>":14686,"振":4039,"हैट</w>":46910,"ነ":1976,"針</w>":11940,"संप्रेषण</w>":41972,"१९७४</w>":50070,"</w>":7967,"ཡ</w>":11484,"अनेक</w>":14898,"मुलाका":39583,"राहु</w>":22773,"रों</w>":13270,"ũ":199,"रिवायत</w>":41569,"ਗ</w>":10202,"清":4293,"322":25570,"उनने</w>":44607,"खरे</w>":20179,"सत्तर</w>":29800,"बाजा</w>":39634,"∵":2481,"जरों</w>":33740,"2008</w>":15053,"󾬞</w>":10241,"ో</w>":8687,"फार्":18678,"ニ":3284,"सकी":35172,"स्कृत</w>":38862,"मुखपृष्ठचौपालहाल</w>":20645,"ឌ":2062,"✭</w>":11524,"केन्द्रस्वस्थ</w>":40845,"छानबीन</w>":28600,"कर्नल</w>":26359,"घटायें</w>":46929,"ខ":2056,"ज़ल</w>":15822,"</w>":10324,"":6248,"गुजरी</w>":36006,"सरगुजा</w>":39835,"अपहरण</w>":21763,"कुर्ते</w>":47457,"छाप</w>":22149,"ッ</w>":10271,"त्रासदी</w>":25423,"회</w>":11084,"🆓":6793,"बाट</w>":29501,"➠":2984,"कदा":25707,"呃</w>":12625,"ฎ":1632,"शित</w>":14139,"प्राचीन</w>":15652,"जशपुर</w>":45505,"⓸</w>":11995,"ंगटे</w>":41413,"किलोवाट</w>":46523,"नजदी":19516,"ۖ":814,"उत्पात</w>":37318,"चूरू</w>":46106,"å":125,"नाखुश</w>":42960,"ð":136,"खींच":22159,"पुस्त":15840,"निकाल</w>":16275,"प्लॉ":41012,"बुढ़":32958,"इन्वेस्टमेंट</w>":32039,"भूषण</w>":18337,"भिन्":24074,"मस्जि":29719,"शानू</w>":48199,"सेण्":41753,"ཟ":1775,"▒":2643,"図":3698,"城</w>":10495,"इस्त":35799,"ऴ</w>":8342,"सीटी</w>":28801,"ủ</w>":11136,"斗</w>":8910,"날</w>":8639,"आरी</w>":36890,"₭":2357,"ह्ह्ह</w>":42095,"ह्ह्":23718,"</w>":10484,"उत्पति</w>":47184,"🚒</w>":12069,"舜":4666,"󾆮</w>":10586,"अरा":35032,"अनार":35562,"अमरनाथ</w>":26659,"दक्षिण":26404,"रोमिंग</w>":47827,"┓</w>":8548,"2018</w>":29106,"į</w>":8601,"ज़िला</w>":25449,"तुगलक</w>":44598,"दूरियां</w>":33651,"न्वित</w>":21176,"ंड्स</w>":25207,"जिमी</w>":35450,"पुनरी":38268,"बचाया</w>":24658,"मनचाहा</w>":46300,"एवम्</w>":37010,"कैलि":24585,"दशम":29953,"भागती</w>":37554,"मूलभूत</w>":24855,"जिंदा</w>":19971,"आक्रमण</w>":19847,"टिप्पणियाँ":25131,"वायरल</w>":19912,"सीआईए</w>":39485,"এ</w>":8367,"गोंड":39911,"◡":2691,"टेंशन</w>":20322,"परमाणुओं</w>":46108,"इत":31908,"चूंचियां</w>":40694,"<":29,"मनि":40424,"प्रदाय</w>":21513,"रामनगर</w>":33447,"शूद्र</w>":31674,"̕":362,"भग":13986,"∼</w>":11045,"ऎसी</w>":34043,"नार्ड</w>":42233,"न्नत</w>":37686,"बचकर</w>":37223,"विरासत</w>":20586,"ূ":1085,"am":15640,"ꡫ</w>":10101,"दोहराना</w>":49467,"मानती</w>":23031,"ᱚ":2154,"गुणा":38117,"मौत":26431,"न्यो":29310,"ग्नि</w>":33960,"सुस</w>":45411,"元</w>":8314,"फूटी</w>":35267,"무</w>":8247,"ଠ</w>":12172,"एग्रीकल्चर</w>":47269,"दूरों</w>":19705,"चिल</w>":47034,"豆</w>":11245,"बगीचा</w>":25431,"बगी":20403,"":5921,"軍":4883,"</w>":10400,"इनामी</w>":43295,"हें":27514,"":6230,"ज़िन</w>":45749,"आख़िर</w>":26034,"तलाशते</w>":44745,"इ</w>":7791,"दी":13212,"लकी":29185,"उद्भव</w>":31441,"उपल":45635,"ट्रेड</w>":24463,"शहद</w>":20423,"श्रम</w>":16010,"स्कूली</w>":22680,"गहरे</w>":19905,"मनीकंट्रोल</w>":47163,"आ":918,"आपराधिक</w>":24488,"नालंदा</w>":25542,"गेश</w>":38348,"मध्‍य":38976,"้</w>":9161,"":5653,"04/03</w>":41497,"बंदरों</w>":34239,"64":29515,"पहले⚑</w>":46868,"सुधा":30328,"ग्लूको":45894,"सूरदास</w>":30965,"ਖ</w>":9573,"खूबियों</w>":43175,"जगन</w>":48775,"नही":17156,"अपर्या":37107,"कार्यों</w>":16990,"पितों</w>":45290,"⠿":3075,"난</w>":12671,"रोस</w>":45363,"👔":7113,"कमियां</w>":36717,"असिस्‍टेंट</w>":40033,"चौकियों</w>":47814,"रेणु":39539,"विद</w>":22770,"साइक्लो":31173,"</w>":10959,"🐍":7045,"运":4904,"के":12997,"प्रादुर्भाव</w>":46864,"ា":2084,"णिमा</w>":20481,"भूतल</w>":49862,"यात्राएं</w>":35181,"</w>":10116,"</w>":11431,"स्‍व</w>":47834,"चनों</w>":30320,"कुल्ला</w>":48168,"लियें</w>":39973,"रेस्टोरेंट":38485,"लिपटे</w>":39915,"उत्तेजक</w>":28835,"टॉय":27956,"":6062,"अभिन":18482,"⏱</w>":8934,"बीएससी</w>":35700,"प्रतिस्पर्धा</w>":25654,"विषाणु</w>":38549,"चित्रांगदा</w>":47431,"बनाइये</w>":34742,"󾌣":7556,"ट्रांसपोर्ट</w>":32753,"麺</w>":9332,"आज्ञा</w>":22828,"परियो":15540,"सरकार":28405,"廉":3917,"प्रतिनिधि</w>":18349,"丰</w>":10708,"ś</w>":10168,"टार":23560,"कायें</w>":30379,"饭":5099,"👞":7122,"नन्दन</w>":27023,"氷":4246,"द्वारों</w>":43169,"೯</w>":8605,"💀":7156,"बसी</w>":25365,"गोंद</w>":40038,"मंजू":17463,"महिला</w>":13865,"लाने</w>":14274,"वासों</w>":37972,"प्रबन्धन</w>":33768,"भावपूर्ण</w>":27170,"एकदिवसीय</w>":35478,":58</w>":27494,"प्राप्य</w>":44773,"नीता</w>":19933,"":5784,"कानपुर</w>":17291,"दोस्त</w>":15396,"बुरा</w>":16217,"हया</w>":41204,"पकड़ना</w>":38110,"ᠯ</w>":12647,"🌐</w>":8645,"♄":2765,"◤":2694,"अनिश्चितकालीन</w>":47371,"तेला</w>":49065,"बप्पा</w>":46724,"मज":14014,"खेलेंगे</w>":31886,"माहा":44486,"पुनः":40481,"वर्ण":15216,"िका</w>":17226,"गॉ":19739,"समझती</w>":27250,"ছ</w>":8044,"ब्रह्माजी</w>":48365,"उपाध्‍यक्ष</w>":40184,"धियाँ</w>":35949,"प्राइम</w>":24099,"अरि":33008,"दाता</w>":15996,"प्रमुख</w>":14071,"मिलाना</w>":39846,"इतिहासकारों</w>":32538,"र्व":36028,"संभाला</w>":27222,"ன":1340,"वार्य</w>":18160,"हुमायूँ</w>":50217,"वेरिएंट</w>":44904,"ŧ</w>":12441,"घण्टा</w>":41800,"डेंटल</w>":38979,"ྰ":1807,"प्रमाण":18346,"ግ</w>":10004,"मुरली":35133,"झर":49728,"♩</w>":11783,"❛":2933,"畜":4423,"👏</w>":8711,"ڴ</w>":8444,"ख्याल</w>":18640,"भरकर</w>":23125,"2352</w>":33629,"सब्सिडी</w>":23593,"स्‍वतंत्रता</w>":45588,"৹</w>":10428,"ऋण":39991,"तन</w>":13445,":51</w>":27274,"त�</w>":42604,"訳":4780,"बबू":44710,"संभवतः</w>":24876,"भेड़</w>":20840,"सामानों</w>":35602,"ө":554,"204</w>":38029,"प्सी</w>":31884,"घी</w>":18556,"टिप":25611,"दोहरे</w>":27305,"फेंगशुई</w>":41552,"मान</w>":13151,"जल्द</w>":15817,"</w>":12429,"आयु":16311,"कुँए</w>":47518,"🌶</w>":10629,"विषयवस्तु</w>":33268,"᥏":2134,"ज्ञ":13145,"�������</w>":48902,"अरूण</w>":32087,"विकी":35734,"シ":3267,"ईश</w>":33810,"थु":14887,"देरी</w>":21043,"धोती</w>":30673,"ך</w>":8492,"♮":2807,"लूटे</w>":38228,"सिता</w>":36809,"विस्था":49983,"अहमदाबाद</w>":20113,"कोश":41363,"सुलझ":42681,"विज्ञापन</w>":15409,"वेद":15097,"अवॉर्ड्स</w>":45099,"पोलि":31395,"सर्वा":15650,"गुप्ता</w>":17043,"किसा":31570,"नाज़ुक</w>":35289,"प्रक":33560,"फ्लॉपट्रेलरवि":47521,"कत्":20957,"तीरंदा":40432,"बेचते</w>":31081,"बजेगा</w>":47496,"ئ":674,"यर्":33403,"रिसोर्ट</w>":28500,"麻":5153,"घूँ":43107,"पालने</w>":32648,"</w>":8123,"स्ति</w>":29889,"❕</w>":8901,"ट्वीट</w>":19408,"":6625,"󾠨</w>":12080,"द्वीपीय</w>":39007,"आगंतु":23329,"महीने</w>":14528,"अनेकाने":36055,"चुकीं</w>":42976,"एशियन</w>":22218,"दृष्ट":49164,"लेफ्टिनेंट</w>":34702,"无</w>":12096,"पस":47888,"फ़े":18243,"तहखाने</w>":48409,"बुलेट</w>":31275,"संदेश</w>":15052,"एंजि":34828,"ҡ</w>":9240,"乇":3373,"डी</w>":13423,"ढूँढें</w>":46624,"बेताब</w>":31625,"यथावत</w>":42746,"ል</w>":10337,"诚":4824,"रसायन":47204,"खुल</w>":18984,"फैलता</w>":33085,"ए</w>":7737,"बक":18707,"––":38208,"चेताया</w>":37616,"न्सी</w>":28959,"बेशर्म</w>":37183,"सुख":16613,"ऐश</w>":27815,"रण":15066,"सफेद</w>":17481,"उपकरण</w>":15684,"युरप्पा</w>":40442,"शुगर</w>":23454,"आयुर्वेद</w>":19140,"🎐":6950,"होमफोटो</w>":40427,"चो</w>":27846,"भगवत</w>":35268,"श्रंखला</w>":26474,"छरह":34057,"बराक</w>":25133,"भिड़</w>":36886,"म्यू":18564,"सर्वे</w>":19852,"धर्":16276,"मावदार</w>":47255,"धिकारियों</w>":21565,"प्रता":16673,"कीय</w>":15152,"ஆ</w>":11187,"जीवनकाल</w>":33579,"लाइक</w>":17339,"管":4523,"</w>":10635,"11</w>":13623,"ਭ</w>":12743,"🏆</w>":9429,"न्त":28748,"산</w>":8598,"पुत्रों</w>":28534,"रुकती</w>":49193,"ழ":1348,"शेफ</w>":46484,"हदी":25006,"छूते</w>":39675,"छुआ":26858,"त्यागने</w>":46915,"♕":2782,"एको</w>":43905,"शक्ति</w>":14496,"郎</w>":11837,"चमकाने</w>":43155,"झाग</w>":46577,"जेक्शन</w>":24323,"ւ</w>":9788,"तेरी</w>":15986,"चं":18076,"जुखाम</w>":48061,"टमैन</w>":41922,"ख़ुश":34142,"लकीरें</w>":36581,"शाही</w>":17994,"वॉटर</w>":26014,"2007व्यूस</w>":29497,"साँसें</w>":42054,"पारदर्शिता</w>":28976,"सोचता</w>":19813,"२०१२</w>":25742,"織</w>":12411,"":6338,"अनेकों</w>":25134,"णय</w>":15449,"जॉ":15098,"ब्रेक":33538,"लीडर्स</w>":45641,"देशो</w>":34086,"ሳ":1949,"मण्डली</w>":22286,"रोसिस</w>":35231,"विशेषज्ञ":19678,"徴":3951,"जील</w>":23561,"烏":4343,"":6021,"अपने</w>":13023,"पेल</w>":37157,"दिनकर</w>":28093,"मवे":41156,"गर्लफ्रेंड</w>":21074,"ɛ</w>":10901,"बनी</w>":14792,"महकती</w>":50188,"श्रीलंका</w>":19719,"त्‍य</w>":23398,"देशवासी</w>":39873,"नाशकों</w>":40689,"बनाए</w>":15527,"लिख":13281,"वियों</w>":19625,"满":4316,"ည":1819,"硫</w>":11755,"बेहतर</w>":14584,"पिछड़ी</w>":35850,"वामपंथियों</w>":42303,"मर्ज़ी</w>":36165,"आमंत्रण</w>":27870,"ओढ़</w>":35209,"फ्ल":33664,"उम्दा</w>":23136,"रफ़्तार</w>":27584,"पराका":38250,"वैया</w>":43261,"सकारात्मकता</w>":49318,"🚾":7493,"जीवों</w>":22481,"तश्तरी</w>":31897,"बवाल</w>":22314,"अतिरिक्‍त</w>":21703,"आई॰आर॰":20777,"छतर":30960,"सक्राइ":22436,"贝</w>":11999,"गोलियों</w>":28488,"हरया":36784,"ሼ":1954,"बठि":37569,"":6448,"परीक्षा</w>":14767,"न्यूज़लेटर</w>":37896,"":5682,"गाती</w>":29462,"प्रियतम</w>":36710,"यूसुफ</w>":34778,"":6419,"ʋ":299,"ԓ":564,"शाब्दिक</w>":30110,"ὶ":2281,"हाऊस</w>":39714,"ḱ</w>":12064,"तो</w>":12947,"तत्वों</w>":19839,"訓</w>":11236,"ुक</w>":18508,"अनौप":31810,"╮</w>":9016,"❶":2949,"⚒":2817,"":5688,"</w>":9678,"ष्टि":33407,"ल्‍यू":44257,"͉</w>":9539,"पुनर्जागरण</w>":41477,"संवैधानिक</w>":24425,"偵</w>":12588,"अर्घ्य</w>":44553,"נ":643,"ब्रायन</w>":37360,"अनुकूलित</w>":28208,"</w>":7839,"भदौरिया</w>":41159,"ొ</w>":10917,"अभिने":17787,"गान</w>":18259,"चैंपियनशिप</w>":26639,"निकाला</w>":17954,"फैलती</w>":39922,"ৢ":1098,"कुटी</w>":38818,"न्यूज</w>":17321,"पीड़न</w>":22077,"मास्टरजी</w>":47229,"सौभाग्य</w>":23391,"सिंगा":20371,"۴</w>":9248,"नेत्र":29734,"यूपीए</w>":22458,"所":4005,"族":4090,"ת":653,"सजीव</w>":27763,"टियर</w>":40223,"मीं</w>":43678,"गस</w>":46360,"मैग्":27345,"आसा":30789,"संकेत</w>":16593,"2500</w>":32575,"ड्रफ</w>":35105,"प्रकल्प</w>":48316,"ल्‍क</w>":19327,"सि":12950,"ब्लेयर</w>":42320,"पार्थिव</w>":32352,"भभ":46183,"रै":14998,"04</w>":15348,"लगभग</w>":14296,"जोड़ती</w>":31827,"मंत</w>":26267,"सदी</w>":14853,"ץ":648,"पर्क</w>":14226,"जीवा":21273,"मुताबि":31795,"सूख</w>":25074,"ा</w>":7697,"ጽ":2019,"に</w>":8280,"반":5338,"ͧ":405,"एलेक्":31809,"प्राचीनतम</w>":30038,"सुभाषचन्द्र</w>":46346,"मुनाफा":43879,"कू</w>":16641,"वेत्ता</w>":42710,"duosएस्कॉर्ट</w>":48151,"रें":14970,"सन्नाटे</w>":37494,"कामन</w>":30307,"क्रेट</w>":21783,"रहाणे</w>":36139,"":6327,"प्र</w>":17938,"सिख</w>":20516,"स्त्य</w>":44930,"ᡤ":2122,"👦</w>":8637,"वर्गो</w>":47614,"कैंडि":31513,"युरोप</w>":29718,"</w>":12535,"भाष्य</w>":35500,"पृथक्</w>":38289,"प्रशांत</w>":21809,"न्नति</w>":24958,"ेश</w>":15048,"ॉर्":39162,"৴</w>":11129,"🔲</w>":8849,"‍बर</w>":48773,"प्रक्रिया</w>":14895,"रामानुजन</w>":47980,"🅳":6778,"</w>":11111,"˃</w>":10518,"टियाँ</w>":19270,"वड़े</w>":42175,"एयरलाइन</w>":35202,"माई":19695,"व्हील":38630,"�":6743,"निकाय</w>":22952,"झू</w>":49372,"फोटोग्राफर</w>":31302,"बिकवाली</w>":46691,"जिज्ञासा</w>":23240,"दरा":16948,"ա":572,"क्वीन</w>":27660,"गलियारों</w>":38431,"प्रबोध</w>":47311,"बैरी</w>":37414,"वर्णमाला</w>":27670,"आत्मनिर्भरता</w>":43686,"हिजाब</w>":37111,"ैन</w>":24795,"യ":1540,"െ":1557,"聽":4622,"ያ":2001,"ंग</w>":12999,"</w>":11191,"晨":4110,"डैमेज</w>":50156,"सोलंकी</w>":36697,"प्रशंसा</w>":20003,"紡":4556,"इसके</w>":13325,"ն</w>":8194,"आरएफ</w>":39360,"एफओ</w>":35336,"प्रीती</w>":43621,"း":1851,"":5681,"टूर्नामेंट</w>":21359,"पियूष</w>":45730,"ມ":1704,"ठंडे</w>":25420,"ण्डित</w>":26027,"ಸ</w>":7928,"सीबीआई</w>":19032,"रोहिणी</w>":32936,"मनाती</w>":42024,"सप्ताहों</w>":38613,"सिल":17595,"蓄":4713,"परीक्षित</w>":44498,"प्रलय</w>":28315,"रोज़</w>":18265,"बुज़ु":36050,"उतर</w>":18215,"ग्यार":21115,"घटता</w>":34822,"ढूंढ़</w>":40858,"लियोनी</w>":33318,"ताजमहल</w>":25940,"सीरिय":41940,"➣</w>":11175,"सुरत</w>":44176,"女":3762,"एलआईसी</w>":39061,"बरेली</w>":19896,"बालो":28643,"":6022,"कढ़ी</w>":44200,"💗</w>":8581,"आकर्षित</w>":19008,"खबरें":16241,"रूढ़ि":35490,"सड़कें</w>":26574,"🕹":7340,"簸":4530,"ंकर</w>":24185,"महत्‍व":28387,"24,":33567,"कोच्च":35355,"408</w>":47754,"गोरख</w>":43170,"सक</w>":14838,"得":3946,"":6452,"अल्लाह</w>":17785,"परिश्रम</w>":24473,"एपीआई</w>":48237,"∧":2474,"更":4122,"अनामिका</w>":30196,"श्रद्धांजलि</w>":20238,"साव":16211,"录</w>":11545,"कृत</w>":14245,"वर्ल्ड</w>":17401,"ैंड":18106,"बचत</w>":21439,"޵":899,"ピ":3293,"渍":4296,"鼻":5163,"दिनाँक</w>":50200,"वास्‍तविकता</w>":26623,"͑</w>":10714,"कुलोसिस</w>":32295,"निमित्त</w>":28812,"रीडिंग</w>":38639,"आखि":14615,"👁</w>":10895,"123":29597,"₯</w>":9324,"चिस्तान</w>":33505,"सुरों</w>":31492,"बेटे</w>":15773,"腦</w>":10389,"ಃ":1448,"प्रखंड</w>":24342,"तरा":14512,"सिंग":25350,"एनडी</w>":47647,"ą</w>":8674,"चमड़ा</w>":39758,"02/27</w>":49639,"पनप</w>":37092,"बूझ</w>":24623,"ך":637,"♰":2809,"音":5076,"जुकी</w>":34365,"हँसने</w>":34548,"👹</w>":9641,"􁱶":7672,"पसर</w>":44900,"छु</w>":32000,"वलोकन</w>":26197,"बेले</w>":47413,"वियतनाम</w>":27463,"券</w>":12057,"छोटू</w>":41322,"पुनरु":34834,"शोभना</w>":48236,"⠅</w>":8570,"":6224,"🚌":7456,"आएं</w>":23310,"齡</w>":11124,"प्रकरणों</w>":37699,"ब्लड</w>":20821,"रुड़की</w>":39631,"अनुराग</w>":21070,"आत्महत्या":41300,"ख़ामो":27358,"पुनरीक्षण</w>":45852,"जेठमलानी</w>":41305,"मुस्लिमों</w>":26024,"वारिस</w>":28477,"शायी</w>":41537,"प्रतिमाओं</w>":40248,"बेंगा":40569,"मूँ":29939,"लगायें</w>":29673,"सुमित्रा":41389,"हज़म</w>":47436,"न्यूनतम</w>":16861,"विधायी</w>":39266,"డ":1396,"ख़्":18729,"एंटीवायरस</w>":49466,"ब्रह्माण्ड</w>":25435,"होम्स</w>":40086,"博":3598,"बलों</w>":20536,"":5573,"🔝":7292,"अन्दर</w>":16696,"पर्यावरण":41693,"प्रस्तु":13939,"प्रोपर्टीज</w>":31466,"विनती</w>":34997,"फेडरर</w>":43174,"एडीएम</w>":34872,"pmबहुत</w>":25122,"सिकंदराबाद</w>":48727,"मिहिर</w>":46925,"सुचारू</w>":35146,"౩":1433,"1950</w>":25685,"ľ</w>":12561,"ؽ</w>":10711,"屏":3855,"费":4863,"ἁ":2254,"148</w>":33083,"अपराधों</w>":26379,"फेल्योर</w>":29638,"ঙ</w>":9740,"योर</w>":25126,"歲":4225,"पोटै":41464,"😺":7422,"ɽ</w>":9694,"🤚":7513,"ķ</w>":12294,"पूर्वाग्रह</w>":33901,"डराने</w>":40188,"226":47710,"प्याज़</w>":40622,"库":3907,"한</w>":8372,"तेजस्वी</w>":31506,"कलाकृतियों</w>":44998,"म्मल</w>":32024,"बूढा</w>":47876,"वर्ल्‍ड</w>":46570,"स्कूटर</w>":28886,"हाटी</w>":27883,"ല</w>":8580,"लीड्स</w>":47918,"रुपया</w>":21710,"एक्साइ":40743,"अधिकारीगण</w>":45295,"</w>":8727,"बमों</w>":41635,"❵":2948,"माइकल</w>":24333,"影</w>":9180,"":5625,"परसाई</w>":35537,"ैनिक</w>":38688,"रंजना</w>":28899,"एलि":21498,"बहे</w>":37535,"उन्मुख</w>":37333,"निवेदनदान</w>":20963,"रात</w>":13507,"परी":13940,"कृतिक</w>":14791,"595</w>":47807,"दाओं</w>":31291,"ἀ</w>":9639,"चंबल</w>":39576,"बीघा</w>":33766,"邡":4939,"परिपक्":19154,"ऑनलाईन</w>":30102,"प्रस्‍":25027,"मा0</w>":29770,"विय":22353,"रामबाण</w>":33368,"👃":7096,"विरक्त</w>":47158,"अौर</w>":36828,"कोस</w>":30791,"モ</w>":8531,"तैनाती</w>":26916,"真":4457,"बरे</w>":36468,"闖":5012,"램":5287,"ऑक्":20385,"슬</w>":11388,"💋":7167,"उतरते</w>":27473,"कमाए</w>":33123,"मध्‍य</w>":36393,"टीरियल</w>":38804,"होशंगाबाद</w>":33256,"विश्वकप</w>":32832,"आइयर्":39449,"फेर":25741,"भक्":35608,"६४</w>":36818,"":5922,"⚽":2834,"ȃ":237,"ईयों</w>":24536,"उपखंड</w>":44775,"ᱞ</w>":12696,"वाहट</w>":38513,"श्रमिकों</w>":25455,"86":32304,"जनसांख्यिकी</w>":45131,"ताज़</w>":39902,"परिचालक</w>":45964,"पेड़ों</w>":22334,"ų":204,"इरादा</w>":23361,"फेस्टिवल</w>":25254,"मे</w>":13395,"൫":1568,"खबरेंइंटरव्यू":44216,"आईये</w>":29079,"चहच":26580,"मारिजुआना</w>":48431,"गू":14856,"सान्निध्य</w>":41387,"ǂ":223,"छला":24838,"स्विच</w>":29080,"─</w>":8568,"╛</w>":8566,"⛵</w>":10509,"坙":3717,"हाबाद</w>":16596,"हमीरपुर</w>":26692,"</w>":11501,"दौरा</w>":18875,"उपमहाद्वीप</w>":30776,"🚘":7466,"इल</w>":13738,"ग्रोवर</w>":32220,"नगर</w>":13850,"फीड":31577,"摒":4057,"उथ</w>":49430,"ग्रीन</w>":19073,"नियमानुसार</w>":31981,"चाला":27192,"ई":920,"</w>":9940,"एंड्रॉयड</w>":29147,"ی</w>":7853,"</w>":8542,"बिछी</w>":47066,"अनुशंसित</w>":27139,"महि":13359,"๒":1681,"၎</w>":12010,"प्लेयर्स</w>":47486,"रद्द":36670,"पोर्टर</w>":45171,"गिने</w>":31220,"लम</w>":15701,"":6348,"कवयि":31822,"బ</w>":11612,"➞</w>":8056,"":6501,"लकीरों</w>":44786,"भागी":17942,"ंगि":24192,"फ्लोरिडा</w>":31857,"स्वास्थ</w>":31119,"लॉ</w>":25082,"चाभी</w>":46995,"पाताल</w>":37357,"पिट्सबर्ग</w>":44086,"201":13022,"निष":19386,"ҁ":509,"अटै":21244,"रविका":47975,"अरुंधती</w>":43239,"ਡ":1145,"":6203,"टकर</w>":16787,"धरने</w>":24997,"काय</w>":23028,"भाषाजोड़े</w>":34052,"स्‍पति</w>":41399,"👶":7146,"謝":4804,"देवदास</w>":30497,"यादगार</w>":23920,"升</w>":10862,"18</w>":14019,"बिय":33839,"☦</w>":8223,"देशक</w>":15679,"լ":582,"मेजर</w>":25819,"民":4241,"फिरने</w>":40752,"जीवाणुओं</w>":42671,".09.":36225,"ठिठक</w>":47981,"गट</w>":28374,"स्‍य</w>":23336,"हेल्थ":42420,"जहन</w>":48288,"ɱ</w>":10363,"௧</w>":11880,"1945</w>":32234,"कमल</w>":18203,"पढ":15436,"पर्न":29704,"बता</w>":15008,"न्नु":43895,"सत्या":17498,"सैलानियों</w>":42060,"स्काउ":29186,"ὸ</w>":12767,"सबद</w>":42654,"创":3545,"硫":4469,"शिकंजा</w>":32408,"बाध्य</w>":26205,"200":13355,"घटनायें</w>":45950,"टीशन</w>":41028,"विश्राम</w>":22629,"ό":444,"ڪ</w>":10694,"लीट</w>":20302,"स्तम्भ":47552,"梨</w>":10673,"੨</w>":11159,"➔</w>":11462,"डालेगा</w>":49278,"अस्ति":35888,"तालीम</w>":34798,"दर्द</w>":14306,"चलाया</w>":20323,"मेंहदी</w>":35395,"गुटखा</w>":43309,"आटा</w>":23380,"स्वास्थ्यवर्धक</w>":49008,"":5825,"</w>":8995,"स्‍टेशन</w>":41729,"幹":3899,"ӑ</w>":10421,"एस्पि":47627,"कुण्":39163,"嬲":3793,"सबू":19496,"ग़रीबी</w>":40791,"बिन्दुओं</w>":40740,"ྕ":1795,"🥀":7527,"तुओं</w>":22549,"जहाज़</w>":32877,"मॉर्निंग</w>":32619,"अभिभावकों</w>":28242,"127</w>":31813,"साम्यवादी</w>":36502,"कलाम</w>":21471,"क्रिके":19414,"खमरी</w>":32454,"😯":7411,"̲":381,"ओपेन</w>":48187,"हल</w>":15703,"प्रे":13284,"स्रोतों</w>":25631,"गुरु</w>":14812,"एरि":40846,"सुखों</w>":37000,"सुनो</w>":15621,"ሆ":1927,"哲":3671,"202</w>":37668,"ओरल</w>":25909,"कांडा</w>":35431,"खींची</w>":32114,"चुभ</w>":45960,"a</w>":7769,"मार्स</w>":50128,"आन्ध्र</w>":35743,"धर्व</w>":38685,"संभ":20524,"德</w>":9765,"원</w>":10287,"彪</w>":8081,"अनुशंसा</w>":33537,"निकलने</w>":18388,"भौ":15633,"खुलेंगे</w>":38111,"फीमेल</w>":43345,"वेन्":43071,"लगत</w>":48648,"महज़</w>":32565,"फ़ील्ड</w>":34446,"2.8":29757,"टिक्स</w>":20811,"ंगड़ा</w>":28744,"चरित्र":36785,"पाने</w>":14899,"पोर्टल</w>":22852,"स्क्राइब</w>":32325,"ॻ</w>":8585,"इन्डोर</w>":43200,"गरे</w>":49560,"प्रारंभिक</w>":19069,"❵</w>":11691,"800</w>":21230,"चर्च</w>":20514,"👬</w>":9955,"क्लोरो":47884,"मुझको</w>":18643,"करें5</w>":32724,"ۜ":816,"अभियंता</w>":22145,"आतिशबाजी</w>":35978,"छिपाकर</w>":46582,"ब्रां":45490,"निकट</w>":17894,"ज़ा":13897,"दर्शाव</w>":18126,"रोती</w>":28957,"विश्‍व":27530,"༦</w>":11258,"द्वि":15049,"अकतूबर</w>":24201,"際":5043,"लेट</w>":15095,"</w>":12117,"🎞":6957,"दत्":39123,"नारनौल</w>":43442,"门":5014,"करवाएं</w>":40979,"टायकून्स</w>":44182,"豪":4840,"झेलते</w>":43816,"मनो":13934,"जातक</w>":19836,"चढ़</w>":20326,"ईकाई</w>":41240,"शासी</w>":27925,"संदर्भ":24780,"ष्या</w>":27015,"सीपी</w>":26908,"🍫</w>":9718,"आफ":39011,"2344</w>":38864,"क्षोभ</w>":42110,"चले":46322,"फर्रुखाबाद</w>":28750,"๒</w>":10280,"奇</w>":10955,"तूफा":29956,"姫</w>":10596,"템":5521,"बाँटा</w>":39010,"पतवार</w>":33213,"दशम</w>":37789,"♁":2762,"⠃":3029,"उच्च":13480,"":6641,"ė</w>":10307,"एर</w>":41336,"जली</w>":19287,"ऊतक</w>":27768,"229</w>":43643,"दानंद</w>":36310,"द्योग</w>":40822,"यकीं</w>":41816,"सर्राफ</w>":44949,"स्टीवन</w>":44742,"</w>":9089,"📘":7238,"रिश्ता</w>":18492,"ঋ":1041,"애</w>":12677,"ೆ</w>":8780,"447</w>":49623,"वाक्</w>":48535,"孫":3802,"वेसे</w>":49778,"विश्‍वविद्यालय</w>":33144,"स्क":22671,"</w>":9577,"नेविगेशन</w>":25663,"रचनाओं</w>":19297,"सातवें</w>":26044,"都":4949,"चूत":25417,"":6152,"🌳":6861,"援":4052,"मन्द</w>":39780,"ర</w>":9653,"पल्लव</w>":42086,"दहेज़</w>":36138,"यूथ</w>":29621,"प़":47042,"लेके</w>":30916,"गर्माहट</w>":45808,"श्रीमती</w>":18632,"ɳ</w>":12770,"</w>":10588,"हीत</w>":25095,"凰":3531,"г</w>":7914,"शा":12967,"मेसेज</w>":27068,"値":3480,"</w>":10848,"नाखून</w>":22934,"चिकित्सा":23870,"490</w>":46182,"रोप</w>":26409,"अनुमति":48970,"ਇ</w>":9923,"जयराम</w>":33049,"उग्रवादियों</w>":47718,"विमला</w>":45822,"संघचालक</w>":42044,"परित्याग</w>":39190,"":6635,"첫":5486,"紫":4558,"बट":29457,"ĵ":176,"अभूतपूर्व</w>":29976,"एमएम</w>":36362,"जीवनी</w>":20698,"ताला":18456,"द्रे":39098,"मानिया</w>":49757,"진":5476,"गोर":37795,"午":3588,"अंगरेजी</w>":39209,"नमी</w>":23926,"फूड</w>":18330,"छिट":46674,"तिया</w>":18882,"मिस्":20634,"चती</w>":47874,"tm</w>":45389,"डरपोक</w>":43664,"जगमग</w>":43017,"तादाद</w>":26187,"ൊ</w>":12358,"銀":4971,"":5928,"हड़पने</w>":43280,"होंठ</w>":23294,"-":14,"ց</w>":10429,"प्रतिपादित</w>":36202,"कुली</w>":37371,"नटवर</w>":45015,"फीका</w>":37807,"रामा":18733,"</w>":8066,"क्वांटम</w>":39863,"प्लिकेट</w>":40469,"🅰</w>":10199,"क्रम</w>":13514,"डायनासोर</w>":43431,"1935</w>":34033,"/5</w>":31097,"नज़्म</w>":25783,"⺶":3146,"खीरा</w>":33490,"भें":38477,"नक्शा</w>":23855,"अपनाई</w>":32318,"वॉन</w>":43780,"★</w>":7783,"母":4234,"लुन</w>":44344,"समर्पण</w>":21110,"杷</w>":11560,"एनआईटी</w>":45039,"शीष</w>":19879,"आस्ट्रे":23173,"ेश्वर</w>":26723,"चिकित्‍सक</w>":21596,"नामुमकिन</w>":34020,"रुकते</w>":43636,"टॉम</w>":30129,"मूल्यित</w>":42432,"0.0":18143,"रेखांकित</w>":28695,"तवज्जो</w>":38576,"भंडारण</w>":27627,"10/":16927,"ल्ला":23743,"रंजन</w>":22192,"থ</w>":8764,"</w>":11987,"2009":26949,"कुकी":28140,"सहपाठी</w>":46320,"g</w>":7744,"मारियों</w>":41319,"टर्न":50007,"ढा":15260,"पेक्षित</w>":45561,"यों":35938,"लदार</w>":25191,"रुका</w>":28015,"लोक":13713,"ᱤ":2163,"🎠":6958,"क्साइड</w>":49678,"௨":1367,"छीन</w>":22170,"2016व्यूस</w>":48765,"रैलियों</w>":43042,"पोज</w>":34870,"इताल":20520,"स्लीपर</w>":42443,"⋱</w>":12628,"वॉ</w>":30834,"मैदान</w>":16509,"억":5412,"धर्मी</w>":28496,"11/22</w>":41446,"भाजपाइयों</w>":48055,"पियां</w>":43230,"ज्योतिषआर्थिक</w>":22285,"नै":14193,"बदलती</w>":23397,"मोरी</w>":33967,"5/":21488,"၉":1867,"थोड़े</w>":19572,"</w>":11460,"सम्बन्धी</w>":22618,"":6294,"💰</w>":8351,"ड़ेपन</w>":50044,"खिलाफत</w>":38923,"बीमा":48318,"करवाए</w>":30518,"जोक्स</w>":26002,"गँ":33117,"ܚ":845,"巴</w>":11725,"महाराज</w>":17221,"</w>":10786,"🌑":6837,"54":26534,"करनेवाली</w>":34237,"":6095,"ά</w>":9667,"लोमड़ी</w>":43235,"पड़ते</w>":20555,"</w>":8165,"इण्":19151,"चूचियों</w>":36619,"ग्रेगोरी</w>":20542,"बुधवार</w>":15552,"डेवि":21163,"उदाहरणार्थ</w>":42142,"महिलाओं</w>":14262,"एमएल":37178,"उद्धव</w>":28914,"श्रीनगर</w>":21595,"👺</w>":9597,"उपबंध</w>":41950,"धड़कन</w>":24629,"परि</w>":29683,"पूर":19290,"बचें":36997,"बिलियन</w>":29417,"61":49349,"ầ":2219,"पाठी</w>":19469,"छम</w>":48772,"":6123,"वेधशाला</w>":47313,"मार्कण्डेय</w>":49973,"01,":45850,"लाइए</w>":37684,"शून्य":38130,"दिया":24696,"न्‍यूज</w>":38525,"नेह</w>":29027,"परत</w>":21413,"कर्ज":44782,"सत्यनारायण</w>":35693,"मूल्यवान</w>":31150,"धंधे</w>":27918,"तालमेल</w>":25879,"बुलबु":37290,"૪":1246,"गड्":23608,"ेय</w>":20292,"ᱨ</w>":10444,"मिलीमीटर</w>":46015,"ϸ</w>":9598,"अचंभित</w>":47495,"बनाइए</w>":37254,"ಧ</w>":9823,"圓":3705,"旦":4094,"날":5244,"추</w>":11908,"</w>":11373,"😅</w>":8286,"देहांत</w>":33472,"पिने</w>":40925,"बसों</w>":24263,"</w>":9928,"ᠨ</w>":10170,"☬</w>":12759,"हंस</w>":20798,"तट":22268,"装":4755,"कड":23648,"₡</w>":10760,"बीना</w>":31085,"निवे":18071,"मोद</w>":39071,"रघुवंशी</w>":47352,"오":5425,"झलकता</w>":43225,"03/15</w>":48164,"चपेट</w>":22106,"प्रोफ़ाइल</w>":25123,"जमा</w>":15335,"राजनेता</w>":22705,"૮</w>":10706,"08:":23965,"अलंकृत</w>":36309,"चन्द्रशेखर</w>":36766,"ज़रबै":43792,"कर्मों</w>":23571,"झुंझ":43009,"उपाध्याय</w>":23015,"डूबते</w>":35208,"तोर</w>":42613,"बरा</w>":20491,"बुलाया</w>":19159,"मूल्यांकन</w>":17531,"坦</w>":10362,"बियर</w>":29525,"黑</w>":9991,"समस्याएं</w>":19721,"हुं":40705,"एज":37377,"राग</w>":16473,"ท":1639,"फिट":38743,"मेनू</w>":22181,"शाप</w>":24268,"सुध":19522,"</w>":12574,"चन्द</w>":23155,"पहुँच</w>":16851,"भड़ास</w>":28625,"स्काई</w>":42465,"शुभारम्भ</w>":30164,"सलाह</w>":16016,"</w>":8553,"👢</w>":10120,"1947</w>":23278,"खोजबीन</w>":42389,"ट</w>":7691,"च्छ":13187,"गैले":47366,"एक्शन</w>":21478,"तिरुवन":43948,"दिया</w>":13093,"योधन</w>":28197,"स्केल</w>":35494,"हर्निया</w>":46480,"齿":5168,"मज़ाक</w>":28364,"शासित</w>":21888,"प्रताप":23704,"क़ुर":29550,"नायलॉन</w>":47727,"कबीर</w>":17930,"तैरना</w>":43988,"राजभवन</w>":35859,"वक्फ</w>":47335,"धक</w>":16488,"姫":3777,"24.":31814,"û</w>":9095,"कृति</w>":13925,"क्षै":19513,"":5694,"फ्":13321,"ע":645,"एंटनी</w>":41920,"和":3661,"州</w>":10161,
[...]
